/**
  ******************************************************************************
  * @file    network_data.c
  * @author  AST Embedded Analytics Research Platform
  * @date    2026-06-25T23:07:03-0400
  * @brief   AI Tool Automatic Code Generator for Embedded NN computing
  ******************************************************************************
  * Copyright (c) 2026 STMicroelectronics.
  * All rights reserved.
  *
  * This software is licensed under terms that can be found in the LICENSE file
  * in the root directory of this software component.
  * If no LICENSE file comes with this software, it is provided AS-IS.
  ******************************************************************************
  */

#include "network_data.h"
STAI_ALIGNED(8)
const uint64_t g_network_weights_array[61563] = {
  0xf111feeefbe45f5U, 0xeb2909fb0f10fa38U, 0x17e6f3ef1ec5fdecU, 0x3fd51c4411519c1U,
  0xd8f14217c34a5320U, 0x4eeeaa46fc29c3c8U, 0xbece5dedcc1f7eaU, 0xfa4e375d02feeafaU,
  0xb742f82b002059d7U, 0xe1082297c3449fU, 0xfcd634223be90114U, 0xb5ea371434f5ddf6U,
  0xdd1ee197edc8260bU, 0x2f3506014158e1e2U, 0xcfc509514b02d54aU, 0xfce1f1ca1f59ca3eU,
  0xa2be9bc2506f310U, 0x2b0af40f06c7204cU, 0xbb6f1b16f9fecfefU, 0xafa390ac3eba3b9U,
  0x3a5931f75dd712f8U, 0xf8c1fd12eafc2dfbU, 0x238bf8080e56fe36U, 0x18dafbe89a2643e2U,
  0xf43ec80cb74f12e9U, 0x2133f44c06bb3b1eU, 0xb20a04d819bffc14U, 0x27d70c2cdf0d08c0U,
  0x280218032738e504U, 0xc2f1b04f7d5f2ecU, 0xe63adf3108e9320eU, 0xa13c2c3fc8b31740U,
  0xee14deaeb0bfdffdU, 0x552e08af442a0c46U, 0xe2dfe1dc0df9f4c6U, 0xf0dae226dcbcd835U,
  0xe113fa61330fc1f7U, 0xb6fdfbdee1070a2eU, 0xd123dfb4e341260aU, 0xd153f1eb1825db5fU,
  0x33f3e15514c60fecU, 0xf32456c012d3de2fU, 0xee310403d4de5c19U, 0x2fe905ed0e10ec4bU,
  0xee21b3cf5b9d8d3U, 0x55f905c42fdcd525U, 0x2afdc8000aeb210eU, 0x21ac1ee5ffd3afd8U,
  0x1ee339fdb429b9e7U, 0x9eea78eb5090bbaU, 0xbc064c5ed1f4f8deU, 0x301c0717f8641423U,
  0xc3f0321e392d16d8U, 0xac3e3b25041efe10U, 0x13ca660b1314f9eaU, 0xf162c700dfc2e6ebU,
  0x8c10c17e024c40eU, 0x4cbcf5ceff09ed2bU, 0x13cff80e0114ebceU, 0xca22d825220ce5d4U,
  0x40eaf613dd1dd0f2U, 0xf8ac24b1e8fe3118U, 0x1ddec53918f5fbb3U, 0xd73a181fe0f3e8e6U,
  0x4dfbb5c8b012e3c3U, 0xbbe85bde0b10c7f8U, 0xca185203e80a16ffU, 0xd4c01df41196207dU,
  0x1703ec372b0805fcU, 0xd9e7de35d5682417U, 0x64f18cad4ec4326U, 0xec38031516f51f1eU,
  0x6b24144735b2fc65U, 0xc36ecad518fbfd05U, 0xde5c2b9e1d51c5f3U, 0xfbec11172923e578U,
  0xe5f40e40d1d42cdaU, 0x1438bcdef70acc23U, 0xca5ff5ea0adffe9bU, 0x2305ab13fb306012U,
  0xe4debf3e2cb146e8U, 0x2367b8f42ce5e3c0U, 0x243a2ce0edf6128dU, 0x2cf7ff4bf624f018U,
  0xdff1f26101d0f5bU, 0x7ff2b50f110ccbf1U, 0xfa06bd432af9f4b4U, 0xd301a13615bffb05U,
  0x5d727ef0c4395cfU, 0x30ce23d008e6f6dfU, 0xeeb5a8129ec1fa4dU, 0xe9e0ecc6e33825e5U,
  0xc53a3e1cd0adcbfcU, 0x52fe2b8d4f024f0cU, 0xe2df09dbf3102d14U, 0x1201e1cbd8f530c3U,
  0xf7e6d9130e3ae11eU, 0x8b124ea0dc7d100U, 0xa6323e3feb1a01e7U, 0x1db8c353f43318f4U,
  0x1040c61732efbdd4U, 0xc5032d0cbd62729U, 0xbd3f945fdccf416U, 0x1d19d652f0d6d6f9U,
  0x3721fed8f241b8caU, 0x37e8a2c3c73ec6f1U, 0x23f22b1171523dbU, 0xd6f8c21102ea07dbU,
  0x8191f3d24031621U, 0xdb3dec17cfeb01c8U, 0x1e120813ca3eea05U, 0xded5c31b440dd42dU,
  0xdc1d2cdcd7144119U, 0xda1eed0b06ef2be3U, 0x26ebd8f7df302d0bU, 0xb601f503e5f73e33U,
  0xce3fc10b262cdce6U, 0xfefffa3dfac6f6d9U, 0xe620809aee21608U, 0xe9f5c8163de7eddaU,
  0xced5ee27143dcce8U, 0xd10ca4182825fd00U, 0x1edb2c13f5d9ccf7U, 0xdaf215f70bfee5feU,
  0x2ee7e10c3efaf2e6U, 0x3cdcf8d8e513fd55U, 0xc3ce25f1222541fdU, 0xe119cdfd1622e6cdU,
  0x2100be0935211126U, 0x212b24efee1b4345U, 0xd93504f928febf28U, 0x963515160310329bU,
  0x4a3f12ef48f7d2fbU, 0xb1615ce080cf1fbU, 0xd0c3ec544310bc29U, 0xeeebce0823470b4dU,
  0x1fc325bfe355eadaU, 0xeaf6cc0df41af7fdU, 0x21ecd1f01f0e146U, 0x1f17303e1af7f836U,
  0x37a14ec10c09ffb6U, 0x1720fabed2350c27U, 0xe1c4e1f903e81198U, 0xe3c0ca9f313f1affU,
  0xd3eafd124547cfffU, 0xd46c059f55f8f4d6U, 0xc20119181499e6e2U, 0xfefd05dd325db805U,
  0xee04ef2b411430d0U, 0x173ea69398bcd6e2U, 0xd8342cd4034513f6U, 0x13695d03f60ddcb1U,
  0x1b12ff040500dc5bU, 0xb7f9f9fbce38fcffU, 0xddfd05e8eef062d5U, 0xead60b4ce7c5f24dU,
  0x71f08c7e607faf2U, 0xdfe17f07ee1504f2U, 0xcec24f22aa30d2d5U, 0x29a5d7c0d9e10fc9U,
  0x15c51ef418e803deU, 0x1efaebb3a173003U, 0xec15442ff434ef1cU, 0xe9ac0f5c0efdbf00U,
  0x1cf83006f8d114ceU, 0xfcf4c9fbec420e21U, 0x1ffe2cf4ee2f2029U, 0xb400ff14e2cfb023U,
  0x370ec909dacb0bfcU, 0xe91456c5a3fbe0f4U, 0xf8b6d0cdc63014e8U, 0x17e81c39f9d3e919U,
  0xe3c8ec4f0ff5e8b9U, 0x1152d6caf6cea3feU, 0x19bac2cbb2cb4ed1U, 0xdfb1ff45dcb8a9f0U,
  0xd6f4cef6f43305c5U, 0xfa38c418cce6f3b8U, 0xf914f42ab2eaf1f8U, 0x5604c6fc1bfa0bdbU,
  0xdd2232f628c5f513U, 0xc2ded0c2dedf0ed1U, 0xcc0b420a41dba32bU, 0xb945e2f9fbc4a916U,
  0x2b38f8071d1be541U, 0x2e28f92a0d0dfbd7U, 0xc2f5bd02ebdc12f3U, 0xe20dbd12e4ffbcb6U,
  0x46ea163ee21c030bU, 0x2be1d3ed451b2a01U, 0xe52800f4d3294ba4U, 0xdfecd20d003622cbU,
  0xf7d045c021f4233cU, 0xbb04f2d72621f93aU, 0xdd363b07f293e9eeU, 0x19cae0281e1028e5U,
  0xefc01f0543f0f9c4U, 0x270215073b1013f6U, 0x56e8f4190e1700e9U, 0xfd1ddfcfedbf2437U,
  0xfffc3c542e3fe712U, 0x2f1a3220d0001512U, 0x3909d5bf00cc5938U, 0xd331daee2016f1d4U,
  0xfeea25d83202de0aU, 0x60f2df016f01df0U, 0x4e3f6e012e263f4U, 0xed01aaeb122c3bd9U,
  0x631d5081bef42f1U, 0x164a4ae426f73cefU, 0xdc47eb14fd054dcaU, 0xb5e7ea1fedfb0ab5U,
  0xff2508de12e20503U, 0x1d0d0ee80fd74481U, 0x38f40deaf924f8fbU, 0xed39001f1b4aef5bU,
  0xe5e9f6f4e9340e10U, 0x5124eed62ef30ce7U, 0xe023c6d633dd62cfU, 0x643e4bfe035f3e8U,
  0xc82fc53f45de2a12U, 0xdbd110cea424fa3eU, 0xfffecc4c02d131edU, 0xd501dc040e6219f5U,
  0x20301e2800dae8deU, 0x6c30fc0433fa49ccU, 0x12f1fe0007e0cfe1U, 0xc6d1fe22e906cb0aU,
  0xfee032070be603f6U, 0xb9ccfc41c01fd313U, 0xb10625f32d0afa57U, 0xd3154df9e968efe2U,
  0x4ce3efc8e0d1c040U, 0xfb0b54eac2c7d0efU, 0x36e5c4e0edd4dfe1U, 0x16114c39c4170417U,
  0x9f7232bc513e2feU, 0x14c81db0040b0138U, 0x32bbf8f439b037c8U, 0xdbb6f03c24d40253U,
  0x21d10cf4063afc20U, 0x2a44dd18efe31cddU, 0x8d80d04f9be02f3U, 0xff5aa617e32ed6bfU,
  0xcb44e2214505e10dU, 0xce28bef9bf1b0ac2U, 0xbd2cedfc1595ef44U, 0xd813cbc605edf2e3U,
  0xe7de09ebe5ffa4fbU, 0x51fe2ff2d4c9c426U, 0xca8a5041dfac3abU, 0xc9e0d620061cd9d5U,
  0x300e3edff31cc6daU, 0x11069e81c0a4008U, 0x3ec062700fd1a1aU, 0xfaba101b1ff0d7f5U,
  0x2ea16e1d70ad628U, 0xdd1122ec4911fef1U, 0x18f6cf00f6d6182aU, 0xc6fd4b2afcf6caffU,
  0x12e849e7eb3ded13U, 0xd7e0d02d09f3f3e4U, 0x2bdeeb98bbe80d20U, 0xee48f5e3d13dc355U,
  0x6eef82ac2eb182fU, 0xd251ed22f627d9f4U, 0x14dc46fc1abd124cU, 0xd0f950dd2c1ae52aU,
  0xe3d7211beed445f8U, 0x1df2201bf628d10aU, 0xcad6cb0851c1e6d5U, 0x1acf05e1180bfa0dU,
  0x3cd6bf273706d7d2U, 0x18f41bc3cdfc2316U, 0xd33631a1dffbea23U, 0x81212fe0756f02eU,
  0xc73244432cd470bU, 0x1822d6153be2fcebU, 0xe823bc10efeef11cU, 0xef00e7210d02003bU,
  0x42d9bad9cd1aa03bU, 0xfe2eeef6231bfc10U, 0xfb15c5151fb6c1f4U, 0xf4c211e3320b1a10U,
  0xdf2a2038a90efd0cU, 0xff15271c0ee5ddeeU, 0x1acc123d0e0cec23U, 0xa6c817f5f1f1f2edU,
  0xf3033bee0514e1ffU, 0xfa972ff3ddc6fb25U, 0xfec8fc25dd15df1cU, 0xf3f429d4bc07101dU,
  0x19c3e0cb32e1291aU, 0x6e63af9dabe05d8U, 0xff1e9e10d0d53bU, 0x2bddef15ec33eaa9U,
  0x200526c9062b9e25U, 0x5d17ccb93a00d5d6U, 0xdff95728ccdccfe6U, 0x16e2fac5e8fefae6U,
  0xfbd20f00e6b7604eU, 0x1fd21ceb10205f23U, 0x201deecb0e452e3eU, 0x4536601a134d45f9U,
  0x6a7cd19fb0e4bd3U, 0x16235834fc181725U, 0x43e0d938424725eeU, 0xf2ee1becd31a3837U,
  0xc3e81918e4e0bbddU, 0x7d85eea0dfa19f3U, 0x1c4334debb3e24feU, 0x36a9a1410d0623c1U,
  0xd1f908c10c09c0d4U, 0xc82ddbdd0b30cde4U, 0xf0416ef45cbda0cU, 0x17b7f90900114811U,
  0xb2d2c941db2e2dU, 0x22f2d9ed42e2de25U, 0xd1c4ee0878072a02U, 0x4e0bef2f0efae3eeU,
  0x362c03ae15e943e8U, 0x235e0c10ed4c3621U, 0xce13199cd2df35faU, 0xb03e42e23be3c6f3U,
  0x46301600e132fcdfU, 0x14601823edbcbdc2U, 0x1e982b4eede1d934U, 0x2613c7169862f345U,
  0x1a37f5ab270dffd5U, 0x3f0d520d1aede2dbU, 0x93094f8d3fed008U, 0x1c9d2b598083114U,
  0x53f0f3cd1c2906ceU, 0x219a292ee43010feU, 0xbbc5ee1112e1ed01U, 0xedc1fe1d350bf32aU,
  0xd2e3fedd365fcc35U, 0xfe5cf6390d52fad1U, 0xe50737171785a6b2U, 0xe2c4eae4f845151aU,
  0xff14ca23df49e1fbU, 0xdd19f8d6d060e0bdU, 0x4a4bc016af11315aU, 0xeb2776dad95b01b0U,
  0x1f6dc46f3fb1cdaU, 0xcb28c4cbb4fff022U, 0x39f9c9f2aaee6b4eU, 0x17bbcc04edd33fdeU,
  0x1d4b33d7cd2520efU, 0xb50d7e13b5f114cfU, 0xe7dcef47c7f124daU, 0x12ee02c116d72cedU,
  0xd3f6e2d1d0d5d707U, 0x6ceecdc14a4b402cU, 0x1c0d20c2d03ffe1aU, 0x43c040f926c6d7f7U,
  0x1ae5d0d92d09dbd2U, 0xc93b0020ecd324bU, 0xe0211afe312417e3U, 0xab425cf037c1f125U,
  0xe0d2e8230a4a25f2U, 0xedd32c270eab7625U, 0x5f323be33dd0357U, 0x2dc021ecaedcc237U,
  0xc5014d4024e032c9U, 0x2c09aedbaa25f044U, 0x16ba2a31e61d2f26U, 0x1fc7ed04c9490c37U,
  0xff6129a332e0191bU, 0x44480481c8c40236U, 0x24274b4603dd1756U, 0x19e0e2ea995a0525U,
  0xfdcf67e7f9b56b20U, 0x54eb6405e23a4219U, 0x3ccf57d7d620f0c5U, 0xd854ec11011be70dU,
  0x410bb325f0b53504U, 0x110c6b737e2642aU, 0xb1f8c9dc00ae45cfU, 0x141d18adb2ba231cU,
  0xe236df0ce930d403U, 0xa9a421ffb2f9e6fdU, 0xcfc50644db101711U, 0xeb30f10e0b40c510U,
  0x30cb0ee9e6e9ef0eU, 0xe42fe2df4804201bU, 0x3300eae4510b1733U, 0xdefb0cc1f510fdf3U,
  0xc90617e2d0044319U, 0x2327d626ecdb1506U, 0xcdfdc0ad701c3bdU, 0xf401313ed1a9d6f9U,
  0xcc1edc06ca1218f8U, 0xdfdd1018d9fb48f4U, 0x32162616da182710U, 0x1b001ffad9c0b2d5U,
  0xcb1c1dee0500ef02U, 0x4503a3183516f91bU, 0xf5dffb2cf7c43e10U, 0xe2d6e22bfbca0214U,
  0xf5eed0a914e1cdfeU, 0x17681dfdd8f6cc2cU, 0xdf062902dbfc0e5eU, 0x20f93e04e113e91eU,
  0xfaf1f22004ca5144U, 0xe7ecf33dc3a733ecU, 0xc9c94af30f2bfdf8U, 0x4e16dbdef6252bc6U,
  0x5622ecbdb7c13209U, 0x29f1ef0648f22a47U, 0xe2f5a11226dce107U, 0xf8ffed3cf32126dfU,
  0x601f80eebf0d5ffU, 0xf3150642a0d2fa49U, 0xfffb0124f719f8f3U, 0xe3061a24f0fab82cU,
  0x1f0a11c1ebdbe701U, 0x2b5d1e18edf8290eU, 0xfe1d0cfaa8dd0fdcU, 0xe70015ced8afd940U,
  0xefe02309fef40218U, 0xfcfbd3251bb3e5ceU, 0xd21d0ff9dec121f9U, 0xe4081b321c3906f0U,
  0xe6fed5bfc6d6f92fU, 0xf42e231924f91cdaU, 0xead018ef24becc08U, 0x24fc2d16300bf70bU,
  0xb219f011eef7dedfU, 0x24e3a5f5140101fdU, 0x6ec2c327ff520e2U, 0x5150bdeed0436c5U,
  0x1abefcf3ba310ef3U, 0x1f14c6e6e003e8fcU, 0x23f4f9eb01dd16U, 0xfe01fafc2bd906e4U,
  0x37fff40cc6ccea29U, 0xfcf61bec480f08feU, 0xf0efb51dc81c21e3U, 0xf902100141f701f9U,
  0xa7e8e414e928c9efU, 0x2cd635f109c2d0e2U, 0x1002be30e2d612fbU, 0xe0fae6f0f8024dfcU,
  0xaf01f12eadbfcbcaU, 0xdcfd043afc2402U, 0xfd233f012001e810U, 0x23190ef63728e6c4U,
  0xf192019e506eaecU, 0xc1f80304f9de0431U, 0xb606341ee8eb29efU, 0xbdaf0efe4f125dcU,
  0x80bf3ef2327ccd0U, 0xf213e7fadc11fd0fU, 0xd2141e3ae2160021U, 0x22e3c8f4ebe21c2bU,
  0xe7d6cfe71b22ecceU, 0xdf241df4ebfcbc23U, 0xf71127ffed11ef1eU, 0xdfed0b09e0fe23deU,
  0x2a2eb800f8eed3fcU, 0x6ba101ced232dbcU, 0x17180109fc09ed08U, 0x3ffddfa15f5e930U,
  0xe30aeaf6ed011a11U, 0xd6131a142008f3f5U, 0x1f07cb4301e0f8e0U, 0x21fa1f0117e50c02U,
  0x17e2f713063cefe6U, 0xeaff15fb05e406d6U, 0xfb2e19f2edeec516U, 0x80df00debee06U,
  0x10ed12e834f0dafdU, 0x1b0b10ec00ed11ffU, 0xfbdf10e4fffe40U, 0xe2f6f1080a110ff5U,
  0x480fdb00e1ec2edaU, 0xa03ebd4121e0c1dU, 0xf10cec1ff8e5de04U, 0xf3f71ef0ce162bf3U,
  0xa709f4d54b41cde0U, 0xf50d8bb5dbac1d44U, 0x2bdc1c0352f137feU, 0x1d11d1e133134e65U,
  0xdabf1bc11fbc46e5U, 0xf9e3520645cf20b6U, 0x5f6652cac5c9291fU, 0x39c716e403242546U,
  0xd0232b084ad2dd6aU, 0x734f1be3ddbc9baU, 0xcda1e7b20dae4f0dU, 0xfebfebc3bb50ba8U,
  0xe6e849e1f1fbdbf5U, 0x434a344b493660eeU, 0xdf29f8390bbdf2faU, 0x2c2e5fbcfbec3ea4U,
  0x2c46a068f5f6dfb6U, 0xa3c6122d1cfb21d9U, 0xe7eec7c63d37eb10U, 0x50d9b5dc2ef3fa4bU,
  0x25d2f5ed020ec10dU, 0xecd91ab048d7cfd5U, 0xf0110f3ed235f9ceU, 0xc1aae830b5f31af4U,
  0xebfa4c1dd3effbcdU, 0x9ee2241f9ec0421U, 0xfd0e28ef0bfeec4fU, 0x7e72060cb22e806U,
  0xfe1ed01b3bb82f49U, 0x730c01bd3f0905bdU, 0xc23807e5dfd3231bU, 0x4ebe4fac412fd0cU,
  0x103dbaed00c9135aU, 0x28e1ea654f202fb9U, 0x42ebf8f30a1e1aeeU, 0x303e1804292d0d01U,
  0x4bc40dcc10faf5e6U, 0x3389fdeefc27bc67U, 0x1d03070c781dfeb4U, 0xf3f607f05506f8d7U,
  0xf0a22e9d9c12211U, 0x1528d72a0ccc55d6U, 0x24c54df90de5f603U, 0x2bbc07671af4410eU,
  0x389f06ecda40db25U, 0xad1fb3e0f131fa26U, 0xc8ab4a050d054b81U, 0x36fd07a50a103948U,
  0xe6e1eaec11f74d69U, 0xe13e3ac61ef565e7U, 0x3ce325dd279ed55aU, 0xeee8f425d6165420U,
  0xe6a4f81c9fc342e1U, 0x5e0811d040e32c1fU, 0xd28a29fdd5192fe6U, 0xf80227ec13dae920U,
  0x35db5f38ffe23ef0U, 0xd0dbebfb152e0bf7U, 0xcf080a0c2b0c34baU, 0xedfbb506b0f8311fU,
  0x14614e1b52f0d4d5U, 0xadd7e2f70460c4ecU, 0xe1e662d7153a9cdaU, 0x32c1aecb711c45a6U,
  0xff54251cea4e9b1cU, 0xfebcfe28b0039688U, 0xc0b8fb003924ab0eU, 0x44abb1ee02fcf1f4U,
  0xf724f506d231540cU, 0x32c7fcfa5837f635U, 0xfa56181d11fe0029U, 0x64820840d2f23b8eU,
  0xf52134eb24f1f423U, 0xfeb0e6da06f643deU, 0xb265f825b0c4b7e4U, 0xae1dfb8cf1700a5U,
  0x53c648eac2c2f667U, 0xdfbbf2fa16dcf4f9U, 0x45269f6aac19ed01U, 0xf6d533280db63592U,
  0xe9bf004fdff477d1U, 0x16a74845b00cae57U, 0x4c43020033224e6cU, 0xc6f7f429b69ada40U,
  0x9ab08f60a1bf3b0U, 0x1d4109271e0a043bU, 0xc70ec4ff50e13ddfU, 0x63dcfd44f22e49cfU,
  0xf8cb4baedc4deb8bU, 0xe2e0fdcdf2baf9f9U, 0x15c6345f2c37c945U, 0x4ab443f6a2bfb33U,
  0xc8f70309bcc7cd23U, 0x70bb6b5f9c8afdaU, 0x1fa622f14e306c12U, 0x27b3363100165b2eU,
  0x928d4e9c00c3918U, 0xb4dfc102f1a171eU, 0xee11eafb010b18eaU, 0xc832e60e0bf5c4ccU,
  0x35f31a16db32fe17U, 0x32f8311fc9fbd327U, 0xf9d3e245feebfbdbU, 0xca1b18f7092ccb26U,
  0xdefdf644cbe43b1cU, 0xe1212228f4eaf818U, 0x62e5c8fdf716205aU, 0xfff0e2049cdd1c05U,
  0xd3c910f613ead5d1U, 0x17e11af527f7e334U, 0xed10ecd84d112ebaU, 0xefeb0cc251dd747U,
  0xee2cddfc0629cd15U, 0x2b5606d5fd0cfff1U, 0xe50f1d36ffbcdf06U, 0xf3e41702ed3fc4f3U,
  0x11fe03fe4bf10813U, 0x82f0dd2adf135f1U, 0x23d3e5e8e704350fU, 0x4162fbefcefd181cU,
  0xffdf80ae70bf115U, 0x132ed30219431235U, 0xc728d6f5ecf3dbd5U, 0x31c407ee02fadc2aU,
  0x73b2504fd21d60bU, 0xd42a50ddb9fa17f9U, 0xdd42e09da15fab3U, 0xd60b0f29d734dcfdU,
  0xc310560a06c5e0f9U, 0xa141f5d007f5fb0aU, 0x81070894e9122ed6U, 0xddb0be29f6e9ea3fU,
  0xcdf12c29ebdfdfefU, 0xdad2184317583d1fU, 0x17d8f9f5ed06d50fU, 0xee15eaebe205de37U,
  0x22fcc114ccd91817U, 0xed1b0d2496271052U, 0xb3e0ae910f71e4eU, 0xd504f924e22ab12cU,
  0x97c2692ad1d7f1c6U, 0x391761db2af7c925U, 0x13e100b1171731c6U, 0xad691d0e5c30f3dU,
  0x4ad9b02e4cdb13bfU, 0xf20ecfa0ecea08f9U, 0xc2d018e3d5fe37c6U, 0xe74602f6e914f80eU,
  0xd532150627d333edU, 0x1517c80f26cc34aeU, 0xc3ffe5211015d2f9U, 0xc43fd8e4cbe8dbf5U,
  0x22ece3bed2f8e113U, 0x4c3c14dee13808dcU, 0xdaed13ee01f8f3f6U, 0xf31c13ec0437dedeU,
  0x11402223e205c9d6U, 0xfaf73dece753beffU, 0xf3dee1f4dd2919d9U, 0xf7ed1c14ea51631aU,
  0xe90ee0f5de0eff36U, 0x3ac23a62ea16dbf6U, 0xc7f73b120339effaU, 0xd2e8e539d4b80b24U,
  0x3dfbef001739e9e6U, 0xe603422bec32d8efU, 0xbe3c0c201ced3520U, 0xb32d60028dcfcU,
  0xeeff05fb2238e530U, 0x60ae217521e1cf6U, 0xf9211be5110fe633U, 0xd6340c00c82612ecU,
  0x5d11a36b20729e7U, 0x1cf24b105bd0136U, 0x464cfcd97f00f3afU, 0x39acd7da0f170b00U,
  0xd2d809043fecd316U, 0x1fe8f8d9392d16d5U, 0x1c392bf9fbd4f420U, 0x33fb3235d71eb9e9U,
  0x1d0ab029041a4746U, 0x2740e2dc171201a9U, 0xb8fed21012badc2eU, 0xcd09d53f18bf10d8U,
  0x4e610fc1cfdadedU, 0xe9c5efd71921200aU, 0xf6d60ce71bd4bb0cU, 0xbd449e5210bf5f5U,
  0x14aee0eb60be72cU, 0xf9ea58c3f5e129ffU, 0xf5c251d235072e08U, 0x7c0ffc91d050f01U,
  0x2e43106a1e1b04U, 0xb91218fd07dde467U, 0xedd0f4f5d01de5fbU, 0xebabd709c9ebf311U,
  0x8d914701bd4c8c2U, 0xb0262e2ddc1b3e25U, 0x1e0d2f011c41f2e5U, 0x9334d2a3f517f1ebU,
  0x2e71013f5e6de05U, 0xaf4d1ec1528d83cU, 0xa53f92713534103U, 0xf0dcaf21c24052cfU,
  0xe997552f10e81fcfU, 0xf9721806c50d24e0U, 0x7bcdb8db813e289U, 0xe61dbfc818f53adcU,
  0xe0eeef1906dfe706U, 0x1afff8de5cd12af3U, 0x1c3932fa00c3f1f4U, 0xed14ec3205d5e03aU,
  0xdc4ca8f0eb0731daU, 0xf6c6e5ed303d02baU, 0xb1f41fde5ccc10aU, 0xf8e937dff036ce06U,
  0x9dfcb039ea0e0266U, 0x2736a7e8e15cbedeU, 0xd8c50fe8c5132431U, 0x1c1aeb4be6e402cdU,
  0x114c950844f4032bU, 0xbc09ff0123f11416U, 0xc80e2a4331d425d8U, 0x1af2311606e3f62dU,
  0xaa17ebf5bd3157f4U, 0xd8f00ef706c72c2aU, 0xfddfdc2e1d01b710U, 0xd00145d743184eeeU,
  0xf8da2f19573c4ed8U, 0xf4d6022b191afb12U, 0x12dd1435f81df1b6U, 0x1a28d8e8d123d226U,
  0xc227080806f1d118U, 0x4e4bd2256bbf7dfU, 0xfdf12c0935caf937U, 0xce0cf019eec7e51eU,
  0xf9913e0b331a3a35U, 0xa582003002e2216U, 0xff39e3f416de1ceeU, 0x15e817ce3e7f296cU,
  0xff20e9311124143dU, 0x1c122b454eddcff5U, 0xea39f1d933ddecb8U, 0x21a0e23174a1255U,
  0x1f1aa1bd0dc5ebdcU, 0xd6d1d7d5f7c71008U, 0xf3c6f5a9e6e4f4deU, 0xb302021023344411U,
  0x2126172ee2e83143U, 0x153da851dd341c2aU, 0xe11b1a0fe21f59a4U, 0x14110f11b0b608eeU,
  0xc65be3e032fa5601U, 0xf236181652cef7ddU, 0x14eab2c239dc15U, 0x2801f7b9fa180b31U,
  0x3e47034cc841f914U, 0x359fe9cdd21714cfU, 0xf1dad70f064e2615U, 0x56cee1e5e4f3b7f4U,
  0x5c1c3719d5f12bc5U, 0x3fe3f7fedb08af3aU, 0xb2ffb7ee11064749U, 0xe2fe4bd8c742e8f5U,
  0x254dfe05db02c74eU, 0x7052cf90cff2a3cU, 0x14342eeae9cc4624U, 0xf8bdefcb173c11fbU,
  0x1cf3f0904e2fbf6U, 0x2c3909317aef5f5U, 0x4cf1ee98e24c1bc1U, 0xefd5f51afc01fee6U,
  0x3405f4d6e1f7b73aU, 0x44d7239ff840c427U, 0x4ced445009f40033U, 0xafa2e131e5136caU,
  0x1ee2f140d012bbdU, 0x7502ffc15d347d5U, 0xaba8eb3113b103ebU, 0xfe7d66114d4ad94U,
  0x520c51cbf2a3e8d0U, 0xbac5edf723df1a0eU, 0xd5db204209c0d322U, 0xea10ebecfd3a0ee4U,
  0x4cfe030ab450effcU, 0xbbc8e6dafcbfe8eaU, 0x2ab70c34f61becc8U, 0xd0c06fdf648221bU,
  0x8d7f142e6e8fafaU, 0xd91ac6d81735162eU, 0x407231d0428001eU, 0x32ac2112091df103U,
  0xf8f2bfdcdf402ff2U, 0xddd5ee0afce007e1U, 0x4ea2e07fc0912deU, 0x3b3ff6bbd131e549U,
  0xee2f51c36e4eef2U, 0x19e412b51c04e5bdU, 0x1acd79e21705c1f5U, 0x1e223a012906c530U,
  0xcad1b4200eca0ddeU, 0xfcefd7d72f31ce41U, 0x29462e0bf407ef1bU, 0xed71dedcf32fa2eU,
  0x12bde71705d4e2dcU, 0xdde101f10de06e7U, 0x10e8d7dff93af52cU, 0x7ffd6eb7da0adc4bU,
  0xe52116022bd8e02bU, 0x18cd271cd9dfd6f5U, 0x1f34ddf50af502c8U, 0x1f09e90dead2e9f2U,
  0x3306fc1c000508d2U, 0xf8f038dfec611d1eU, 0x334c2ff9efdc11deU, 0x41c32dbd280cf62aU,
  0xe9bffb00d623ebeeU, 0x33f403edebefd8bbU, 0x4ed12e5d0f4071eU, 0xcae5fc13f7373ca7U,
  0xc6d1cb0e040f4cf7U, 0x2cf3eedce6b52ab1U, 0x1fe9dd5822ecbd22U, 0x520ffe83ceec6fbU,
  0xaff7a9f33df707f3U, 0x2dedf51e12192566U, 0xd19805340affd8cfU, 0xc0fe5f53f5f1f97U,
  0xeed9f0c6181cfcd4U, 0xfd080cf225ee2bd8U, 0x49f41ebad83ebf17U, 0x3f54f8c7bd5aeae8U,
  0xe5fedd202a2605efU, 0xcea3092c0224dde7U, 0x2d4a30ea0f19eb53U, 0x59e47b53b590d30U,
  0x3ae739d2e80bbc34U, 0xfaaa10f2423607d8U, 0x7f7ae03cb041000U, 0x1726300edff5ecddU,
  0xd205e024ee14d0e1U, 0xdc1627d08ffc11d2U, 0x1b3e46c2dbe62d2cU, 0x131472ddeae5059aU,
  0x37c12a02eb070241U, 0xd720f8dfd8264a13U, 0xf625f00b35f5e6c6U, 0xdc1860c54df53bd5U,
  0x42f4dff361371fc2U, 0xae3614e2f71621faU, 0xdff444f70612c9f5U, 0xa8cb2b01fee0300eU,
  0xfc13f436c90a0b0fU, 0xfde12afaf0d6e7e8U, 0xf8decc3d031c01f4U, 0x519b8fefae1e205U,
  0x35282eef3f4102d2U, 0x42f9fb18e029f908U, 0xf51901e32706090eU, 0x24fb362dd213040dU,
  0xd72b0cc1061d04f1U, 0x32fee0fa0ced111aU, 0x23383b27eefff6d7U, 0xbee0f9d1c54d39d1U,
  0xd9243bf7f6c70bfbU, 0x17e72301e8ba1b2cU, 0x704ca04db27c4ecU, 0x1dce1cb61ff106deU,
  0xd416fad329c9d520U, 0x15d818dfe527d839U, 0x2df637c5ccfd04edU, 0x16072e381941f8fcU,
  0xe206e4ea052cee3aU, 0xc53428e7e4f637fdU, 0x1eeb1efae9120020U, 0x37db121017eb0fb9U,
  0x9ee2dd2fa3830f3U, 0xcec2e20504332b1eU, 0xf9ede0e6f7edeb2aU, 0x8e62a09f0f0ee0fU,
  0xa1df81dcd26e20aU, 0xd11215f003eaf6ebU, 0x2ae9e6fffe19f2e1U, 0xc03e01af6fcde0fU,
  0xddda513aecf6d1f1U, 0x10eda7e2bf0ee6e2U, 0x1d0fccc341e8dedaU, 0x171eecd1e13bfbf9U,
  0xeaec431b12bc0141U, 0x190ceffa285aa8bfU, 0xfe36bfe221fa34e8U, 0x3b0b0755cae3d836U,
  0xce011835dcf03231U, 0xcb170df005a3f5aeU, 0xfc42be8d2050e0bU, 0x46c028ff1eebb5d3U,
  0xa4030ffd17fdf9f8U, 0x18fb1afb6207f41eU, 0xe628e93afe00f2ebU, 0xb9e358fbc8b8ecadU,
  0x8290f572f1007e5U, 0x28f9eaed2bd631cdU, 0xa6e4300eec1eee08U, 0xd063b11f648e030U,
  0xb0f6230031e2082dU, 0x507ca0bd8de2c61U, 0xf328100046f0c4f2U, 0x4cf1933708fe323aU,
  0x27f12af40aead201U, 0xb40b2753edfcf933U, 0x15e7d70900cc810eU, 0x31aa0055d4370bf4U,
  0xe019efffbea5bf24U, 0x281ef4e3f8dce31dU, 0xb6bdb5f9c7f77d17U, 0x251a3402180ce2f4U,
  0xb1f9db07d02514ecU, 0x3bfeff0eeff001c8U, 0xe2301db0846f9f4U, 0x422d1405011220f1U,
  0xf94212e1c7441429U, 0x3c2329e3f70b0708U, 0xc03732c849013d41U, 0x16c4f43ac31704ebU,
  0x193a32ece0cbb330U, 0xdddf13dced1deb0dU, 0xfcfe15f4ba0d0eU, 0x48dfe33eef2801fdU,
  0xe5db27f10e1cdc3cU, 0x7e910d82b1432baU, 0x17400017511a02deU, 0x43d090d09ce28c8U,
  0x1be53026bb1dfff6U, 0x233c2e03900ffe8U, 0x45f23cfef904243aU, 0x14f3bd1c30e0070dU,
  0x3cd308f4063236f9U, 0xfae002e61af7ff36U, 0xb1fddc1adbc6df3eU, 0xe0caaa0dd9c1ebe7U,
  0xccb3f9f4000af5c9U, 0x13d2fb0f05fde7eeU, 0x52010044efe205fbU, 0x41fcfcbf01b4e450U,
  0x351633e7e0210849U, 0xd0fc0ce7e7fbd505U, 0xed1317f8f9fa33ccU, 0x39f4d2ef3b1a1fe8U,
  0xc80eb3eceaf4bcc5U, 0xca261f39d03bdbeaU, 0xfe25021516271e0dU, 0x1c0325f4142f1642U,
  0x22f70a11e5d010d8U, 0xc44dec0817c3100eU, 0xd827ecf5d2e3fa14U, 0xc9d9c5d812c23218U,
  0xeaf02cbd50d306e0U, 0x1e39a6152f1328ebU, 0xfd5321e70afb04c2U, 0xf8dccfc9fbfd5103U,
  0xf923cc03193ad2efU, 0xbad21e0befdc49c6U, 0x2302271b2b190fe8U, 0x462fed04db2c54fbU,
  0xea18d3e8bfc316d3U, 0x151b20eccdb31ebaU, 0x31ccf0cf438deeaU, 0xfcc934100dc7fadcU,
  0x21c8f7cd08f1e9bcU, 0x1201fa360ef90d18U, 0xf2ccfa0dd3fc2ccbU, 0x27db18faf2e0362aU,
  0x8f2cecb16c30b1bU, 0xe12d05ffdac42ae6U, 0x31c62d1111eb38efU, 0xd5eafbf0072b3824U,
  0x24e5dbf9391eec26U, 0xcad71baa08ed3020U, 0xdf2e022144bce80aU, 0x580e21ddec16f2d5U,
  0xd317dcd7fb01cddcU, 0xdfd2e207ed24d81aU, 0x21d4d6ff1c18d8f9U, 0x1dcd810e8f32cddU,
  0x1ff0e9c71a0224f9U, 0x2a31ff13de2e23e9U, 0xe30926d6fe30def7U, 0x71518d60e2f2646U,
  0xd6f1e507171bd4f5U, 0x3fd2130edd5d5daU, 0x10fbcf32e0dc0c0bU, 0xe32019220f0be222U,
  0x2fc55cb28e6fef9U, 0xb2ef322e43fd735U, 0x3e2e1f02aff2414U, 0x171d1ef4dbe520d4U,
  0x2853ffeef5d8f002U, 0x323532da33edcde8U, 0xc2ddfbfe15fe2712U, 0x2d230bd72106f724U,
  0x50fe7e81acfde2eU, 0xde61b15f9f91915U, 0xe3ec21f40230ec0eU, 0xce33df0ac702e4dcU,
  0xf3e621f80d0303dbU, 0xd2cc050126342f1dU, 0xe44f10141402eadaU, 0x5ee1fef111c33dcU,
  0xeb08f4d6f42f0912U, 0xfde1f24f92a0fd2U, 0x1bd0d622ece03dfaU, 0xcc1825f42b24e205U,
  0xc70642c7faab0c55U, 0xa916d8e1023de01cU, 0xec0b1abbf6d82fb8U, 0xe4e1ea44c7e63f66U,
  0xb901ce5a3bc2111aU, 0x1c73b29fa4cfaffU, 0x5f1ddcfa3655d81bU, 0xd90005cc30b7180fU,
  0xefdd2b4edbee2028U, 0xed341819dad8eb19U, 0xef2903de144a2035U, 0xeac5d237e8d10f18U,
  0xf4fff74ecb1622ebU, 0x297fc7cdd6e1b826U, 0xd7f047eaf0f347feU, 0x1f5eecc104cd4541U,
  0xc412cf300c0d2e32U, 0x1a0bc5c2e6c72a03U, 0x2ef231e02cf1f7deU, 0xfc1f0b2eaa282f19U,
  0x30ee3acde0b42129U, 0x12b7b4036df7d308U, 0x20ea4708d513e3bfU, 0xbb4519e43c02d53eU,
  0xcfcef713163c2a46U, 0x2eb9e1372b2ec6acU, 0xf7031309f0de35b3U, 0x150bee08c51511eeU,
  0x2c04352de0eed60aU, 0xede2a9f9c66c1b03U, 0x13282df7ee1af5ecU, 0xc729f3ec1d0248d1U,
  0xfbe8333abbebefd5U, 0x5ff3aed1046defbU, 0x90de29f8292127c8U, 0xdcc20bd6cdbe2a06U,
  0x4be4f90bf02410c5U, 0xc7e4c606cad9de2dU, 0xc5effddaecdd5b09U, 0xfd05382cf2e1e1fcU,
  0x11104100f63418ebU, 0x2dc0d1b0a3007ecU, 0xbe034a04ed24d126U, 0xf2ead2e63d190116U,
  0xdbb425ede21d3035U, 0x2102e30532f8ead3U, 0x8fce2e63551240fU, 0x3918ea17e6c12ac8U,
  0xe01bf504ef070bU, 0x6f411f1d007bd0aU, 0xfb3743b9eadd3a00U, 0xeda270c04d70b19U,
  0xc80d285a0623efeaU, 0xe70a091152001ae3U, 0xece993072ade0208U, 0x218f01c20f6dcecU,
  0xdbf4cfc82441b4d7U, 0xfadb1df413d604cfU, 0xbd07ed2523d6c032U, 0x2f8351966de070bU,
  0xef1d3c46e01104ebU, 0x71030a8f3d7d5d0U, 0x51b53125400a4606U, 0xf6c3fafd02e10bdcU,
  0x2240addf700ec07U, 0xf6021036e21d3a05U, 0x1b1cf6e53318fb1dU, 0x1e2b400519f8fbebU,
  0xe7f0faf00a43f205U, 0x23f33be8d7ec0906U, 0xf6f5f3e0f30fc610U, 0x2f051bff26f2e2bfU,
  0x1a000ce91a05cf2cU, 0xf9060ef2d7cf350cU, 0x229d1d128e2e2ebU, 0xec05dd0fd2de10e4U,
  0xe9dffe1e1f2c2fdbU, 0xea23230df6db2a13U, 0xc50817f647d33afbU, 0xb1ea2ade38eb2cf8U,
  0xfbc5edfd10f0e91fU, 0xfefdc9f717dc1bc2U, 0xf500c8ccefec1218U, 0x5d134c8041a31b5U,
  0xe02c5e9d6f20212U, 0xf026dff41fe3e436U, 0xe6e0dc2e11f84411U, 0x37e9c4fc09f6eeeaU,
  0xf7dad221e9eb080cU, 0x8e81b0c1d26090fU, 0x24ff0940e5dccf00U, 0x26ff0913dc0d0b05U,
  0xdff605ff22e0f314U, 0xe0d615320636e8f5U, 0xfb2709270b082003U, 0xe213170af9411c20U,
  0xd8180be4c8ce13f9U, 0xefc7d0ed3304d34dU, 0xd02a1af9f23efdc8U, 0xf5dce331041ee4ceU,
  0x32dda34fc131ab9U, 0xccdc03fe150d1302U, 0xf8e30a0ddc40cc40U, 0xe42b19d50a260c19U,
  0x18dcd1fb18ec19d4U, 0xe5fe3cd4e9f5d540U, 0xe903c12feed81732U, 0xe32ef4e7f4d5c0f9U,
  0xc21fb2cf1e5e6eeU, 0xe008d80af0e24041U, 0x70e90bcdfddcffe4U, 0x2ad9b411e831df1dU,
  0xef07fc2cfb381020U, 0xe96c0e01200cf6cfU, 0x16120d4ff106e7c9U, 0x17dcdffe093f0807U,
  0xf9f7132b4544e01fU, 0xd8df0a06be121bb1U, 0xddc0fd9ef015de01U, 0xea03da16c7fe26d0U,
  0xc030ae312e9ef29U, 0x13f704f2d20311faU, 0x28d1e62743ebf8f0U, 0xd41b30f3dad8cd20U,
  0x323f25c9eaf1eddaU, 0xcde22d07be1afcf9U, 0xd61ce60ce81d0bd3U, 0xfe100a6cdbf711cfU,
  0xfcd03f2c5e0ce37U, 0xe90001f006c50902U, 0xbd492ff0af3347e1U, 0x35edeff71f94e135U,
  0xe2fd0421cbe4b83eU, 0xd1b2c7f203171bcbU, 0x5a1e4396cdfc25e5U, 0x2a283505473f0e53U,
  0x4f036367fde76927U, 0xaae848d7e10816b4U, 0xb22930f2741b1813U, 0xede7ea18512bd854U,
  0xa9e5e724091233c0U, 0x18e78ffdbe2ad206U, 0x1500e30f392dfbf7U, 0x103c9547b31f033bU,
  0x1329f723ea190d07U, 0xff6a7f2e8da079cU, 0xb7357ff4e9f3ecdaU, 0x3ec0e617f7f2d532U,
  0xda4b20da50020d21U, 0x3abf15fb19d98d2dU, 0x3f1e854114be4fbU, 0xced7fd1e45c4e951U,
  0xf144fc051d39b511U, 0x36ddf531123e149aU, 0x934e3d12cebc0fa5U, 0x23f913cd26131fccU,
  0xe92bd6259425ffabU, 0x15e13ece2f1d08eeU, 0xfbfc55f2411ba6d6U, 0x3a22c2f7d4f03ee6U,
  0x1309b72c301b02e8U, 0x72354a2d1fc82c45U, 0xcee82dc3979a190dU, 0xedfa0546fddad1eaU,
  0xc41ea4621413621U, 0xca03c9d927ba1c39U, 0x38ebae6d292db7d8U, 0xde4e3bf641779ba5U,
  0xbfebafefed1dd06U, 0x16fbec06c415c3eeU, 0x601f2fc48e3f918U, 0xbe23f934e94c5515U,
  0x26d616f3ee24c0e4U, 0xc4c81ad7dcbc30b0U, 0x3d81fabd51e5dff5U, 0xb609f3bede33cb13U,
  0xffc733c02d0ddc25U, 0x1b3a58cf6f38e213U, 0x3b86522d13aa17beU, 0xc951c5185d4a2a0aU,
  0xfedaf421fed4dbebU, 0xf609deb3e82902b3U, 0xf8f018d18bc12906U, 0xf49a3614a2389ccfU,
  0xfcc5f20022e3d712U, 0x2834f0cdda1eb539U, 0x2cabbfbcd2a5875U, 0xc836f20dcb275617U,
  0x1bfae1d9203c09faU, 0x18df3358ed27f61aU, 0xcba967e681e90ae4U, 0xd9f7fec30117990bU,
  0xbdc61e20043809d1U, 0xbed0cdece1fafb34U, 0xcc14153033bf17d4U, 0xda24dbbfdaed2f05U,
  0x67c211b1af0601e3U, 0x1fc310fa411d0ad7U, 0x4e1328ec28c2f501U, 0x60d8f908e004204aU,
  0xf61f1daee231d22eU, 0x37fb15b90df7d4f6U, 0x9dd206010af0e0f2U, 0xea211b01681416ebU,
  0x37f14800eee8e6f3U, 0xd4231330f21013b0U, 0x1941f4bf2e06c9faU, 0xce3280912e708e3U,
  0x38edff3f2932d7abU, 0xf3112016484e1343U, 0x404020fbe8f3f4ccU, 0x117cdcdfcfe1d4aU,
  0xf00ddf20ecf11b16U, 0x1dcb48bc5707d1dbU, 0x262ae733173be20bU, 0xba01f422da4ffa0aU,
  0xc7d4da44f4fdf2b9U, 0x13fa2905eed62a23U, 0x1819fdeaced62053U, 0x25ecfc07310a0d0aU,
  0xe6f002e2d0c0320dU, 0x36f6ecd0e7e7e11cU, 0x2d1de9f7e5eda3bbU, 0xfdcce6abd9f94e0eU,
  0xd70f00f23a2df573U, 0xebeffd520ff60b8bU, 0x262c01f2ad49e5f0U, 0xdccc1a0afa0cc24dU,
  0xd062ee6ef03171eU, 0x901e3e6bb3cd939U, 0xc629f6dc1dc84920U, 0x2cfb4e211c0ed69bU,
  0x2438334fe609cc43U, 0xecf3d7ee36df21f2U, 0x92168ca0a1a0cacU, 0xa2b4c21c190fd420U,
  0xacce4d08dc2e35dfU, 0xd9d1a7caff0e0140U, 0xeb1015311e0b2be2U, 0xeacff7d1e44803eeU,
  0xecc43207ffd02c0bU, 0xeeee4156241f13f1U, 0xdb1fcf5e722394eU, 0x12c6f2f5f4d23606U,
  0x38d6d5379bef5430U, 0x4ffc2be35e17ef18U, 0xc6c8ddfbbe1342f0U, 0xdcf7b05a57daebf2U,
  0x4f4629c148f7ffbeU, 0xa3f9ab131d0e2954U, 0x1e02fd1708ae100cU, 0x9002b700effb4fe2U,
  0x2fe5fe5130ffd4e7U, 0x14bcfb4b6f26d8bcU, 0x3210aa7196534edU, 0x10f30db32c5e0efcU,
  0x63648e3ecdcdc0cU, 0x29f3ebaf0e2c49fcU, 0x2f09b99adf3c4602U, 0xdf3def10f5e5e5feU,
  0x2fe004cd422df445U, 0x32f1b310e7d6bbe3U, 0x2fedf6bde8ecb704U, 0xc7f9f10d0155dd0fU,
  0xef2eb1f6b4c2f31dU, 0xdcd52922f7fe3707U, 0x1d22f902e5bffdf5U, 0xe8f00cea08100c14U,
  0xacf31707fa0f102aU, 0xeddefe0f2101dd29U, 0xc1e6ce0f03bdef18U, 0x9f7fb0b4ffae3e7U,
  0x32e16f418f7eb1dU, 0xdee15fdf8e919e8U, 0xc4ca2ceee6ec0323U, 0x37d946e709ff4ff3U,
  0x16e460b018002910U, 0xe8d12be817061509U, 0x27dbbdfb09550f61U, 0x4f06bbd5f0f412eaU,
  0x4355efe5e4bd21faU, 0xc0f8363315fe3839U, 0x1545f9cdfd030621U, 0xb0f5ed05edca4bf1U,
  0x5ed27e7f34adcf8U, 0xfbe22219c91d07d2U, 0x1608ba03ba181b11U, 0xf7451f06cefbf60aU,
  0x38e8ed09dbcce1f9U, 0xc31a54284fdeeb38U, 0xff3a2ea2b4372cf1U, 0xbebe01ce04e4f829U,
  0x5c6cc0ca7b8db11U, 0xa31f02411e381023U, 0x1f4a51eed83ed6dfU, 0xed1b34f41c4ae400U,
  0xb0b07f6f1ab0337U, 0xfb2f20db0cfeea2cU, 0xef4c44040e4b174aU, 0xb6b339f9e7f6fe33U,
  0xee050c400a0ecdabU, 0x16c5c5ed42ef0017U, 0xeb00ccd4ee2548c9U, 0x7f2bf48fdd77f06U,
  0xebbcc722f73bf6dcU, 0xd14deded8fcaeccU, 0x21412b07092707a2U, 0x25cff30613efefd8U,
  0xfe18eb321019343eU, 0x280fd7312cf10883U, 0xfddb365926f6c0ecU, 0xca12fd08ef2cbc1eU,
  0xd3dfbf17031cc2fdU, 0x3e05d9c00af8f4cbU, 0xaae0b90425dc043cU, 0x26c00411f13204cdU,
  0x43e270ec6cb0ea4U, 0x2d54ede0b032b0dU, 0x1b101c445418eec2U, 0xcbf3e407d81745dbU,
  0x191ea51bc71bee39U, 0x2edc4e20df381332U, 0xf53fec17b33c2517U, 0x360e2b65b5cbf925U,
  0x15f2e9394c1fe5efU, 0x22f8270dacb82e45U, 0xf641d1e0e151f5c8U, 0xea5a0ee65d062d2cU,
  0xb54bfd5929e609f8U, 0x36c2fc4624445217U, 0xff226a2b320cb6f4U, 0x262a0b1f09274152U,
  0xe82e06eb2af84508U, 0xfdec2af0c1dacabdU, 0xcc511bf7f22ae3faU, 0x384aa6c2202143d8U,
  0x27562ff502cb0a01U, 0x1622f2b3c6c8d311U, 0xf40ff7b6e9f7f0feU, 0x11b50027d3c4f011U,
  0x290d20f9031a100fU, 0x2dc03444949c12dU, 0x21d0e90ec8245c1dU, 0xe00695ef2bf418e8U,
  0xedf7cb120ee83f3fU, 0xb4b4aeda114958c5U, 0xce614bc413ff0022U, 0xebe74bab3bdd2320U,
  0x25d7c315d84e9c03U, 0xc41e2ade30e0d5f0U, 0x3e12ae33df74736U, 0x32e832f13eea10d9U,
  0xdbfe07404afac4cdU, 0xe990e627daacf0d3U, 0xd204401ceb511ee9U, 0xd3d6f6d5c325dbf9U,
  0xd8cb101529dee4dbU, 0xfdc10a42c1002d0cU, 0xf327fae2d1e7feb5U, 0x600ccae04a1302f5U,
  0xe020c2a210e000aU, 0xf7c41007112d0626U, 0xc443ed222011ff2U, 0xe7e1cf050359be24U,
  0xd9d4104329270e01U, 0xfacc45fdeee619ffU, 0x375706c24045fb13U, 0xabffe0837f102ecU,
  0x21df4105fbf2eeabU, 0x31c10ccbc903fcf1U, 0xdbc3cdc3f12b701fU, 0x3c05007c8afdf64U,
  0xd001dcee143823d9U, 0xd90a081c24c80000U, 0xd34e17d24df430efU, 0xf451b52c52a2e4d4U,
  0x30c31cb334fdfde9U, 0xc1ea0ac4a90c44cdU, 0xec282a3a0eb1e105U, 0x8cf52de8584018d8U,
  0xf2283b1422ea0d81U, 0xca361ac31a32f36fU, 0xd3a507d3000b03c7U, 0xb1c2240ffd075c23U,
  0x5514c6cf9be3bf2fU, 0x5321371a050d07a4U, 0xddfa2d27f00aeb29U, 0x151ffede15cb24eeU,
  0x32c6f3ee4adf1b0fU, 0x40cca6fed3b9e139U, 0xecdef5fcdccdf1baU, 0x44ea333624513cd8U,
  0x224e1fd09ddeee5U, 0xf4f214004e034431U, 0x1f2dfe1d0b9ba1dU, 0xf2f80b18f5ff2aaeU,
  0xdef22d0706100519U, 0xb5f417303df454c3U, 0x272d0df4750dba01U, 0x28dae6de14160cbaU,
  0x2002091a1beb4311U, 0x411d44f8f0e7f4e0U, 0xfc43bc4cde27c50eU, 0x10e13e41bc41db9U,
  0x20d7e9facc19173cU, 0xf2f31c20571e0ee8U, 0x121bfe0107fa2827U, 0xf5df5950551e04b7U,
  0xe2f242d00e1a0e00U, 0xdc716b731c7f72cU, 0xf916e41841d0f9deU, 0x29aef0a5eb1001f4U,
  0x3f45fd0fcef4c9e0U, 0xe208c6c5dbdae5d3U, 0x11e211162b082825U, 0x33d548602644e117U,
  0xd1e242120db6f1d7U, 0xf8044ef522fcfeedU, 0x3f173e040bf6ffc3U, 0xe31a2bf1370dac2cU,
  0xc9fdf8f8dce0bfe7U, 0x3d5b5241b2635f9U, 0x40e03aa6d102121dU, 0xb8da0ff5120ae527U,
  0x1dc3f738d6c3ca49U, 0xeaeb132eb6391f23U, 0x20fbbe1ccce2e605U, 0xf8ccf90cd9e0e745U,
  0xecffe84d1ddc2cd7U, 0x241103e42b1d0922U, 0x1403f9f9f3e234f3U, 0x1527f8461609f82bU,
  0x1eccd3cbb3c61af9U, 0x18cbd105b614eeb1U, 0xfe13e1dbd709fb1fU, 0x60a01fddafa2edeU,
  0x15460c0251dbfd11U, 0xf6db180b3ed627faU, 0xd610d8f628bdc81dU, 0xd47b1e711f3a20dU,
  0x271bc8e1c4d01af4U, 0xfdf945c417e0cde9U, 0xcefc0f8040eebcdU, 0xe6e8c2ddf8022fbaU,
  0x1e131f2def09b5b8U, 0xfa09360857090a26U, 0x181ccd4ae604383dU, 0xba430c2ce0e934c4U,
  0xb7f6f4452ebb1612U, 0x92ffe01dc4c0e4afU, 0xcac81a163e0d2f35U, 0xe2dbf029e748e3deU,
  0xdf1abc372c55152fU, 0xcd93322bcc2a0516U, 0xe80cf8c314fe3be8U, 0x6eeee1aa25c9c6d1U,
  0x1b3dfe620f3ff033U, 0xb908d52aee142e3cU, 0x20667381e6f002b3U, 0xdee1d515ee3ce94aU,
  0x9ff49242c51928f1U, 0x4120ee11608c927U, 0x49220e28ef0bed3cU, 0x9cd43de3659110dU,
  0x2dc0bae578f7ed40U, 0xf6bcefececf720c4U, 0x2b1d0a0e540dc41U, 0x413e3d2ef1fce1d4U,
  0x100bb7580429061bU, 0xf330d932d58ef606U, 0xfa15c3e61fb82efeU, 0x1d06b1df2eb21004U,
  0x550a1e041cdccb0eU, 0x9e3e092cc3112efaU, 0x90130fd37f808cdU, 0x434737c83fedd1d3U,
  0x13d12205740202d0U, 0xf3dff639277131fdU, 0x13cb0c88b504e6e8U, 0xec1d300940dc4e0aU,
  0xf3140a2bdad604d3U, 0x3d201caffffd4deU, 0xd4d5fbe110f2fafaU, 0xe0cd919f32e02c9U,
  0x140927feefe0d6e9U, 0xfbcc3df6f433ee1aU, 0x30edfa0e04d227ecU, 0x3e5f12e08cffcfbU,
  0xfdfb232c122206fdU, 0xf01816d8e2e3d8f2U, 0xe019d4ff17d80630U, 0xe3f5f1e8fafcf9d2U,
  0xdbd8e7fefcd3f7f7U, 0xf715e602e2ec4addU, 0x22e6f815e9cffb13U, 0x36d60aea2e391d15U,
  0x31f1c08f3e728d3U, 0xdceed5e82713e1ebU, 0xdae1e4d7d50d32feU, 0xcff330fecff3dd09U,
  0xdbe1140cde28dc06U, 0xf4d53810270fd9e8U, 0xd3d1e40826db1802U, 0x270af51fc3e9dcfaU,
  0xe0d6ca06cf00e718U, 0x20d527f3d7ef21fdU, 0x311cd9f402d7dff1U, 0xe3182623f0c3d30aU,
  0x60d1c2a1a16f22dU, 0xf6ee09c3d6facd01U, 0xc3ddcb06d205eb1cU, 0xf1e5ec17e5f9ec24U,
  0x30dc1bc601f7ee53U, 0x603a5e203081c4dU, 0x3f15f17217d3deddU, 0xff25d5103b03d3e6U,
  0xbf16eb280a172d04U, 0xfcfd11e711284103U, 0x6817dae4fb00fdebU, 0xd802e6fa38f50befU,
  0xf8dfe7fad0252327U, 0xd9c2470ab1ec3725U, 0x1816c2ec36292218U, 0xee0015372cc1b7e6U,
  0xefcdb9f02b1732e1U, 0x33e4e2fd4d27f1U, 0x3b9dcc723cef25cU, 0xf3ecff11216d8f7eU,
  0x14f311df1e701cf2U, 0x403b3436e12245d1U, 0xc427d329d12f352fU, 0x532d5bd0230ccc7U,
  0xd0e311cd240aebf3U, 0xdc112e8722ce0637U, 0xd4df2721f00d3d0dU, 0xf64e24fbb853ec05U,
  0xf542dce5badef3e8U, 0x2b080c641dcd092cU, 0xeb3de00f3ce723abU, 0xfbf5d6d1b3d21dd2U,
  0x496c1be1ed1d00ceU, 0xe1e10e29f03ff4e5U, 0xbf1912ec0f29e2faU, 0xbf00f80c0c2a2bd5U,
  0x21e4f80df7f3f426U, 0x2ef10dfd06d504feU, 0xd614fbce1afffc01U, 0xe2baf2e836eff3e7U,
  0xfde02e250ad30017U, 0xcd0cf829f003fadfU, 0xd9fc04ed16df3512U, 0xdd0416f30709e223U,
  0x23cfdd07e1ddd8fbU, 0xebcb0bd81207c90bU, 0x2506beea00f30d1aU, 0xc5f7f019120efe08U,
  0xf2f6fa011313fdc4U, 0xf5fc01e425cfff02U, 0xffecd8c1eaea0ef2U, 0xcfe8e80eedb2faffU,
  0x2f10d05dd1922c8U, 0xe50900020c0a1208U, 0x1d71138252017d6U, 0xf427e9de1110f1ebU,
  0xfefc2ce82b0ac4eaU, 0xa913f6c4c8f913c7U, 0xd70416d9e3f9dc05U, 0x29f70ecc1cffefe3U,
  0xe2fd0c1735f6b00cU, 0x3417130aea2902d7U, 0xfa1814d71f39cacdU, 0xf1e6f41f092fe408U,
  0x81405f2cf23cedbU, 0x36ec442b1a39111bU, 0xcb1ae52019ebfc27U, 0xe33709f3cae4d7f3U,
  0x3457ee2a1a3b6eb5U, 0x9ebecce529a741d6U, 0x5bf1cd431d3fc8f8U, 0x70e353bf557beceU,
  0x1644cf4a2323ce33U, 0x1ad27dd70156ac12U, 0xcc19f8fc195b50cdU, 0xf7b3f1ff272799bdU,
  0x401f201259fade37U, 0xf6c1e3cfd5d3e5caU, 0xf0e7ee2e06126d1U, 0x7fc634c4f35de431U,
  0xf829fdb3e108a902U, 0xefc4b3fe0510b54bU, 0x23cf0720f20e3cd0U, 0x1bdb750fde14b91dU,
  0x212651bdf7feae51U, 0x7c5a5fa0507db24U, 0xe89fecf5bb9ae249U, 0x6e49104beb23e628U,
  0xdeb17590c3d6101U, 0x6fd8f2f59fe29843U, 0x15c81c181ab93246U, 0x2c50e891b1b617cdU,
  0x66154f2fcec8ece7U, 0x9502182a31f42a2dU, 0x2205fbf3f1f9db9fU, 0x40d2554607dc9757U,
  0x6ac32e07494b0602U, 0x29ea3efa1f4322d0U, 0xebc1da83f92ec531U, 0xdcdebb7fcd2f1b3U,
  0xd0e4ce1fb20508U, 0xf5e0373301b515adU, 0x25e606c41af545e6U, 0xbc2df3e70d463248U,
  0xf7c306f4f311e114U, 0x306ff350714db09U, 0xcb1539b0e1c7e3f5U, 0xf5a422a02926d7adU,
  0xc4afed008dba717U, 0x32bfcf127d31532U, 0xf0dc92171a0dd2U, 0x19d5ea07c8b8c0f9U,
  0x1137241aac3c1112U, 0x21f3e0a81fdedbf9U, 0xf7024dc2ef2646f5U, 0xf81614e71e05323eU,
  0xe2e4affdd607fd22U, 0x1dd9f822c00be1cfU, 0x1ea3fdd6d905f6dfU, 0x15f1ad4cd0353ef3U,
  0x30f3ce500cd92442U, 0xcffce709fbafe20fU, 0x75a04e89adafe05U, 0xbd0519cc37a5b116U,
  0x11e0063be005e30aU, 0xfdfeb6f01408dae1U, 0xf0abd310d4e2d2bfU, 0x1accfeddacfad7eeU,
  0xdc69274340d8f594U, 0xec2809d506343a0cU, 0x103739e304340bf8U, 0xf4faec08e12b1530U,
  0xcb14e7dfe8d27a41U, 0x3041bfe2b59d316U, 0x281f1bf0d91daafcU, 0x3ad4333b501925ecU,
  0xd92dc9a5d822f608U, 0x120a33c7eec20bd7U, 0xe4f4173d501bd798U, 0xbf012dcf28020748U,
  0x4a0c265a22e8fcU, 0x3ffcde0de1fc2fU, 0x2fecd3ad2b06275cU, 0x2a1b0511b81a0f00U,
  0x8f818e614b7c1U, 0x10f3dc35b62b1cf2U, 0xd24637b5182033adU, 0xed12d4eecf17472dU,
  0xf32a12513f2201f5U, 0xe252fbda4403feebU, 0x6ecccb1713c0e1caU, 0xef029b4b2a2b1d1bU,
  0x2907acfae7de603fU, 0x4fea11d413611fddU, 0x3aac270d97ea1f1aU, 0xf8f55ecc2141df32U,
  0xe2ceda1af1ec15ffU, 0xb35e002bb331efbU, 0xc5d5f5b0ee0b60d5U, 0x5bf021e48781c102U,
  0x3f2305286d0dfaf6U, 0xdbf4ebb6a51857f3U, 0xf2ce07a451080ec3U, 0xe5c4bbc3c911550bU,
  0x508f1d4ebb4d420U, 0xe0cc0b012ff7f5d2U, 0x2fe128140835fbfeU, 0xbcaddc31efd4ee41U,
  0x5c0c26eb310118f9U, 0x2de473ff366e41eU, 0xdd361daf53f80c24U, 0xd4fe32b9e822dd06U,
  0x321503cc12feb45aU, 0xb36eaeb43e5e316U, 0xc0d728eb05f1e025U, 0xc90e34f61fd60b15U,
  0xf9fa1b2b0dd21cfcU, 0x2947f7e13f0ae040U, 0x633d8a8f92930dfU, 0x30c21f02fef80bbdU,
  0x20c6e6f7f60201e9U, 0xdaddf90d060e2adcU, 0xddf4fbc50d01491aU, 0x37fcfa31e2022619U,
  0x4d99aec3b120124U, 0xddcfbe02703ebb4U, 0xe5134002dacbd105U, 0xd5ebc39179e3bb5U,
  0x800110cf120b128U, 0x2cff2f2dcfdcebe0U, 0xecf6d2e147c2ccefU, 0xcd06e5c3c3fadafcU,
  0x27500e19b0f001fdU, 0xfcd5c9cf4ac522d5U, 0x151731cb400debd3U, 0x1a08e9f4311303d9U,
  0x2538fde6023e021fU, 0x894ee391a3ef9f1U, 0xd330a3fcb31f0ccU, 0xffb5e8e6fc0814f6U,
  0xf5e5a103c71d36f6U, 0xf3ddddb55deccffbU, 0xb522eff3152a4209U, 0xafa32eedc4e5afeU,
  0xe5dae8f304ee03fdU, 0xbbdade3d35374bU, 0xe92e0a01b6cee702U, 0x3c6c8422114d2U,
  0xb72f061e1de2b3e1U, 0xa7ae04d3f6d119f6U, 0x490cfce4e5571bacU, 0x4afa0d419c12cbb3U,
  0xd8fd083da1bb56acU, 0xe8e5a2070449f9e4U, 0x1df63e5311343515U, 0xcef41af00aa7d7ffU,
  0x260343fc1a65d0b6U, 0x41fe0f4f2c5a2917U, 0xadc7cded289d1919U, 0x2003ca4d1e12bfdcU,
  0xd9d3faba41b9d9d7U, 0xd6db559d09ab32f1U, 0x27c4fb36f1fac4f5U, 0x1e9912e1442a1f46U,
  0xf8c10912ae07bbf2U, 0xfdbfe9a434d62122U, 0xcda3a0b55431a07U, 0xefcc3f184544369eU,
  0xd9dcc2a61acdf349U, 0xd301c0363e2ccf2fU, 0xea1316abd00bec0aU, 0xce1915c927fe1305U,
  0xdfd10f1e735d8f0U, 0xf8011fc340fddb10U, 0x21350a2de9152daeU, 0xdf1009ee5316e706U,
  0x34395872f3b25b01U, 0xe72c511bac2308eaU, 0xfe1fb39b30414a61U, 0xcbd7e227f6f5bb3bU,
  0xbed0d35dcf7eac9U, 0xdf23c6140a424ce7U, 0xe0fc4cc116062afeU, 0x5bcadd01be16f3ecU,
  0x312e81d34660b2bU, 0x12f2dadf1d2033d1U, 0x4ddf6f58f7cf2afcU, 0xdf0f915c14a652edU,
  0x131dcc06200940fbU, 0x1cdb28de4738d447U, 0x36b54c4dcd16f709U, 0xdbf6e522da170307U,
  0x2bef18f71501eb57U, 0x56e3e9232bfac720U, 0xe52b3243e0fb1e04U, 0x12cdf9eeadf80a30U,
  0x666cfd3dfe2fdfe2U, 0x4f023a3d4412cabU, 0x4349eef52a39df96U, 0xffcbecd7eb2a1d19U,
  0xda2b124a2f08c22bU, 0xf7ce122ce7dd2e9fU, 0xbfbf0392080b97c8U, 0xb1d41527ea04ee20U,
  0x34abb5db2140c01aU, 0xcf0592caa41de3cU, 0xcce52be0c316f102U, 0x2e10e3db362829b4U,
  0xf7f605ed3f26b707U, 0x3afce850eb06fb02U, 0xd92f30edee10ede2U, 0x22c8f9d9d03cefffU,
  0x1e1eea35b9260638U, 0x250232e80cf5fe17U, 0xe30312b4221f49d3U, 0xff3e3ac512b2fe1U,
  0x2fe11bc0d6d54d18U, 0x46e22ae03ff2ad18U, 0xe2ced9dce714d7e7U, 0x1f163833e6dcfe3dU,
  0x34e5a626d8216e2eU, 0xfc30ee3649d3f0afU, 0x3cc7201306cb1537U, 0xd30cb8ac08c8ced3U,
  0x1d13e9ddaae6b40dU, 0xfbfae7eb0d7f14b1U, 0x1f1340e17b4eb1bU, 0x22cf2702f2f82bb0U,
  0x360ad0fc271eee03U, 0x152f1dd642e8ef27U, 0xebce53d50afffbe0U, 0xd2e605eedbd711feU,
  0x2b2fef29d31adf08U, 0x21f32010bb0fcb16U, 0x9fafdd70c3a073dU, 0xb24f0f1fddf13d3U,
  0x25c834e72e123ef1U, 0x5121df24f2dbbefdU, 0xe3efbb2a0be600d3U, 0x15d51f09020f060bU,
  0xcff5cdf9153dc131U, 0x2100c54c402624d7U, 0x1f16e2400bc51021U, 0xc721f8f902ce10ceU,
  0x40eb00ce2adb1e16U, 0xe016f40fdace3e39U, 0x22f0093f60e404e2U, 0x41eff50e2601fe08U,
  0xd06eabcf5eadf36U, 0x4de447dbfc271828U, 0xf042be5e8e60915U, 0xe9cc3018100d1bd2U,
  0x25e7c2dc00ffe537U, 0x4323fe521fc20acU, 0xb19dde90a1c3e0eU, 0x5f42829d8e553a8U,
  0x32d31912c1e2ebe2U, 0xef0722fb26d10024U, 0x2fc4db3818c5f402U, 0xdc0dd6ee3013fbcdU,
  0x5ded605ea12f808U, 0xe37f22fd7c0d3U, 0x4410dce6f90e4106U, 0x130c1a1f0ff2fd15U,
  0xe51f4f2e3422ce15U, 0xdbdcd668bfa05b03U, 0xf5e813b8f2181ee3U, 0x1aa6b45c0db0ff58U,
  0x354717351af3ea3dU, 0xfcd3032824cf2527U, 0x563ae5e8e221eae8U, 0x25e0c49e4735d6e1U,
  0x612d8af37d0df06U, 0x2f11bf2a31e4b0e0U, 0xfdd943a91f1a2f45U, 0xea34f928f546fee1U,
  0xfde904e2bbe023ceU, 0xae4f20f64aed23cbU, 0xfd0b8dcff18ec22U, 0xd3d1b2dc0fa61916U,
  0xd4176603031e43f9U, 0xdf060e2ae3520e14U, 0x54aef1ce32220bbeU, 0xf20507272b263cf2U,
  0x5e54014f913dae6U, 0xe07f01e6fe30c48aU, 0x1d41581ad7091d23U, 0xc7fdcee74d0cc0fcU,
  0xd029572f4712e438U, 0x3bc7c1e6bd56e4e7U, 0xf8252ff135322eedU, 0xf9200cee245cbdb6U,
  0x1cfeb00ae4d902d4U, 0x44debfe46c3df247U, 0xe7d72b024bfb17e3U, 0x1b280a3ee829ffe8U,
  0xa62928f012cff5faU, 0xd03eceefbe0bc04U, 0xdf1003c6ea27c341U, 0x1f38380819fc15deU,
  0x364111d5f4fce408U, 0xf20b2f2423e83000U, 0x36e7131ceed034e0U, 0xee00ebcf3ad12befU,
  0xd4ddff12ebe4d4a9U, 0xecf0fb2c142d0cfcU, 0xfcff2d38ebb8f4ccU, 0x3d1341210d2bef0fU,
  0x110229c11b3a16c7U, 0x1f16d82cfa01eef3U, 0xbbebd0d000c305f0U, 0xcc2f51d0cadddbd0U,
  0x35f326e9cb29c3cbU, 0xdbda1c0737fdde30U, 0xf023e7d732defcf2U, 0x1d2424c0ccf20359U,
  0xd00b10eaecd5c4afU, 0xd9c408f0fc2e072fU, 0xb33dcbe431e4162cU, 0xffc6382412d7eecaU,
  0xfdd611efdc080e20U, 0x2a3b2331f51e0108U, 0xf4f8fe1bf9e00242U, 0x312960091c14dbf3U,
  0xb408e40121090603U, 0x23dae2ebf1ca22f7U, 0xbfefdae803ebbae3U, 0x4d1e37dcdc03e3f8U,
  0xb6bbe5d1e7043b11U, 0xfb17b71227bd061bU, 0x2426f41f1ce9e11eU, 0xda15f6fc28d138U,
  0xe22a30c43afe0edbU, 0xd9e53034ed2fe2b2U, 0xa0517d00100e0c5U, 0xc9130cc9e2b20012U,
  0xe23be353cc274931U, 0xf524f9ce26051e21U, 0xe4ea10e621e9c82dU, 0x17e0381212d1de3dU,
  0x2ff3f738eee3382dU, 0x2753fd2b163fed0cU, 0xef07050820c8f816U, 0x703dbe008361f2aU,
  0x20efcc85e2427f4U, 0xf1c7e6a925ca42adU, 0xe6e1e9b5122ae90eU, 0x1c14c72bfe1445e6U,
  0xed13d3de1fe1401eU, 0x1704071727f9eacbU, 0xccbf710ab2502e1U, 0xb320c82043e90132U,
  0xfedde02a0af9fe13U, 0x162ed151f61e4dd9U, 0xc2cff25cbdf1493U, 0x30d9db14d1fbf506U,
  0xc1f6e9deffd92522U, 0x141adbdd271d35efU, 0x16eb21f2263cd6f2U, 0xf50dd6f62ede2c0dU,
  0xe50c2210ea312006U, 0xd3c5dcdbddf0d6f3U, 0x52b0602f71a0f09U, 0xfb8f54802fddb4dU,
  0xe14dfcfc0829e707U, 0xcc17b32b09140de5U, 0xea1404e4e1cfee01U, 0xf283ce31feaed45U,
  0x33dfd0ebdf051bf3U, 0xf3d4f400f0df0714U, 0xf4c7124b212df411U, 0xf08f9081347c535U,
  0xcfedf7f031280fd6U, 0x2d46dbb504b43a18U, 0xd505f225ded902f8U, 0xe5ef1214fb81ba22U,
  0xeaf514dbfefbaa13U, 0x1a1a1a032ed9defaU, 0xeea3541a1330070bU, 0x3fc8f7d4323519edU,
  0xe2ff26cf0b272c35U, 0xddeeb8b6ddc5f413U, 0xb6fbf09e4a1feef7U, 0x101fec1905ee10e4U,
  0xf540fb0c360126f4U, 0xf92db30cf30b2842U, 0xf1e0504fb0cb20fU, 0xf8000213dc05f210U,
  0xa50bc4b6e8e8dbd4U, 0x352ffeffc7df0c03U, 0xcaf01204e0e901c3U, 0x315ed5ff10f10afbU,
  0xfaedf2c1261135f1U, 0x3029fce70cfde026U, 0xd717ff37fc22f5f3U, 0xe61ddee01833e390U,
  0x5320b0320191e10U, 0x3cc91edaee18de60U, 0xf7ed09453f0ee4cbU, 0x3da32be0136341aU,
  0x271cfcf1fa430cffU, 0x5e8582713e9e919U, 0xdd7edf21808286eU, 0x2e0b110822fff126U,
  0xfbaff1cddb180e1cU, 0xc2e4f1050903f00dU, 0x28def1e70f3a24f3U, 0xccafbbaf446a24cU,
  0x111c0f3b540e0cU, 0xfde009c726436015U, 0x32e1e4500adcf6dfU, 0xd252c9f9caffdbd3U,
  0xdb090dea2df6e50fU, 0x4f64bdddcde1b44U, 0x2de511131ecf41e5U, 0x1a530d0bed2c0306U,
  0xe5ea061719df03f1U, 0x141b0032f11b28edU, 0xe4f334230df7fd01U, 0x15e106e8e2ec170fU,
  0x52480706f63318e3U, 0xd2f61a10edfee4b5U, 0xe1dd10a437430ac4U, 0xf6c1062b144b3329U,
  0x2424d6e81506bf07U, 0x2a06dcdbf327cfe4U, 0x9113024184120e0U, 0xf1e203befaf4d1d2U,
  0xde61a11d811e6U, 0xe9e6dbef083cdd1aU, 0x3142c25fb09e929U, 0xf7fc1eeee2e70bedU,
  0xcdedce23dbdcfdf5U, 0xefe92512c72d3646U, 0x17202a21ed3cededU, 0x3ddfe30ee72a100eU,
  0x1821194817f302e9U, 0x3e7462017dc1f0bU, 0x27ec021600f509edU, 0x361adf15c8ccb7f5U,
  0xe6c6ef14d20e05e7U, 0xf716cd01e81ed111U, 0xe80ef1190d23f3e3U, 0xe6e9eef60feedb0bU,
  0x60c0719171c02caU, 0xe70a46f03319dd13U, 0xb1e041920d318d0U, 0xee0d002df6e1decdU,
  0xffea16db06f00dd8U, 0xe914ffcfd2e0fdfcU, 0x4ffc1e18311ecf11U, 0xefcef40734fc1628U,
  0x2ac2201b17ecd3dfU, 0xf50aeedfd6ef16f0U, 0x40f50517fb0f0cddU, 0x2f43525091a2410U,
  0xfb0b320af0e806b1U, 0xaab1afe72bf1d410U, 0xd1090c31ec1006c6U, 0x3ab9f8b3ede74f1bU,
  0xcef2f905e2f31cf2U, 0xce03c41552ff4c05U, 0x373027eee124f42fU, 0x4ef08d0bcb83839U,
  0x11c3d709c8f9cd0dU, 0xe90029cf52dcbb11U, 0xef0c10201be81933U, 0xafbf72e1014f11cU,
  0x2e1f81bf1edcbdbU, 0xe946b9c3d5eafe18U, 0x14e0f31008ecf008U, 0x19de13dbd1e213c0U,
  0xe3e709ee0fa6d4c5U, 0x63d03ed0012c220U, 0x4b132df10f35081fU, 0xde052bd63ccdd727U,
  0xe0f3f8f12b03cbe2U, 0xd2defdfbc4c5faf8U, 0xc9cc30a6242ad4c6U, 0xdf1c042e02cdfd04U,
  0x4310cadfef1360f3U, 0xfee6f90ad7db1fc8U, 0xe9f3e822d00df538U, 0xdbdfe8122b3ce8feU,
  0xe0ca06f80acd13e7U, 0xbcbc305d6d5c847U, 0xf6bbfc22cefc81ceU, 0x220ee9faf4d41608U,
  0x444a7059e28ffdcU, 0x543ec2e093df8cbU, 0xcf103d47b336091cU, 0x51e9ccdfd5d91c32U,
  0x1407cb3a1ff9f217U, 0xce1dd1f2dfa7fa12U, 0xd930fc1932232ce6U, 0xf0092e1d283ff307U,
  0xda0b0b3603f733ffU, 0xf00dfa1bfe3222faU, 0x1f32f317ec0d0025U, 0x3e1f3480010fc3bU,
  0xffc938e7e028bae4U, 0xd9f5f4c4d5d3f7beU, 0xff1f01cc12f6e2e0U, 0x5df01ece8cd11U,
  0xc1fa0d2d0e014cd7U, 0x2afacefbd138d316U, 0x132913111fd404d4U, 0xc413e3621109e30bU,
  0xcac509230d29defcU, 0x313f45e919421630U, 0xd3edde382ad9d2fdU, 0xf3f4592c1d010340U,
  0xcae635ff02e71614U, 0xaf1fff103d321f2U, 0xd4cd0833db330d06U, 0xe6e8340402f3d956U,
  0xdbec2cf30d2617eaU, 0xea0322d9f2e01bfdU, 0x12dc1fe925f6ede3U, 0x55d3eddc23f1030dU,
  0x1aede6f00be80209U, 0xfd12211005fcdd10U, 0x429fc1933011e15U, 0xd23330a173108c3U,
  0x13050be70ae1f118U, 0xdeeef26cbf50026U, 0xf9f71413f7e6fcd3U, 0x3eecd07da1e05e5U,
  0xe6e6e314262210feU, 0xeee0ec0717360df6U, 0x1236202dd6faf3edU, 0xfceb0afbfae20509U,
  0xf716df270204ec05U, 0xea021aecfbea27c6U, 0x704c5040b20e13aU, 0x34f4f4e3230bf4ebU,
  0xad9f5e8d8ff2b14U, 0x9f10d3417ddee09U, 0xd315d8d0da130cf6U, 0xef190713ced520f0U,
  0x1c0bd321fe02d5eaU, 0x91af6f41510fad8U, 0x6fb11e8dc161335U, 0x302220001d25d30aU,
  0xe6e4f9f728d10204U, 0xdf340803181cf7e8U, 0x307f0f010e4f2e7U, 0x1f111fe2110a19cfU,
  0x211ef6e90508e8dfU, 0x20d5ecea1ff016U, 0x6f0d2f00fd7192eU, 0xd8e1010404e8032bU,
  0x10bc304b1e0b3900U, 0xd4c8cffb0ee6c615U, 0xe9fa1a441ff822f3U, 0xffb4cb550bd70606U,
  0x1414b5401f0026d1U, 0x14f1522aea34d1f5U, 0xcf181f30132135ceU, 0xea35b32ed99404ffU,
  0x3334fe2b44f7efefU, 0xb564d2c1d4d2d1f8U, 0xee11cffa9207230eU, 0x52809b9cdff40ccU,
  0x36bdd9f8eec8170fU, 0x10290acbf00ae2e1U, 0x34484100b8b20cdcU, 0xf11515fefd103cf4U,
  0x1a3ada6e41f5d8e0U, 0xb0b4efc92cb6d6feU, 0x5ce7f1d42c00f4ebU, 0x25268f64eafbfc0bU,
  0xfa35d0d4cabeea4bU, 0x7feb1ed6d7ede0d0U, 0x4c012907f716cbebU, 0xb1d5e804d12e1229U,
  0x8ff2325718310131U, 0xce02f125241b52bcU, 0x51c3fb8e713fceeU, 0x54e927e8b5cbae4bU,
  0x17c2ef22500f3834U, 0xd7bbc1a2defd29e6U, 0xf1ee0bbafbcb33beU, 0x3eec06bbd60d2312U,
  0x36ea27f0de2030f0U, 0x1df73628fefef52bU, 0x6fd20ebdcce15e5U, 0x8f1fc18bfd31411U,
  0x100ef520031a0afcU, 0x1419fc192a06f91dU, 0x1f9ce39162a3118U, 0x131032f9e21ed1f4U,
  0x4de05db19cbe52aU, 0x2630dfff40fccbe3U, 0xdb0ce237d610e606U, 0x1738fef0ae272deaU,
  0x2c25f0efc3d4d5fcU, 0xcdb20dd13cbbf23U, 0xfbd5f4062200f6d3U, 0x2ffc941f6bb160dU,
  0x4ee52e822e4dee9U, 0xeae71719cc1bb222U, 0xbfd19fd0df8e1f5U, 0x1322e3f20b1eda1dU,
  0x37251741fc1b02d1U, 0xe73cfd1ee51a0529U, 0xec4e0ec606e3eef2U, 0xaed0a0620dfdf31U,
  0xbfe600f1e1031ffdU, 0x8ead1fbeef30f3eU, 0xfbce35d8dd26d744U, 0x14fbefff4605ba13U,
  0xc4e9eadfd001fe16U, 0x31bc81f0dbe0500U, 0xf5ca09d605d5d9f8U, 0x102c070709edfb05U,
  0xc6f20dbf04d5270cU, 0xf4070f25fefa3717U, 0x5bcfdcace91f1e29U, 0xe52538200443fe1dU,
  0x7f022da3bfe235cU, 0x10c61046efeae80aU, 0x15e602f7d2e8f1dcU, 0x13f12fc63024ff22U,
  0x2d23e601cfc1ea27U, 0xf313b71a4f1407c3U, 0xeee29eb11261018U, 0xfeeb1e06cfd0d004U,
  0xfe2719eed3e933e5U, 0x52f19f28f419cb4dU, 0xd9da2df21211fe33U, 0xf14714e12a1a373cU,
  0x102710f4f0c7eb31U, 0x1dd4e4d008f316faU, 0xcce643cc1b030b01U, 0x45bdf508de3a4f20U,
  0x28f7261eeeec364dU, 0x43cbdac6f308f924U, 0x1b12e3d8b8f0e5e8U, 0xc82f0e05f8c61e35U,
  0x1100133dbffd2e34U, 0xb71bb10c4b551112U, 0xbaee050a0ae0f7bbU, 0xdcd7f80ac52303f7U,
  0xc00ce10de62ef6c1U, 0x16f23a0104f818caU, 0xe50833d8eb08ed28U, 0xe53417b9001201d9U,
  0x4f0cfde7e1e5c362U, 0xaac3cf0503b6da3bU, 0xe7ec4c35becec3d4U, 0xfbeff70efcf5d5e1U,
  0xece23825eb354450U, 0xe415e0d000ddd80bU, 0x127605231bd6ed0eU, 0xf2024da746e2faecU,
  0x1aa00b13ec3d14f6U, 0xadcd65e65604d1feU, 0x372906d944eb191bU, 0xe7cbcb333cc5b226U,
  0x34acc7e9d5ec09feU, 0xe166c9b899b452f9U, 0xe7c3d5fc45e528e6U, 0x28ddc110e5218167U,
  0xe9d0bde61804dd37U, 0xea2dee4a034339dfU, 0xa1411fa016d2f00U, 0xb8f6f83326f2f3b2U,
  0xe016c6d856ffebe1U, 0xdf51e80c07b20b19U, 0xd6f3faff3e16e7b7U, 0xf4f62e7012a2e31eU,
  0x9410ed2160fbce9U, 0x59dfeef4dbc1df0eU, 0xcd0d135cc5ed2196U, 0x10ffcd3b1c1b1208U,
  0xd143f3e5d8b6f8d9U, 0xc4cf10072e59f2edU, 0xde1a2cc5fbffc0deU, 0xfaf5bede04ffffd6U,
  0x1f3f152faff00001U, 0xd11812ea253bfdcfU, 0x9dc01031c1f7fcfdU, 0x1dfacdf9f211e800U,
  0xfd1ce2cf2412d308U, 0xe993e181405fb00U, 0x51df7f8eff7080eU, 0xdadc19e9b5491ae7U,
  0x48f60b1b130ff8fdU, 0x1a3e0a9413e40fddU, 0xd2dc42c81bbc0063U, 0xf22df1b21de24U,
  0xeaaafdf7e9ecf5c9U, 0x13fb4c0a0d3beb38U, 0x2309e9b2442d05e0U, 0x10063406ce16eaddU,
  0xf8f2fd5c06dc29c1U, 0xd4f8c81fda12f2feU, 0x1be01e1103f6190bU, 0xff1f16f1e624c244U,
  0xcdedefed3334d2d5U, 0x14f72424e9e2ef1fU, 0xe3e2eae3091aff91U, 0xfcf7b623c0bf02f3U,
  0x2ee90bfd0029d306U, 0x25185afecf5a1be6U, 0xf2f1441f140f1207U, 0x20e9f7f437f7fc12U,
  0x17b914e5cfe7d34eU, 0xeae802e3fa0616f0U, 0x13c915d0f52c03c9U, 0xfedff32fefef63e8U,
  0xda18f1e9130e3a22U, 0xb1bfb02f1e403d7U, 0xef13a7cf152cb62cU, 0xee2d21d61a3e31d7U,
  0x3e2d5db1dfa1f1fU, 0x1beff6eaeae10123U, 0xfae00ff52d04d7daU, 0x22e90c003017f404U,
  0x82a360523fed6c2U, 0x1401fa1de416302bU, 0xe70adfc0e8061b08U, 0x4cf9fe2cfc0f14b8U,
  0x13170018293b0f23U, 0xc8d333131226dc0aU, 0xf93d01c7ee22f8f1U, 0x1d012cf3f908ed3cU,
  0xd2f6ea10ea2f0d40U, 0xac410193548ed1fU, 0x2fdab847ee06de10U, 0x12bd4eac6d4e02aU,
  0x46f0c4e4e3f32607U, 0xc30f4218f4fa0e35U, 0x3300f5f626071efaU, 0xd6151fe105f5fef7U,
  0x2a0f2715fe080c09U, 0xbc26f6214224f90fU, 0x22f0581d2fe3d0c2U, 0xff1a3008fbe0e441U,
  0x2528252828010f19U, 0x14f4ea22dafddafeU, 0x3428f8da51010ac9U, 0x12e60c00093cf60fU,
  0x3e7e4c6eaf60b31U, 0x3355e221142a43f0U, 0x2007c5c72218e326U, 0x462639ed100fb313U,
  0x47f145e922231944U, 0x560743e7f636c4d5U, 0xf3d99b04091fedc8U, 0xadc01c352bda0a18U,
  0x133714ea1714f747U, 0xbe0819fdb38c04c1U, 0x3097c720d0cbf81bU, 0x49e757d9d0e3f5b0U,
  0xe15927d22cf7fa33U, 0x3bcc2620541f224aU, 0x160d0e5fdf9c2ddaU, 0xe1474f0ef40a551dU,
  0x2f2bb4eb0aee2e09U, 0xf81527e674024f00U, 0xbc013d4dc4ecdfffU, 0x4fe20fc3ddf937fdU,
  0x3efc02c90bb4634dU, 0x249ff0ff3c263138U, 0x15acf10895eff834U, 0x1d785aea7425701U,
  0x2f0a04f1c5f645fbU, 0xbf2c1c202cb7faf2U, 0x280bc705d4e74100U, 0x2fffbfcaa8c40351U,
  0x11ccce212c65a749U, 0x3df85945b61dd5daU, 0x4bfcee0ff2d1314cU, 0x10f4f9f61704ddd3U,
  0xc0ffedfc0a18d51aU, 0x32e93aaae439fad8U, 0xdbe43110741390eU, 0xcfefc732c301d7f4U,
  0xfdeed9372d08b306U, 0xb7ea011b2708d210U, 0x14ec05ecedf8e637U, 0xc9eb1af0f20bed2dU,
  0xeee3c1fe04d60f1fU, 0xf038010b3e100cffU, 0x4fce413db4cd854U, 0xf313de02a904f21eU,
  0xe5e30b11060fdaf8U, 0x3326002003e9c439U, 0x270de5cbe538f0dcU, 0x3e13df1212e3aee4U,
  0x42c5f0e30deff1c7U, 0x28cbcdd508f229c4U, 0xe19dbf513cc2a20U, 0xde4e061ce90610f5U,
  0xbb001550fb08e4dfU, 0xd41a12cd0027e70fU, 0x72622d90604dcd3U, 0xf64df8d2d404bfcbU,
  0xc5ef15eed3c1c359U, 0x8da2bd3eeee0b09U, 0xe5d3e04c05fddf2aU, 0xdc0f07c502b42123U,
  0x16d92be7eddbceadU, 0xcee6d40503da30f6U, 0x3d21df2fd1aedf5U, 0xb7f53a2f384df207U,
  0xedca33d5e60d04eaU, 0xba08d0e005f0de57U, 0xd712fde72712d2e5U, 0x2d1718183cf529fbU,
  0xdc1836e8f602610fU, 0xde1cecf9fcfee91aU, 0xf53ae1f21aeae3e1U, 0x3d2e5b1aea2ef1U,
  0xe8c9fc112810f7e0U, 0x1344bf220ebdf1c9U, 0x9dc751a0cdcc224U, 0xeaf71bde3e201d13U,
  0xafb17e20fd5e924U, 0x6471f15cff625e4U, 0x1ce3410f3afe1d11U, 0x3d01f4eb1cf3012aU,
  0x4f7f00a4ef1200bU, 0x6f92dde10e834d7U, 0xfd3707d7f2f445deU, 0xf1c9230c3c201036U,
  0x222529c6d3ffe7f7U, 0x3ff4e9f91df334c1U, 0xd5b5fdfeebf0ec0bU, 0xdf03a3bd7311636U,
  0xff47f62af03b0eb8U, 0x1e3ffde64e150bf8U, 0xe823021cf8dced38U, 0xd9fef1f0f90a1203U,
  0xb234a221170ff8fbU, 0xbec7fe312f3bfbcU, 0xf1f1ffe6be1dfa1eU, 0xe03ad2b7cbf543cbU,
  0xba3437d4200beafcU, 0x21a12c80bcbc512U, 0x1e63ee342020e17U, 0xd3e6ad0f0d21f83fU,
  0xd0f4d7e306c5c914U, 0x17bff5d0fcf21808U, 0x3160301dc091d1bU, 0xbc6b9efb1e71917U,
  0x1037dfb2e8b908edU, 0xd52d32f849c90aefU, 0xd506d6ba26df22d5U, 0xd61b23d6fed21df8U,
  0x2fedcfffae2226e2U, 0x71f1211fbed2621U, 0x3033f4c0dafadc1bU, 0x19e52c2f02f7150dU,
  0x2ed2c90b152418e0U, 0xe6be24171c2a32e7U, 0xf117fedd01ff4808U, 0xfedce81639d406f6U,
  0xe503fd210ee9fcdcU, 0xd414ce3639c9fc0eU, 0x16363cf8bcb0f2c8U, 0xfcca0d4d1cc5becaU,
  0xfec2163ae20215e9U, 0x2b0af60dcf21aacfU, 0xfd0b26d11e22d7eaU, 0x60df421ec4bfe31U,
  0xc2fd72cd6a7f3f0U, 0xe8dbeeedf728ef1cU, 0x2810ec132ecc35e6U, 0xd2daffc807f5fddaU,
  0x5222a8efd12f16e2U, 0xf799f3d41525ca6bU, 0xb2dff40b349ded9U, 0x6d3f574012354231U,
  0x433fbfd2fb3807e2U, 0xb1f25c011d9ba45U, 0x4de19d7f63973eeU, 0xef282bfd1cde3645U,
  0x1ef42d394cd82afcU, 0x2fe1ccab239ccec2U, 0x3b11451c3ceb1c31U, 0x141014da3fd43d1fU,
  0xda1bbb11fc44ef13U, 0xd607b25ce803f7a7U, 0xdc515b16cb2b12ecU, 0xe60803d9bc0f10faU,
  0xf9280676fcde3810U, 0xa6c7052919101b47U, 0x67143de51d081fe9U, 0x38de403316b7fc69U,
  0x3cb97fba99f80e29U, 0x4acc1015ee56e6f6U, 0x4ef4e8a7b7f2dd2aU, 0xd7b5faed3a10e459U,
  0x2349032ee43365ddU, 0xe527a904551832deU, 0xbb1b67b6a0e931f7U, 0x20d266b7e28ebb2fU,
  0xebecfadd11532d70U, 0x32c42af4ead13a0aU, 0xbfdde6e1292cce2bU, 0x45fa170dacc6d2d7U,
  0x10de2f25085e40aeU, 0xf5cbcdffd412025aU, 0xfeff442969f538e5U, 0xbe3cfbac6bd48bcU,
  0xb60edaf7effb3de1U, 0xfd360a732cc91e04U, 0x1045071c29f73df4U, 0xc738c607dac04adbU,
  0xfdea09d3d20c09dfU, 0x3004d11ae9ed0819U, 0x12180fb5c611fbedU, 0x3e0cdd0fbff2ffbaU,
  0x4ee6f3d11e1fc465U, 0x35c44ee5f3dbcbe3U, 0x3413f901b4b0dcc7U, 0xe0052916dcc9fed8U,
  0xd24e23e96aeee405U, 0x22131022461ae0cU, 0x4e2ab0f30243e1a5U, 0x1209d65ae635b62dU,
  0xdeda5c413bf4ceedU, 0xa805fa4dba18bc0cU, 0x2c2fefd1323d9e13U, 0xc64d7bfff32900d0U,
  0xf699f609040f2bf4U, 0xefe746c9a2ede4caU, 0xf89ce9ee025dd214U, 0x1ae44354c35ec20eU,
  0xdddd5c38b0e51d5aU, 0x1c1dc7bcffb54334U, 0xf2e6d1f7d8db2227U, 0xc8f30a4b1dfd3417U,
  0x31f14919e09cfefdU, 0xd6e4facf09d6c5c6U, 0x32d4033834a7e0e0U, 0xedcdcfb311be0d30U,
  0xcab743ae1ebc5d36U, 0x1de6e130da493eb8U, 0xf8da29e10ce60f00U, 0xf4f6e5e125261fbaU,
  0xf2d36ce48dbc727U, 0x2426fedf0bf494caU, 0x31f63ebf3a87de1fU, 0xd64463e135230428U,
  0x16d9c7f52604492dU, 0xd806dad8401c49eaU, 0xde90e38a3a1dbedU, 0xffd130fcfbfa5ee2U,
  0xfee5141b27d2e829U, 0xbee9d5f624220eacU, 0x261cc40af66af4daU, 0x27d4c54721220b2bU,
  0xfc16c30b9cf6c730U, 0xf0f4f6d60e422800U, 0xbc600010ed5cdebU, 0xcee42208dd3807e0U,
  0x9cd6e610d6e0afbU, 0xd4f4ce1019e12cdfU, 0xf705abbe382f33daU, 0xf0ed5faea491cf0U,
  0xfcc8fc51230802U, 0x60b12758ebd903edU, 0xdd1c0a23bcce2436U, 0x1d13cbaf2cd9eb0eU,
  0xf00f1ac3afd1dedfU, 0x47fad2f55d71ce1dU, 0x2a243543f450f3a9U, 0xbccdae698a11534U,
  0xd513cd15530bd6a9U, 0xd9c2e10705cde439U, 0x441859ee4a574feeU, 0xe40016cef8f3bc30U,
  0x3fe71de506fb541aU, 0x184aebc13a1ccbe8U, 0x17aad3d4db491cU, 0xfbe2d2e0b2ef4706U,
  0x27b22c1629f1b50dU, 0x4752fa26d4bef820U, 0x53050ecacadbf3e6U, 0xf82beef6aeefa9f9U,
  0xd02528391d43ce13U, 0x40d4fdb814f6cbdcU, 0x513735d91cdd1ddeU, 0x3824b1ffe7221634U,
  0xefa42ee034d2d3e8U, 0x3c21e8dfba323860U, 0x35d50caee1e3d1f4U, 0x11292614da4be81fU,
  0x11fbc64fbcfd384dU, 0x7b7acbaed1218cbU, 0xf0ff4ac4200df2daU, 0x8de4008c0ddb040U,
  0x23624f9f32711f5U, 0xd00de49d1bc3e5c0U, 0xfea5f61ce34ceec2U, 0xfaea00f73416fc34U,
  0x6aa3f719f8e831f5U, 0xf213bcd8dc0a1103U, 0x1e5270bf8cce2ddU, 0xe920afd1600a082dU,
  0xc0cd282af9154a04U, 0x5ccdf828d9322121U, 0x18181b2431c6dff4U, 0x1215506528f20f05U,
  0xc2303648e3332b34U, 0xb8182dc2fb3dd315U, 0xe51166f4d4de0309U, 0xb7d4d6e308f71bdaU,
  0x2bdf3dbe4e53e1eU, 0xf05010409d7de19U, 0xa71a389fef340c2cU, 0x17facf9fcc320125U,
  0xe251954316bf161aU, 0x2030dfde1f5d23fU, 0x471e2558e75002cbU, 0x36cc5124cef7cd15U,
  0xe7c9d214ccc4d706U, 0xe70952f93a9ce8f1U, 0x53b40c2b132a378aU, 0xc8e26d1b342a3e48U,
  0x3b43b9cff11b06U, 0xdd4ec4b3d2907eaU, 0xb5ffeeeeade0f5d3U, 0x3081dbcdae1535d2U,
  0x628f73621b716d5U, 0x2ddc0ab9cccdf705U, 0x205dd5d709ec0fb9U, 0xfb24eb83d433f346U,
  0x44bf2b5bbbaf5526U, 0x1c0ddb283713ebfbU, 0x306bb1a6ae3f646U, 0x27304202022bb3e9U,
  0xe5fb01fee2f94506U, 0x21e34a1ab40fb1c3U, 0x2d2dfc0ad624efc5U, 0xc15037013f5d3f8U,
  0xed551504204e4807U, 0xe4f216e8c6b156b5U, 0x7fdc42e034daf2d0U, 0x4d9281ecfe6d2c8U,
  0xea1dffd720db282fU, 0xce525f9e4100c04U, 0xee16ef42e0d62107U, 0xc5ed111d0a71fe1dU,
  0xef01c5ca38f4fc5bU, 0x31fa36f466bac9f4U, 0xfe0d49c8ae19a51eU, 0x4fd10644e420ace6U,
  0x30d9dec3fdd20a64U, 0x2e50bfda5d5315eU, 0x4ab607349e1c012bU, 0xe1080fa8c2f347d0U,
  0xec50290ac12912b8U, 0xca07d00cfe0c030aU, 0xb81bbbb7d70de4f1U, 0x7ce818e8c1a3140cU,
  0x16c8b716362bca5eU, 0xe82d4430deccddcdU, 0xe501a5d9e0ecee38U, 0xee01b2d6bee434U,
  0xff13512cf0c2c4cdU, 0x17dc150545dbfd36U, 0xb9b9371d063045e5U, 0xb4ec07e5f6000bd4U,
  0x35b5d25114c4f208U, 0xdfc9f6142f1c03e4U, 0xe7ebe502f6473513U, 0xbf2a29f6e33af62fU,
  0xefc4031cbbb92012U, 0xb1f250ddfe2be707U, 0xf30119e4dad9d03eU, 0x3cd630eced0df029U,
  0xcdfbf71b01dce6d5U, 0x1106e0f7f5021112U, 0xf6a9cee3c812ddfcU, 0x2dbabc1705cfbfeeU,
  0x1c1b16e03cfdd302U, 0xecf8aef5e0e5c82cU, 0x11421000ada0516U, 0x1d44c701e0fa1929U,
  0xffeb2b11280ae1d3U, 0xe4bde703c0f612e5U, 0x3e3ed2226f2b31aU, 0xd84401eed91eec0bU,
  0x1ddae323d829f134U, 0x1ce180baef912f1U, 0xc7eabd180dcb0704U, 0xedf319ddeafad8e1U,
  0x48df14f6b036c7caU, 0x1bbfbfc7c417fad1U, 0x35e3cd47c403f6e7U, 0xd50c042f08e617f6U,
  0x10cbeededddeda41U, 0xca3d06341026eca9U, 0xdffceac3e657fd31U, 0xf72b31d4fbdb386eU,
  0xf0cbde0c034ce219U, 0xc428c6e1c125f7e2U, 0xd725f7dd1aefffefU, 0x361c1237514e2725U,
  0xede42a3e53e6ec15U, 0xc849f706100ef715U, 0x2e3620c826faa521U, 0xfede1b2028d7e03fU,
  0xfefa5a15290409f9U, 0xf9e4e4033708ecfbU, 0xcf553dfd3f363ff3U, 0xf6f714d8ea1c4832U,
  0xf9cdc3091f07f937U, 0x19120a00f3fef3c5U, 0x1055f80724e0e6f9U, 0x11c30a0cd1dc1f1aU,
  0x20f70adb08c8283eU, 0x3fe4fc0cfc29f705U, 0x9f20055e91ff5e3U, 0xd7c7b626fef33d2bU,
  0xbf9f1201adfcec7U, 0xe8b919120603f90dU, 0xe3f7b238cbd9e5deU, 0x230bf0f0da12f5cfU,
  0xea11fd4f3de4fbf4U, 0x1e55509fc5117f9U, 0x32d715fd2018160bU, 0x1de9d5bbebdbfed5U,
  0xd8fef5ce34b1b32cU, 0x52fe2eb5d4a8152fU, 0x18181a3612ec0fc4U, 0xcd63309f736450cU,
  0x8171ebe60f9edd1U, 0xc4ebdbf8023edfc2U, 0x36f760011cd7ea5aU, 0xdb21e1c9ed35d6e2U,
  0x813f4fb3112bf4aU, 0x3043e0f603f0f8c1U, 0xf2e69ec4c9d303beU, 0xff0ecb04c8ae3fccU,
  0x4e5ea15e1d5ce18U, 0x5236024146a33b4U, 0x2eebe01ae01341ebU, 0xf8dbfa2ad50b363fU,
  0x2f1bdc480c0d4c26U, 0x2c03f82ed9217ed3U, 0x282ff810412a59d1U, 0xfac90eb802cef3a5U,
  0x1bfbf7e6ee1be9daU, 0x3c0110f03d330dacU, 0x2527b128f0e5fae2U, 0xbbc8acf4b851e61fU,
  0xf110f2002f50aaedU, 0xce21ccebf0d8d3d3U, 0x160508a2b8030fbbU, 0x52ab5b013051613U,
  0xddf7ec25e3f25125U, 0xdd1ef7dc7ff215c7U, 0xe102c20ff1fdf12eU, 0xec4b30b0b83dfec8U,
  0xeb393612e7feed20U, 0xa2aebc926000bcfU, 0xdde7461060c541feU, 0xe0bbebb0b3c8e553U,
  0x162c40290e0129f5U, 0xf7f5ec5e0360e2e1U, 0xe011bedbe5c3ee1bU, 0xa1207dcdcf8e911U,
  0x2fdbf1bcdcaaeef9U, 0xbe07faea3c24db03U, 0xbadf054323eb1ce1U, 0xbd6d1e50d1e10d5U,
  0x3718f92aabeff919U, 0x590f0eb515af1e37U, 0xd6a2daa5dd20b3bdU, 0xf8b067d609ae69cbU,
  0xe7ee052213d5d0e1U, 0xd7bd37e21047e917U, 0xed8151ae0fd370cU, 0x2d06b4f948ff21d2U,
  0xf403c32a56cbf9e8U, 0xb349f92c16071cd2U, 0xd53dd43e20b0ebc1U, 0xbcbaa403ec04a4ebU,
  0x38425cccfe599d5U, 0x39cef0dca820b43dU, 0x17d9cccd413ed74eU, 0xeadda1fb2421e1d5U,
  0x3dbd65e4d8c5b6dbU, 0xf90fc94128da0ec1U, 0x1f0444fcb9e7fde8U, 0xc2353912ee373751U,
  0x45e4131bac18360bU, 0xc7c053020dcc076eU, 0xe4bebe4e9ef1e16U, 0x2d074a105c2a2d2bU,
  0x4ffded1e0f420927U, 0xe54204d7ee0f47f1U, 0x21312cd6c72b0adeU, 0xfa0ff7ef580dd6f9U,
  0x1f1c2a3542cbcbe7U, 0xd1e91ffbf0e73820U, 0x184231c5e6fd2ec4U, 0xc89ef4f86ee236f3U,
  0xf4df4cd22a1c22e1U, 0xab01c5e5c83413bfU, 0xa908f116560b491cU, 0xf0edaee61e2c2618U,
  0x1c36c212f900343cU, 0x2a0a38f6c9b9d624U, 0x45f036f614d146f7U, 0x6eec2d2844e5f9ccU,
  0x1ad330dbbac34110U, 0x52c72fec11f027e2U, 0x55c1e773c1456418U, 0x1ee5d3b1b2ebfd55U,
  0x765d4eb2f0decccU, 0xfc14cf196cfce1feU, 0x95711e2dbe890f25U, 0xb9dedd14adfd28c9U,
  0x32030a3e1f19fee8U, 0x70cdf5d62afd0891U, 0x3d1a01d9de320ad0U, 0x35ef0ce8b9d953c9U,
  0x1710e6fbb100d4f4U, 0x243ed622ec371107U, 0x2e21d3cbf8d40cfcU, 0xfdd9dcf3e215c603U,
  0x1e261801db0210f1U, 0x2628f508260fba14U, 0x909f9f63138fbfcU, 0xe8d816d2130effe5U,
  0x1be0d9f208f1e631U, 0xe9fcf2071fdf0ee2U, 0x21eac832cedb0327U, 0x45d0e2dcef01d2d1U,
  0x6e5081a37cebbcdU, 0x414022814d91d3cU, 0xf3cbf1ed35c13cfeU, 0xef07bb3c0cf2db16U,
  0xe21605020b34fa00U, 0xdb0313e23f3910d9U, 0xf3004c39e6dff7d9U, 0xffccdee23c0124d3U,
  0x1def0519dd15f0d0U, 0x2cd915cd0d1a0211U, 0xb9ed07cd31012a1aU, 0x34da3035e91af2f2U,
  0x23e5bef1e807fde9U, 0x1015f709ef121e1dU, 0xe21fdb09262af825U, 0xe4e5fb111f2525fdU,
  0xeaf639d80fe41331U, 0xe8dd17141801d2cbU, 0x2edf0433d4c218dcU, 0xcc01d51b040208dbU,
  0xeb19e0e603b7dc04U, 0xf7f928ea37fe23a6U, 0xe307e9f7011438beU, 0xdc1b031aecdcf34fU,
  0xd8092d15eab90520U, 0xb8caf4210122dff5U, 0xfaf148a7ec383838U, 0xe43207ca2c37d6d5U,
  0x19f1cae4d9bfbc2aU, 0xcb0f0c26f2b7f8deU, 0xd0150500dec0feaeU, 0xfe62a1314c6fe0dU,
  0xe72d2d18f3f921d4U, 0xd436d02612c319feU, 0xf30e2ccfc630282fU, 0xba3837e3e9e33814U,
  0x238ffee1ea38e826U, 0xf4e9c82801cb3c95U, 0xcc1303ffc3170defU, 0xd0d0c8ef12255403U,
  0x152f7eec1e71f1dU, 0xe6fb19306d1f0cb7U, 0xe53ddc5b96c3f207U, 0xc915e9d81407fe39U,
  0xf0d72044f60fc1f4U, 0x22e7d60ce3e4aef3U, 0x27c5bf0924221efbU, 0x243b05dcc5f10fc2U,
  0xa3e101ceec7c2daU, 0xe7e4f70a52253636U, 0x340f40fa1bf238ffU, 0x1e18f1d838e51907U,
  0xe6dcc8f0d22bf221U, 0xfde1091de60cfafdU, 0x1f381f35d7500cecU, 0x17e12329e8c71317U,
  0x272cb60f1524211bU, 0x34e612d8c9e6cb4aU, 0x17fa2304d60f44e3U, 0xa262cdcb6dd3616U,
  0x143e024044d72f08U, 0x470409db413a39dfU, 0x10233ad819cfc013U, 0xff32f3f20e135232U,
  0xb1be0b021533fe44U, 0xc80fdf3816d6c5faU, 0x1217044d3d04e7a2U, 0x47158118ebf343feU,
  0x2c1e2c66cb0922ccU, 0xdccdcab6d730051fU, 0x71f3ff4fdf7f515U, 0xe172c08eebddf0aU,
  0xe9ea12fb293ce602U, 0x1dd3fe16583bbdf1U, 0x23109f2c1d2503c0U, 0xdc12e4032023ee23U,
  0xfde21ae7c90205abU, 0xf0b8d5ab1a2857c7U, 0xd13b4ff0f1d3edf0U, 0x18f32fe11cd001f5U,
  0xfde4c3f2b9ecf02bU, 0xe90bfbc2edc5e3dcU, 0x21af00e34625f941U, 0xc0a03eff7e30f0fU,
  0xd10b6fed1e351be9U, 0x20df39c8e11fffd6U, 0x22021fea0fdff702U, 0xfc4f113fd40d2525U,
  0x34181caae6edddbfU, 0xf62304de23fad8e2U, 0x120aff04120fee2aU, 0xf22efaeea6fcb9cdU,
  0xf40cf3a405f0fcdcU, 0x3a2edb37170fbaedU, 0xb3a804140ec4d0cbU, 0xf2d2ee451de260aU,
  0xf42032c032edea03U, 0xcb42e8da2839c2d8U, 0xc8e8d7c610eab50fU, 0x102300f80f084ddaU,
  0x3f11eb08aef9142fU, 0x12b1ef804fb1b22U, 0x24e9e3cb18cff5e9U, 0x1df505f739e00e25U,
  0x2d17301114c3e4f6U, 0xdebbb8f33411e32eU, 0xe2d1c8e62630f81fU, 0xc119baaae1e7c9cbU,
  0x43e6e8f5f7baf6e7U, 0xdc262320231d0514U, 0x3402ca0ee035183bU, 0xca34fd0af9cf08e0U,
  0xd53005103c164f2cU, 0x701ad93a01f02a17U, 0xfc10edf7d71b1236U, 0x19281ceeebaf0dd9U,
  0x53924d8fdfa061eU, 0x1221bdc31641f735U, 0x1419382d21bdfec5U, 0xfdfe8ec1facf4e0U,
  0xf9ed1626d0dbe8e2U, 0xb203e9f61cee16cbU, 0x5ffefb2acd4fdd15U, 0xda551be1010caf53U,
  0x4595ea25aa20da02U, 0x9b1943e8dfc5b545U, 0xdbdae05715d71668U, 0xcbd4f09d425bf31U,
  0x1fc7fd3d0ad0f0d3U, 0x4c5bd70dc8ec3cf6U, 0x4cf8bd1d10efc5c9U, 0xf8c6dcf4f4e1c455U,
  0xf8c8df2d435fedfeU, 0xfd22e2ce1f0ef7d4U, 0x41d3512fe6cae6c5U, 0x760fd4d0503bc32cU,
  0xe069273756edb2e0U, 0xacbf2e0df0845eaU, 0xdce2ff9a23d6f7e1U, 0xe827224ab73d491cU,
  0x2991e33cac1beef9U, 0xb1ae921b1d7fa2fU, 0xddbbacdcdcf2b32fU, 0xe0131028ed26d11bU,
  0x49f02615da1c19b4U, 0xedd2f11bc2132ce8U, 0xe4f9015e08ece1b7U, 0xe9fd05060606194dU,
  0x602dcd7e1fef142U, 0xfaaa0d1130c6121eU, 0xe8051e52f922bbe3U, 0x1ec7023622d71358U,
  0x102125070eeef440U, 0x9f4018d757cc09U, 0xd3634ef42b76df5U, 0x302017fd34691803U,
  0xfb20207925fd2426U, 0xbbd9050bf6f2fcd0U, 0xc1c324be181d343fU, 0xacbc4b264744b7f9U,
  0xf4bf3dddfd114cf5U, 0xf17bc1bdd437d2f5U, 0xe9fc2dd031eb4506U, 0x31b1507eb52f028U,
  0xea3149f903d80e09U, 0xe39effedefdd41d3U, 0xe60b4fecd0f43510U, 0x2846125cfa3429e5U,
  0xed1dec19fe05f7f2U, 0x6def0db01aebd5ffU, 0xff7e30bfe1af036U, 0x8d28f03935b7281dU,
  0x340f3135001bce08U, 0xd0e5b8532d413611U, 0xaf2721f9ffb70bb4U, 0xfaf9e6dce3fcf8ebU,
  0xd063973edc56de16U, 0xe7dc18b06f17f1cbU, 0x3c25881f33086e5U, 0x1020f6c83cff2515U,
  0xa814ebe17fcaf710U, 0xd000123342c005f5U, 0xf51e1eef0c1221edU, 0xd0b231036f5dc24U,
  0x490afcdc183f2ee3U, 0xfea2ce7f863bbdcU, 0xfd01eddcdf2a04f0U, 0x24e8ebe70fd8ee9dU,
  0x13fd031e40c30c40U, 0xcd56e5d707ec131bU, 0xe32827b6d502dae5U, 0x1ec3edd2d5d62444U,
  0x220ebde7ef00141eU, 0xcafdbb0fed0ceeeaU, 0xee43d23f4e911e0U, 0x19f73ee2e4283805U,
  0x1f0dc00831323507U, 0xcffdf0f101e746ddU, 0x41ecfeeb0613ecf6U, 0x11edb23e39073521U,
  0x2e360931eaabf8e2U, 0x68e924262a2ecde6U, 0xf5f7c332a9c50418U, 0xe5bfc6ed0dfed241U,
  0xcdf40261ebf5bb0dU, 0xcd410df31913fee2U, 0x4fc0d2ed8fffefcU, 0xea43fefbaca3de21U,
  0x9fc2b274a35e0e6U, 0xf3f618fa4d4705feU, 0x1a00f3c5fbd31521U, 0xf5e7d4f818ef13beU,
  0xdd2d1ad3db2df2eeU, 0xbcce7fb3222ac11U, 0x14261d1cf00ed9c6U, 0x56301a380c2e18faU,
  0x18dfd6d6f00f20ddU, 0x16fa102916c61723U, 0xb0930d239311001U, 0xecf83fddbfd250e5U,
  0xd0323b12020edc25U, 0x4d25f5e9eafbd706U, 0xf01520f52af3cb12U, 0x28ebfff541d5fbd0U,
  0x7e82a19fe01f040U, 0x3df82113c3eabc38U, 0xe351ef15fd260318U, 0x623f825d83c1211U,
  0xde4c1afc11d01bbfU, 0xe5d5d51aea2eef00U, 0xfc0d3cf0ce0de537U, 0xe925d93c04fcd73fU,
  0x3f010db3d71e0404U, 0x16c00ae30d0a1901U, 0x4cac1d1230211706U, 0x7f3f3fd464228e8U,
  0xf2e141250ae92cfbU, 0x6c5c3e439304dc5U, 0xbafdf2f91eff30b6U, 0x46204dd0dcbbdafcU,
  0x162801211705172aU, 0xec19febe37e2150cU, 0xe5e8c2e01e50170cU, 0xe7a12714312cf5feU,
  0xfcf2411ffb2d1504U, 0xc8dbad04ddfcf61fU, 0xf2d926041b0edee0U, 0xa172fc6f5eff00dU,
  0xce0e2dc728cce02bU, 0x4bede60f300b18dcU, 0x14384dc4f9d01f12U, 0xe303d7ebccf01ae4U,
  0xf1ff08f6f520d032U, 0x23d2e0c349e9cef5U, 0xb9242510e8f714f9U, 0x27fcc9032e0b1bcfU,
  0x3d207f74307ae0dU, 0x3d1f0beb24345a2eU, 0x61ce33e44071dfdU, 0xe1a2edefcdc1917U,
  0xd42dc3031ce8b7e0U, 0xe128320eee36c00cU, 0x391edb2411142b07U, 0x20f63202bd16cb1cU,
  0xeaf4ea0e04e9eec1U, 0xce0c0cd72bf62958U, 0xdd1d0d05351201dfU, 0xeed04a4ddf321fb7U,
  0x814320213f417ebU, 0xa1d37efaebe16c6U, 0xe80d082306f53629U, 0x20f51339005d24e3U,
  0xea1800f2f505fafbU, 0x2b20fd1bf91aea28U, 0x1e3dce1511dfc91cU, 0xec13e4e602060d01U,
  0xcdd417f52c302713U, 0xfbfdd11a0f96bd44U, 0xd1c46d6fcc2d3e7U, 0xcebeddd22093726U,
  0x2abffaae0bbe15d8U, 0xd2ea13ffe1c43708U, 0x1e1133dbd7aec5fdU, 0xffc90124fbc3028eU,
  0xb003c28f2091750U, 0xeb07b9fefe07c2c7U, 0xc1330ccd3efde1faU, 0xd00fc9b50d0cf8baU,
  0x1eefa9f00e1f0254U, 0x84009dee40332a8U, 0x130c24dfbed94741U, 0x3f30e1fa09d6f3c4U,
  0x383cc1392ad73d1fU, 0x1bcc021f45ec0332U, 0x4ce9372e4cff00f3U, 0xa6e8bc44dbe94a01U,
  0xe1ec001aa1db1619U, 0x61838064001d3f1U, 0xceca0d1d191eefd7U, 0xb6f0067be514fe0bU,
  0xcaf1f8f7c919efd5U, 0x1c29f0056caf12fcU, 0x2436f21207103721U, 0x51b26221b212a1bU,
  0xbe0ca31bf4033441U, 0xf72bf9245131bc14U, 0xf240c9d347ca142cU, 0xfe1c2df50e0a020dU,
  0x50711d27e1e315eeU, 0xd3cbe6fe26e5f02dU, 0x41dfa29f9c3bc09U, 0x2d35f8ce4be62dddU,
  0x81d023062be460a3U, 0x20efbff506af1a5eU, 0x41f804270130d9f8U, 0xba071ef802f6f3e2U,
  0xdc234ae10824d39eU, 0x21f5dcb5cf1f0722U, 0xb0c1af9f1220bf9U, 0xe323ab2b28cf17f1U,
  0x3bde23bf37e8e22fU, 0xe82be8e6ae1efbe9U, 0xf53b4dbce9cde80dU, 0xe6f9eceaed081224U,
  0xffe0ef6251cead1U, 0x30c2641b9bce22aU, 0xf06ea33e82df9a1U, 0xe0ec3c5709e40804U,
  0x16f319ed11f21d05U, 0xb0501ee9ade3712U, 0x4bc7780ef4044ae9U, 0xe60a141f28f63b30U,
  0x2a39ea23071fec38U, 0x2a04b933b310348bU, 0xa82737c0e7461ef9U, 0x41c72a05a5ccf7f5U,
  0x3a09f0cc3551ff4fU, 0xde09dfa3190702f8U, 0xd8d5d8fd1dbbbc00U, 0xe4d12e29c0bc2d1eU,
  0x410d412da8e3f5f1U, 0x8dd01c93509f828U, 0x10b8c6e4fdfec6d8U, 0xf93108c50303ffe0U,
  0xdefcf90edb3601faU, 0xe112c8120904bce1U, 0xce9fde448321a4cU, 0xb71f10efac0ec017U,
  0xc717d2a9c05a121bU, 0x3d2e0e02becb702U, 0x10aec5efc4ede26dU, 0xfb3c19e0feb10abdU,
  0x10d5530922d30b3cU, 0x13fee72ee4efd253U, 0x1d14fad3e8cbe890U, 0xf8a2e1f81e021cd3U,
  0xc3612392ddcebebU, 0x1b4b082ce43ebb2dU, 0xf53757e2c2e82feaU, 0x430c32c9fe3794f5U,
  0xe7c235ac29ddea2fU, 0x3f5c2b5d71949e3U, 0xe5ce01e13ae303f1U, 0x1b0f0128ee26570fU,
  0x3605ece2eb3b2dc6U, 0xe3d52429d713cafcU, 0x824faca06f523f1U, 0x4acee847fe351734U,
  0xe22514f9e435df3aU, 0xfc1df400fbe1d211U, 0x8a2d21617cd0accU, 0xe1313414f2e72f00U,
  0x16992ce3460deb0cU, 0xf0160809f1a4cbb7U, 0x11d2bb2e380bef24U, 0xe1d60f2d08061614U,
  0x5af511da2cffd71bU, 0xfc15302d0274d33fU, 0x9092daf07c73eafU, 0x3ad8034e1106ffb8U,
  0x377f47ced313c529U, 0xdce021f9ecbc39deU, 0xdfed0ad427f71b0dU, 0x3a0c54243cf8aeedU,
  0xc6dd181fdb0435edU, 0x4815cedc5105d7f4U, 0x3b5f8044cd7160eU, 0xcced08c6ef09500eU,
  0x2fd320ddfbef01d8U, 0xad417dc436430e6U, 0xf6c80df9cf0cce07U, 0x1c11a63dd9ff0bf0U,
  0x40f8d43831e84bd0U, 0x272d27d351eadf0eU, 0x2903f0ddb823d5f5U, 0xda46a9a9382a20bbU,
  0xdfd20149f90ba6e3U, 0x1b1dad24f4fede2bU, 0xf1ddd1ce0a25baddU, 0x25011bdca0f6d32fU,
  0xf110f3e8db3b25caU, 0x4be1d4150ad604e2U, 0xd82615e1524bc9edU, 0xc5cd04d908251a1aU,
  0x1c1f0623202ed4f8U, 0x2949f42b57de1716U, 0xe93bd812d4fcdbf9U, 0xf30a04c1281ad7e2U,
  0x2cc3ef10e5f326e5U, 0xf6f1d6fb1116b927U, 0xa0ffd030adfeaf4U, 0xbfbcf827e564c715U,
  0x3026180f2ce2143aU, 0xec1b1334ce313ccfU, 0xe54814cbf9041000U, 0xecb9e5465df3fceeU,
  0xc1ad1e08efcdecc6U, 0x2addb6b9d24b08e0U, 0x37f5da0b60e9750eU, 0xf4bdef25f11bc630U,
  0x1dc2c83b2c4b0ff3U, 0xdc38db503633fae9U, 0xe2e9336b18eff00cU, 0xcee6e23a33c4091fU,
  0x132d22151333ed11U, 0x3212e6e54721072dU, 0x8e5f151072d2036U, 0x29e341d8c53be139U,
  0x352b4b33e209e114U, 0x211dff54ecc0ee30U, 0xf021e03801dfe221U, 0xd2ca18ebc5e7ecd8U,
  0x542f1e2f6e03dU, 0x271260ec072f1426U, 0xed3b14e0211e26e0U, 0xdf0ed0bb09272fe6U,
  0x3ffb5e5c213b461U, 0x25eb3d20d1d618e0U, 0xc3e8cf0fc0f0a526U, 0xf4c123f5f130cc11U,
  0x2f0dccf71863fc37U, 0x1ee4f9ed1e42fb42U, 0xf8faf2111f263fe6U, 0x18dd460bfa4f1a10U,
  0x2f180cd035e517f9U, 0xd7d9d8f82a082621U, 0xf6575df236e829e0U, 0xff131cf103dc0c31U,
  0xf3ed08dfb2f5f61bU, 0x30cefb6f1112207U, 0x1611f21d1aff47acU, 0x2104f935daab01c2U,
  0x9bbf11c0fdbfefaU, 0xc920faef2729eb01U, 0xd4db1e26374927edU, 0xaed6e9e013e02dbbU,
  0xf2cbf926e62b27fcU, 0x35232719fd3715f6U, 0xd33ad805dcd22edbU, 0x5fab93d41d5cce1U,
  0xfa3c071a4908a2e9U, 0x3f043e3123da507U, 0x2cbc40494729c6e9U, 0x1302d9dd17103904U,
  0xe8472013e2e2fafaU, 0xbbe7fe0502ddf6e8U, 0xe2d142ec42ed2821U, 0x15f0142000e125e2U,
  0x2fddde35b7f202faU, 0x4acee6f7110524f0U, 0x320fcc34c30cb10dU, 0xddbdde33d737c1d5U,
  0x505ee2fd0404eb4aU, 0xe6037dd7a22cd6e1U, 0x82933e529a43843U, 0xb2b1427c0317a8e5U,
  0x330eeb00fe112a3aU, 0xf7bdf2fabfe02fd4U, 0x443121f4131503cfU, 0xf7afc8f5b3c4d162U,
  0x35fd9e570507024fU, 0xfdadfaede22f3ebU, 0x3117e209ef3451caU, 0x7f12018145fc8d7U,
  0x52e451ad7f7eb13U, 0x24e2ce2fe21725c3U, 0xdae9481dda09f80aU, 0x517fa70f8f00ac9U,
  0xeed6c0d4c8e234ffU, 0x173315ccca18e239U, 0xe5be162fb2d02557U, 0x3c0afc4f3c7fe21U,
  0xe56b0f0447f7edfaU, 0xf223a03158bc3e0dU, 0xf6023307ead6c3e3U, 0xc8bbbf2aceb7fa43U,
  0x18aef601df1ac65dU, 0x293245d244e932a5U, 0xd50fe5a7313ec2f9U, 0xf92bc4c048dfb61cU,
  0xf8212519f6dc1013U, 0x99f503efdca3e0e4U, 0xce0bf6e81c13240bU, 0xe5d40be4d814f80bU,
  0x14ee06cb14db06bbU, 0x15ec28d41d1c30bbU, 0xf33604ffea0ff9e0U, 0x2d08cbd30e2b08f1U,
  0x211a27bfdb0ab406U, 0x414eac738fbc0e5U, 0xdf16562a1d11ecd9U, 0xe100eac10fe30aceU,
  0xc171901dcdf2210U, 0xe9dd3ff80d0607edU, 0xe409dcd3f6e11d0bU, 0xf6ffed1925dd6113U,
  0xf0e6001bfecf13fcU, 0xfd3ffc903aed6e5U, 0xf0bdf70b2b221bf8U, 0x30ee925cf13361eU,
  0x2453ca250350f225U, 0x3121df150c0fedc7U, 0x1170c13a41efdd0U, 0xc6b40a06eb1ed1beU,
  0xe7c9ef22fc04fc0fU, 0xd943e1e0fdf0ec06U, 0x21fcfeb00ef7052eU, 0xf715022506eb091aU,
  0xfcb2a22030dcf020U, 0xf90d16202cf8f026U, 0x160024d6e30b33fdU, 0xf9fadbfae7c71ddfU,
  0xf1cf3e4efa7f746U, 0x36463ac545d4f105U, 0xf50acd9740d12b33U, 0x9d4d6a4a18cbe7f9U,
  0xfe12eaeafe4f17dbU, 0xfcd339e5d616fbf0U, 0xf4f9cd1f02f6db0eU, 0xd91f0cf50c43be12U,
  0x826eed70b2fcb00U, 0x6fa201be3f5f2d9U, 0x6205a0fbd581c932U, 0xd03c1bfeab8fcfefU,
  0x64ce31dcffe20fe7U, 0x2537ffedf548f42aU, 0xdea730057ed40188U, 0x9f7c8d62341083aU,
  0x715d5032117a47eU, 0x2b5339ec61ff480eU, 0xf4d132dfb798a2e8U, 0xf849f12fe8680e1bU,
  0x4a14012ee1bd1a4bU, 0x3dfc18c41bee2ee9U, 0x11b830e9fdec0555U, 0xe93f1fa8cb340a16U,
  0x35edd646fe1ad74dU, 0x2b25f539fd4e1508U, 0xc3f4c8d3cfcdf802U, 0x18e61a2ec29d2df3U,
  0x2b57232611fb4709U, 0xd42d1cf2c614f0f2U, 0xec40f26b01211f7U, 0xead1250df7e61e0cU,
  0x37d5fc42d7f94d4aU, 0xf2bdf233ccf1f839U, 0xc9f3c98ff4130311U, 0xbf3a1dc545ebf2deU,
  0xa9e61641f63b2438U, 0xf6d69631dcf62d53U, 0xe335b867f5d7e1eeU, 0x23155f280e9a1e30U,
  0x10cef543e61d56ceU, 0x15befc4900d40808U, 0x18355729623f0b00U, 0xd8c3dd3121e4bcdfU,
  0x3620a13e603dd25U, 0x4de912fb26db081aU, 0xf40fdefa0e1f2f2dU, 0xd6f5c1d338e4cb41U,
  0x837c80222eeae4aU, 0x4a1517201925c7ffU, 0x1501e3d81ef8b955U, 0xfcdd53fffcbdb83cU,
  0x1b1203c6c3060c2bU, 0xbe1c0e58cc81e9e5U, 0x12e32cc1302259ecU, 0x5dd1352d68981ec0U,
  0x5101eaf72bba3324U, 0xae0f9c843094c46U, 0xbc0dc92ff2f6fdf4U, 0x65f1df2f64450ab4U,
  0x402cec5203d4c4a6U, 0xf53f052f9bfbb809U, 0x2ac1e72ff752120eU, 0xcd3c0ce319f0f9c6U,
  0x311e07d718a3ebf0U, 0x43725bc23fa4814U, 0x38c1f9ea164110f5U, 0xe702fb4109cefbcaU,
  0xc3b0f128feede2ccU, 0xcec2bb240c3630fcU, 0xcffce6c3b160f93fU, 0xdae3ddbfd218ce00U,
  0xe81bb257ecd52ad6U, 0xf3c61bf2f32f363bU, 0x4f91425c71aec20U, 0xce002c12ad04d331U,
  0x5332a3f38c50122U, 0xf1cd1fd545ef1b1bU, 0x2bf00e08ca0f11e5U, 0xf60af72118e2c823U,
  0xbd2fad5c81200f3U, 0x2ee0ecef08d90728U, 0xe3232e31e9e836feU, 0x2cf63d02e0c62505U,
  0xe90a07f64ce5f434U, 0xae170224161c03fbU, 0xfef3f2e540ed0420U, 0xd70dd5c5d928ffd7U,
  0x3f2efd11d0e5e7efU, 0xe014b1d06ec3df5U, 0xd5e5d42519f0c20dU, 0xbdfb07dd1bd00fd2U,
  0x48e53f0af3e9eed0U, 0xfc00c8bfc5dcd4ffU, 0x2c18d532cd16f937U, 0xbe3b1d3bcc2df824U,
  0x9fe803df38c0f400U, 0x658eedc362b19b0U, 0x2ec14e044270604U, 0xfcfaffe62dc4f139U,
  0xcd1522185eeb083cU, 0xd404e70cfc2b360fU, 0xeeebd6c40d1d1c43U, 0xcd14fdf2295027e6U,
  0x1716d9072df1253bU, 0x1d2bf118edd50720U, 0x1ce1030646cad9e6U, 0xee94f1d372fe50fU,
  0xb50a38f0fbe213ecU, 0x52d70cf953f7304dU, 0xfffd0f191bde4110U, 0xefcf09291ad95efeU,
  0x1daec9dae6fa2713U, 0x1832d01e232e18ddU, 0xbd2518c1d0d81f32U, 0x2026efe4b611e012U,
  0xfb11d93908df2100U, 0x49cdfe0d412cd303U, 0xf01ef0544239d732U, 0xf443b81efa053041U,
  0x25beb4f4e224d2daU, 0xde743d42e2df2f3U, 0x33daf235e8dc07d9U, 0xdd12d8261604fb12U,
  0x8b5156fcb1b8efe8U, 0x8032c15222823e1U, 0xd12ff8f317dfe84dU, 0xe7e30f140423ec22U,
  0xcdf7c7060fe3e5eaU, 0x2604d50510d1bbaaU, 0xefb6ca1934d9e018U, 0xc90f1f0cb412cf0fU,
  0x21f84203e140d012U, 0x18caf623e92df1fbU, 0xc2261bc71a966172U, 0x16c44f381255e8e4U,
  0x24372c1eedf820eeU, 0xdd3cf902c4ca0b31U, 0xa8d408cc43cfadf0U, 0x81b3e5bdb2fd9ebU,
  0xc6dffb11d0cc3422U, 0x30d9350620181100U, 0x35e8f5127c2913c9U, 0xf9094f29c2e3d8faU,
  0x3fa72f47d837ce02U, 0xacdb72fde175df9U, 0xcc2c6ecedcf52f41U, 0x1331ea4d1961f5f5U,
  0x37e7c544f9072ae1U, 0xb08fcdb20210030U, 0xcd33e918d4b5bdffU, 0x19439e3330951001U,
  0x23b7e8f83424e626U, 0x3fe52f06f117d956U, 0x1ddee94818f0c8deU, 0x2ac2b0def1c4d65eU,
  0xd5302aeeb7c8d23cU, 0x1e0b484465074209U, 0x1ff33cb85c0fc8ecU, 0xddf322281619ebedU,
  0x18ebdfe0a2e7fc00U, 0xc8cd4305db1bf4c7U, 0xcdda3e2716d30b3cU, 0xc5fe34d429e8fdc1U,
  0x26f8d6bff411d0beU, 0x881bcfdf17ec19efU, 0xf8143202b5b7db04U, 0xe1fd2829e69d18eeU,
  0xf0a822f1b3e51720U, 0x2622cdf0df47d61aU, 0xfb460c20e3cb8aeeU, 0xf0150d0b210c2a0aU,
  0xd9e0da4af8db34d3U, 0xf203130dd92ffce6U, 0x43260cfa27f6dc1cU, 0xfbe7d8293ace16a1U,
  0xe8db15f102ace5b1U, 0x2cfe2806f9edafdeU, 0x3e4638e51f4ff104U, 0x291123002fed22fdU,
  0xeaf62dcf4d08bbafU, 0xd3ebde5948d1fe9fU, 0xaf08f0ff04f305f6U, 0xe302d4ff0ad4e82dU,
  0xdd2cbf623dfdce9U, 0x13270817ee210ae2U, 0xe60f0a0ee1f4c25cU, 0xf6ddc1fb3ded2cb1U,
  0xb0052713fb0c0745U, 0x152d270feadcca09U, 0x4a18d7180eee0610U, 0xd2a2f4afaf62909U,
  0x60a2d43d102757d6U, 0xc51954b39bae333fU, 0xa00052f9fb9b472dU, 0x9634970c09e8ccbbU,
  0xfc451111ce43b236U, 0xfe48223907e11ba6U, 0xe00ed830adaae2e0U, 0x30b9e73b490ccff6U,
  0x6f7afefd99af2e5U, 0xe2e52b2cd56fa66aU, 0x2462a90eb8574a04U, 0x4dd5afdc8af848d5U,
  0x741cb49ebffd912U, 0xcddc3b8d42f948d8U, 0x118d16a8e7cdad6dU, 0xdfdbf1130b2cc5fcU,
  0x59cd1ab50a3015dfU, 0xc20e463d35df011bU, 0x21cdc431da1de9c8U, 0x6a7792f92da470d3U,
  0x2376cc784f40db0aU, 0xf2fa0255149df6beU, 0x1c454bd9e4b0da39U, 0x30a05c86a6e6b8cdU,
  0xd4660aee0a1e1e39U, 0x6f6ad006fc41d22cU, 0x2bdc32d2f347b737U, 0xbf10d14825530f08U,
  0x48d43d371cc60af1U, 0x121d0be8ff323a0bU, 0x457fdb49caf843e9U, 0x532ebb2cdd7e03dU,
  0x53fbfe1a7fdbad0fU, 0x4f82d0edfdbd9c7U, 0xbecf626afe8f8faU, 0x2aced0aef51cc3c1U,
  0x1a2e360cfb31111bU, 0xcee0a3c41ea80a1eU, 0x485326050413cf1dU, 0x47df0dcfe25ddebcU,
  0xef43531d0222631U, 0x3cbc060af25148f8U, 0xfb5730dbdcf61cfdU, 0xe690a8fd02de1ef2U,
  0x4b2606de0737bb1eU, 0xec1a1b1bc8e4598bU, 0x5d21ca217f5a42f7U, 0x21adfc17f0278af1U,
  0x23f313eee6352348U, 0x7c64724d0164ffcU, 0x4441e2fbced07134U, 0xdd19df0d11c42009U,
  0xff10ba3df7f7bd8cU, 0x245101112032cd17U, 0xcf97dd32ec0c09c6U, 0xf6fe08254af7d0e2U,
  0x3f0524cf3aa713dfU, 0xecd4db31de8fc036U, 0xcac0ee20e80603ceU, 0xbb2cdaed423c200aU,
  0x2238e8efdbc818daU, 0x9ddcbed420501bbU, 0x33323fb7344eeee1U, 0xcaaef2e34ffcff0aU,
  0xae523fe4025d022U, 0x1b321fc8b9cd16e8U, 0xee173ee43e06f5ddU, 0xca363bc81e2e482bU,
  0x2b92b0faddd1e37U, 0xe70cd3172ec0faf2U, 0x290a280cf8ad1866U, 0xf6a9d1d31aec2209U,
  0xf6da28d9d7e7bf1bU, 0xfddbcce8f5ee01c1U, 0xa25f01e14482cddU, 0x1cd4dcc506b0f2dfU,
  0x2f47fe5019ddb0d6U, 0xfadee0083dd82434U, 0xe23be6361dfe530bU, 0xeff8dd34ee2925f4U,
  0x3c40cd5aa32140bU, 0xd7d4f9f501e438cbU, 0x3d00dddf29232cf5U, 0xe6f3051b1ef002ffU,
  0x8112ce7cb10e3d2U, 0xd0baf72f180cfde0U, 0xed4a163af80c0eb2U, 0x13ca28caef05ae30U,
  0xdc360ac9fdd6161cU, 0xc6103e1ae5fed4f6U, 0x40eacff2e0f6fd09U, 0xcfd90bed3132f5U,
  0xf3b8e534052710d4U, 0xfd518c851ec24e1U, 0x32fef303ddd00027U, 0xe92a35c7c3170fe6U,
  0x2f8f821fec147bbU, 0xf30c3dbcffd867e8U, 0xde2ddf9b33e63ccfU, 0x9c322b2dfdf6cb43U,
  0x6e9064af8c5c72aU, 0xea1c00defd2312dbU, 0xec536f1d0bd1733U, 0xdfc318f5025aa0ecU,
  0x4fd9afd8c5e0e0deU, 0xe0f10b2de03aaff4U, 0xd9d2aa09d41e2b04U, 0xfc022a19e411daebU,
  0x15121e04be29ccfaU, 0x38b90bcaf4bd021aU, 0x20b209eb19d60bf4U, 0xf11eae4620d6f40eU,
  0x14a903a918023033U, 0xe7d2e53629f2fe28U, 0x3dc9371c1fdc33aeU, 0x11f3bbec5a343edeU,
  0x618f63af5e6e809U, 0xbbf014f226e9e4dfU, 0xf3020806de91fe0dU, 0xd8a40b9cb1d9e7cbU,
  0xf00c2a3d12d1151fU, 0xef4ececdc817e245U, 0x21edf9dde6e70544U, 0xee10c625c33833d2U,
  0x5c071832c60e2ea7U, 0x49e5ffd62c310cafU, 0xc01ee0eec32d4faU, 0xf443d4ded427050dU,
  0x2fc2450233cf321cU, 0x477fdadb19044d14U, 0x2ae1db0160cc2510U, 0xf6313edf0bb5edf3U,
  0xb3bd580020e8374aU, 0xf0f9538cb1e21baU, 0x26e5b8d6cadabfb4U, 0xc1eddf71454093bU,
  0xea15d400cd2ad7dbU, 0xc61243eff6e302d4U, 0xac61c3213e4cef2U, 0x14060ce91ce1d8b6U,
  0x22ac3da0dddeb3cU, 0x17e0f6067c193c02U, 0x7e3fced2bb7b32bU, 0xb7f1ebf05aed0821U,
  0xf4f2dde225021e31U, 0x4c3ffaeb42ebc3dcU, 0xd21cdea2d427dcbeU, 0xf00c3cc40c3acbbfU,
  0x251fe50b0c30150cU, 0xa61f0aed13e948f5U, 0x2f2d0a2bec342910U, 0x32844c80a2b2614U,
  0x2a45efe1b3fa1716U, 0xdef52af11513e8ffU, 0xc610d0ed2ef6270cU, 0xa1f15202c4c4ca0U,
  0xfc1ad3f6f1f0f7fdU, 0x38411d29ce01b71aU, 0xfc23e854ede63710U, 0xd731fd21f415be0cU,
  0x2f1e4d43dbf1c3aU, 0x13e732f93744d4fbU, 0xeae601f7e1001404U, 0xfd12d6e6d52804baU,
  0xce04acf3f222120aU, 0x17f128161a06fd41U, 0xd62c3ff4e63e1ceeU, 0xa3148d819d50bf7U,
  0x21ec2228102bdff9U, 0x17ea0715e5bf1351U, 0xcbe3dadfe2db2205U, 0x2331d2efbee6f100U,
  0x140deee6fde70202U, 0x1fe02713cc22ab18U, 0x39b3f9da0e44dbc7U, 0x39ef151309fe04faU,
  0xe62dfc300304b901U, 0x390240100549fc3dU, 0x2c314042daafee06U, 0x1e3dbafbcaf9df03U,
  0x35cce11e0b0717c6U, 0xef1a1de0b9f61ef5U, 0xf2dc4ad0ec27d31aU, 0xcdf308ece9fbf6deU,
  0xf9e3122710e9d22eU, 0x1edfd318e0fbd137U, 0xc2aa33fe14d212f6U, 0x1efffcffd2c20910U,
  0x5b351f05e9e81320U, 0xe1f7c9dbdbc6e4c8U, 0xfafcf9f34725b4cbU, 0xf310eafa231c082aU,
  0x21d12e1eda2200e9U, 0xd115fe27caddc119U, 0xfde40ae9fdb6be0fU, 0x12edc8042fca16fbU,
  0xcec801c7d32010f6U, 0x1e43ad8043305U, 0x1630ebf3f1e4d504U, 0x2822c0fbbb171bfbU,
  0xccb420c309ef000fU, 0xfdf1dd09eb070201U, 0xc72305eaefdacbb7U, 0xf3c5ccd513d122d8U,
  0xf5edeac61bfa0a40U, 0xf7f128e91f3f2cfeU, 0x1849deef4a0b0d08U, 0x41e6eb0e17eafecbU,
  0x3e08000f4011c1e0U, 0x20210b092e02fb27U, 0xde26f7d3fa1f39e6U, 0xe3119fbd3d1c523U,
  0xdc160dd4ed2bceebU, 0xf5ffe70f271d07a8U, 0xf6f5f8f5ee30cbefU, 0xe61c3efd103046ecU,
  0xe1f8c8c90e07c9dfU, 0x1f3c05d3efb61cecU, 0xcaf9f9d3f9e547U, 0xd81eeb1b1c06f8baU,
  0xeec72402ed032941U, 0xb19dddcf8d2ecf3U, 0xa2b11ef17c6fc28U, 0xc3f51cdfcb0deef7U,
  0x746d7e762f111d2U, 0xe2f3fde6da860dcaU, 0xb7101b2ce505f2f8U, 0xe808f300e9eeff03U,
  0x26fbf7d8540df21eU, 0xdae12c30053a4ceaU, 0xc4f30cf60bbcfacdU, 0x65f0f0b729420d14U,
  0x12d9f8ee2d16f518U, 0xe1aaf0e72f1b31f6U, 0x10062f5b25f610e1U, 0xfc0cec0bf332f1faU,
  0x9cd0017f92af517U, 0xd604ed0e442e16a2U, 0xfefab05fc23bcfdU, 0x20c008d94b04ccfeU,
  0xd7d031fa18e3e4c3U, 0x8d209c306ec08e4U, 0xd511eff62ae9e81cU, 0x33ea3ccc09291008U,
  0xbaf2c5bc292692deU, 0xd909def1e5c8fae9U, 0xc509fbbc4bf2fff5U, 0x53370951390bfedfU,
  0x260bd5f8f818a4ebU, 0xe112fe560bdb2605U, 0x4aded9fa3ce2c80cU, 0xdddc4f372401d321U,
  0xdadbefa1e0dc3706U, 0xe71cb4b112ccd5dcU, 0x1f1f1a0d0729e4fbU, 0xfd09ec2cb5a6fd1bU,
  0x6d3cccf02e32e5fcU, 0x2413e1384fddf5b0U, 0x1a02e9f6c80bd4e3U, 0xe5351813591923ffU,
  0xf1cc34e9bf141926U, 0xedf51dc9b9d6b307U, 0xfaf2101a4917e61bU, 0x2df2311301382bbdU,
  0xdef611d3f01fdb0bU, 0x34eb5421ce07eddaU, 0x22f842f7e622f406U, 0x2de02afbef1cf1f0U,
  0xf7cb3408c0f09e31U, 0xe8f10cf72f33d9c4U, 0x28fdc732593f28e1U, 0x1ac89b02ff1f121dU,
  0x28fbccdf113c2d34U, 0x461fe42f265f38e7U, 0xea3def19f8ccd5e4U, 0xd4140143dfc52cdaU,
  0x4ebe0608cee7263cU, 0x19e419e913231211U, 0xead9fd2207fb22e8U, 0x4d96dbce84af81cU,
  0x263933d806a8e3c0U, 0x21d602d2e1ccf21aU, 0x7f1fc5b0bfa35d2U, 0x11c61bed0be8171bU,
  0x7f502925735317e5U, 0xfd0c5329241bf3c0U, 0xa3016ba2d54181aU, 0x8f3bdd10df1dfebU,
  0x26f50005f0e910cdU, 0xcbed0ee9e3e9ffabU, 0x12f612b825ed55c1U, 0xcddd3d2b131d0eeU,
  0xcfe30f1f3b8cbadU, 0xdadaeddf4e41f532U, 0xf70bff09d437124eU, 0xd51ccff7d52206d0U,
  0x112cf1b2fddc1548U, 0x2fd712ffbe1e2629U, 0x38042dfde5f6e703U, 0x16d4fce02aca33d6U,
  0xeb4e0a37f8fefbeeU, 0xdec4eadf2beb1445U, 0x34f0da189b323b19U, 0x5232515b514fedfU,
  0x5a5b5eee333451bU, 0xbffe090a07bceed3U, 0xe124d3f0e203190dU, 0xe9dde2a552fd0dd2U,
  0xa4033021fe34cfdeU, 0xc829ff1d0f09de02U, 0xfdd61e04fffa2dd3U, 0x17bbb0b51ec2a004U,
  0xe1f83c033dc5efd0U, 0xd71e4dffefc49b15U, 0x2baf17352d4ac332U, 0xff0de6f117e0e126U,
  0x60e5603707f8d203U, 0xfead3d035c1f02f7U, 0x4542f84ffdc9fd2aU, 0x1512f6310de407bbU,
  0xc0eae3fb2b172657U, 0xdba824e639220d0cU, 0x47e4ba2ff83c482eU, 0x273331e9d831baf2U,
  0xd8200e37fd031d08U, 0x23c00c27331cc301U, 0xf10f09f6d824f2c7U, 0xcdecfda410f7f720U,
  0x35f0ff1b2709e72cU, 0x28e1260e2e1fd5f8U, 0x6619f2f6f0f6fb1bU, 0x29d5dc0208cc1c3bU,
  0xad07d2d7ef192a00U, 0xfc0df8202de6a126U, 0xbfedd0008a231719U, 0xff36103907fd4b0eU,
  0x1019dfe0fffef230U, 0xd1f0cbe3beeee519U, 0xb0fe0ceddccc041aU, 0xfbc0552ad83221f5U,
  0xdde6fab9ff1c3f3bU, 0x4d219be7fdfe0ae7U, 0x34bd0138da010aa2U, 0xffff9e82ed91a08U,
  0x52f1d4ebbdc7eeebU, 0xb7e317e5341636d0U, 0x19dcf5ba1fad3ba5U, 0x4fe508c7e108ee21U,
  0x1f322bf63c14dd21U, 0xdadc5fe3ee3d32d5U, 0xe8e6a5e128f50b0aU, 0xaad5fd0fbd1313afU,
  0xf1193600d0b6faeeU, 0xbb2713bb1d14e1e7U, 0xbb8f1bb21d00720U, 0xc9e1d5e3f8170ad7U,
  0xef5f9b71a039fc9U, 0x922cff54d39c7U, 0x2f0a321def1cc313U, 0xfbe0c9df132ab669U,
  0x13c5c60306dfd420U, 0x124a5a05212bb513U, 0xe6f1a0a4efc9f725U, 0xc4a309ead7d7f721U,
  0x41136a2d080718a4U, 0x3019dc0bca6711fcU, 0x2ccc13a749f0e2b2U, 0x47a63012eb36f629U,
  0x2ddae52726ec30U, 0x293b30e53cfc09c3U, 0xe612362e11a2dfe1U, 0x522baf3f29163139U,
  0xb14ec1e0491adbd6U, 0xec162f0d06df43d3U, 0xdfdb402705fec040U, 0xaef6efca0bdf56e8U,
  0xfbb9f91bde1af836U, 0x4d1946ebe9d31fe1U, 0xb9abb61dd9cab21fU, 0xbefd1e1bb2afff1bU,
  0x432551f3d1d63715U, 0xf2be28d7d4c71d99U, 0xcd2a09f1da07d9c5U, 0xf7da2302f4f6375bU,
  0x355abe36f6638603U, 0x49bb206d2f16df1aU, 0xf6ecbb33a46ec3d3U, 0x6de8135aed98d8c9U,
  0x22f0063e0f1329cbU, 0xce0fc1d69cf2ba71U, 0xdd0f39be0e3c12d7U, 0xe04e0ce95711f2e6U,
  0xcef21e3a2f684518U, 0x8abc7f00cce272dU, 0xe42f7fd734fde041U, 0xf3ddff03640716f7U,
  0xadfb51f231c7383cU, 0x2511b6ddadd8fa05U, 0xebedf31e1f7709b7U, 0x68eb8bd6ee04e7e7U,
  0xcb6516eb26e24243U, 0x60b04d5f318cbcfU, 0x310a3cb910f8f418U, 0xdcc81a78bcefd402U,
  0xdbc046b8fadc58eeU, 0x47f41ed4d230e947U, 0xea99311cdd1c3d1eU, 0xdbfacc432c8bff31U,
  0x2e0e22172beff5e4U, 0xbc999ae41c532cafU, 0x9633e2104ea811b3U, 0x10e145fdd7e528d8U,
  0xec2d1d59ad12ff40U, 0xdacb3fbe40d1f206U, 0x379b44d7555bdfcbU, 0x61c3ea1866ec13c5U,
  0xd018debe49caee41U, 0xee381f160be22a21U, 0x1c22e1b91ce82200U, 0xbf022e100eeeaf11U,
  0xaf7e3e104f9fc4cU, 0x2e2ff09c11b051eU, 0xbce8bc2d15d5cd38U, 0x3002503042ed8c8U,
  0xe3d5e60912d1eaeeU, 0xefe5ee46ddc21e1dU, 0x4de3f9d3dde3e8ecU, 0xdff80039b52bc7e0U,
  0xcd7fb10f8e2efU, 0x22280c1706db0003U, 0xdec9de083f1d1719U, 0xf106cef8fee4fd1bU,
  0xe7fed402d1f0f7ffU, 0x3704ded01ce0031eU, 0xfbdd0a0ccfd5e8e4U, 0x1ddfd705202d43f9U,
  0x35f8011224300924U, 0x18e7c12d2a1fded6U, 0x14faecee1dc12702U, 0x260bbefb24df29e4U,
  0x2ff2e6e1e0f4ea1eU, 0xcec31c3d101c61aU, 0x46e1f0f510d2071bU, 0xed8dc0a251effd6U,
  0x1252cf5fac30fe7U, 0xe6e4164af31e2010U, 0xe4f2eceff5c9d4e2U, 0xd213d91efc45c825U,
  0xf6214725fbded906U, 0x2a15c3da35ca3129U, 0x5213afef1a90ca9U, 0xe4f61ee7e2f2dc2cU,
  0xd0cd1113c8fae00aU, 0xf9d7fa053309e2a9U, 0x43e723eb14f14463U, 0xffcfcae4e533eef5U,
  0xffe03413e4b5003bU, 0xba2455bf14f9179dU, 0xd0f1cbe6f60a26e2U, 0x261ffae10bccc8f8U,
  0x19f3f353b7e10a0aU, 0x2a03dbfe3810fa26U, 0x2f9f1c0005c61c1aU, 0x2b0c0465062def0bU,
  0x41c3db0df045f2f1U, 0x18c7ba3bca0960acU, 0xdbd13af2eae80d08U, 0xf8fcccdc18ed21dcU,
  0xc74e103bf8d8e1deU, 0xd308f724dfe4f8efU, 0xb734030d06ccb30bU, 0x191d03ccd5fdb843U,
  0xfdd9064519ddfaf7U, 0xe845c6eefd21e1feU, 0xeeecadfce35fbe7U, 0xd211e9f8221e14e0U,
  0x120818d8152116ecU, 0x63061110533e3021U, 0xebeccbf900ffdcefU, 0xd7f305f0c338d9fcU,
  0xaddc8bd39d528fbU, 0x1bb5192b181ec918U, 0xfccac129dbdef919U, 0x14c25843e8052000U,
  0x15ceb01c39f90610U, 0xa7a259f29ad92316U, 0x2bbbf105163a3bbaU, 0xe96953cb3428dcdeU,
  0x40de3a345f22ecf0U, 0xd520cd0424c8d5d2U, 0x27b348ae34b7226aU, 0xda33586c40f51667U,
  0x9f009d907fc45bcU, 0x5143d9f2a2ecd606U, 0xeef528e3313336b0U, 0xcf00ceb8304d4707U,
  0xe866101e05ec0ffdU, 0xea0303ba0a1f39baU, 0xfc357fc71593d601U, 0xebe41a4ef116ca50U,
  0x11dbe8e503b71ee6U, 0x531727c20d25e04dU, 0xdb841eab7fe0a27U, 0xaf4dcb0012d54139U,
  0x10aad51fd025a93aU, 0xf8cec434e7581ae2U, 0x9421e50ac59920f1U, 0x230a0ef1abff2134U,
  0x945ceb5ec46f0f4U, 0x22e373e8324437ecU, 0xd5913f890e2501cdU, 0xd08eff0467fb31ecU,
  0xc0ffe1db250a0a22U, 0xf8811a131014fc22U, 0x3de8290e49dffedcU, 0xceef2ed329dd210aU,
  0x2204dad5e317f6caU, 0xb3363fdbf9bcecf6U, 0x16430be90233de07U, 0x2bfcd6cb02aae6fcU,
  0x29e506aff8fbd0e5U, 0xddf7b6ec4601dc08U, 0xc2c0c8f5fef9bcffU, 0xcb141bc516f314eaU,
  0x3a0704f3ad0fdbfbU, 0x38e7311ff326e712U, 0x25e71702f100f909U, 0xf1eb1227cff7070eU,
  0xdc7fae1e10ad808U, 0xbe00d12d04b52deU, 0xfa3ad4c3ec0c1a2aU, 0xe213d3e7f4f2362cU,
  0xf1dd0529c3ccc5e6U, 0x1c1ab2e320f1d012U, 0xea31bcefffb4e0efU, 0xfa2e2de2db22ecU,
  0xebc22712bee2ee02U, 0x1638dffa1609de0fU, 0x23d53426020cd0ecU, 0x10f1e647e0ec091fU,
  0xd8ddcbdb3bd3f4e5U, 0x252f43634de090aU, 0xe11b0a0b17d0c726U, 0xbefdd4bddcfef70eU,
  0xaf1023104124cddU, 0xdf37facd03df042fU, 0xebc94407f8f24614U, 0x12ed0010f10b0ad7U,
  0xc302df46001120d8U, 0x1dcfe8c9e3e12c08U, 0x1b0c4701d2d3c603U, 0xd41ffd27fc15d805U,
  0xb6cde1e7f81832cbU, 0xe513ee21e3e4a806U, 0xda00dd0a24fd3fd7U, 0xc6da02f241fb1716U,
  0x1e1dc5cc13dc3913U, 0x26e21d11c139f2c6U, 0xfff1ae8e410c437U, 0xa06c7050c3d2b37U,
  0x2707caf0500af3e0U, 0xf30140ee0113cd0fU, 0x1537da120d2334f3U, 0x2df2010c24f2cbf2U,
  0x90dfcbd1815cc36U, 0x30011600f816f018U, 0x5afb3cefe3fdeb08U, 0xcfd14e3ec0450f10U,
  0xd754351f02f101eeU, 0x553bbf131a1b2c28U, 0xf2ffe3d5d4121cd7U, 0xf22c0412c9ecfddcU,
  0x3dcc4284eee56d8U, 0x111cc4af0ef8fccfU, 0xe640100ef4f0c4f5U, 0x241dfedff3f62f56U,
  0xfe18d100d748144aU, 0x202c2f1cee710930U, 0x1cf1fad4e60c0718U, 0xcbc9edec150317f0U,
  0x5229f3becf6af8f9U, 0xfa1d422436c5a93eU, 0xe3f8ca4d4704fb4bU, 0xeed115d4b053b725U,
  0xfa26dbbccbf4f6fdU, 0x1906d6353a0f37cbU, 0xee3ce131f9031834U, 0xfbe2f808fc49491dU,
  0x28e749dce105cee3U, 0xb1d3e305dfc0060cU, 0x2a39cad85340d6c1U, 0xfaafbb4015c99b12U,
  0xecd2fdda2f21e6ecU, 0x37ce09f841430403U, 0x18023c461cc6bffbU, 0xd11bcc302636b9edU,
  0xfe3e71b4445faeeU, 0xf92dd1dbe13f121eU, 0xd929e222f2aff62cU, 0x2d165106c2e423d2U,
  0x15c32afbc4e0cbcbU, 0xa07fc1022072570U, 0x29b82cf33428d438U, 0x28e42815284b1e18U,
  0xb1fea7d5f40c13fcU, 0xa6481a1fe0d8c1f4U, 0x45053909d222ddbcU, 0xe6c40ec52111c55dU,
  0xd7812d0bee2a2cfcU, 0xb5ff001e16fcd72cU, 0xc70c1992f807dfffU, 0xe0a9c6142af709f0U,
  0xd0e8d6e6dbee1f23U, 0x607133123e5cefbU, 0x70ff212c2f6d8d0U, 0xe80031060ae11526U,
  0xff573750cefa1b16U, 0xe63b18f3d8e6edf8U, 0xfa07d8add34b175cU, 0xcd1cf9f9e03305ecU,
  0xd0ed1bfa22d2e3f0U, 0x72ea480a51ead93dU, 0xd032f79926da25cdU, 0x22b8b10f46f9fbdcU,
  0xe07b9330c2fe807U, 0x643f0f83a350519U, 0xfb132f380b18e6caU, 0x34dedbd900ff25f0U,
  0x32f0fee1e8ea294aU, 0xdfddcf138f856b9U, 0x23ebdba6270ecf30U, 0xb192719f73ae9faU,
  0xfff9a017df3242f6U, 0x714dbdc914095cd9U, 0x1116e1c8f50bb648U, 0x5101fbb5281a39e8U,
  0x13fcdb3a5612f5fdU, 0x901130debe7e4e6U, 0xd5c40933def65aceU, 0xcd4da6fc0e56250eU,
  0xba2cc710c902f7e4U, 0x39b326f5da0ed8ecU, 0xebff264ee72a2806U, 0xfa2cb81ed6eee6dbU,
  0x1b2304dd48e7d9beU, 0x17e50411fd082e33U, 0xfe01d71afdc4cdd3U, 0x430f0b6ff211c00U,
  0xf2eff03221d0e17U, 0x3a03fc23320122eeU, 0x8efe2d5d3ee0309U, 0xe52ef5cfd4322302U,
  0xd6e01f141e123f2aU, 0x3609492b2dd5c916U, 0x20fbf1ebc32aecf2U, 0xfbd825b92624bdf2U,
  0xc14df20f6f904fdU, 0xf7d81c0edf07df26U, 0x3decb0c1cbf3f430U, 0xce1debf2edf73de5U,
  0xfa0dbfcefa280ffaU, 0xef0a3101ecde2a56U, 0x25f01fc918f20136U, 0xcaf3d2e62c2ddce4U,
  0x10ec1bf3db3d084fU, 0x81100f7153c20ebU, 0x1131fcd715c202efU, 0xee1f28bce3dbfc07U,
  0x381c3b231b22fc15U, 0xcef704ca28e7e0ebU, 0x2ae1d2d82d031ff0U, 0xeecdfa3500e33524U,
  0xfc15deffd10add2dU, 0x32202937d20b1cf2U, 0x15f5040c083b0b1dU, 0x14192a1bf3e1f4c9U,
  0x13d20a13cd372e24U, 0x3e020017d8080944U, 0xcb32d5ed24f30eebU, 0x2dd031e6f431d20aU,
  0xea13ea1c01120affU, 0xffff252e2df03c07U, 0xd2e30a190203f82dU, 0x9d71bf406de1fc4U,
  0xd8fffbdef5c7f538U, 0xa11fbe7f7f9c3dfU, 0xe020d4dc052608ecU, 0xfe29d807f6062bccU,
  0xebed0ef904d20718U, 0xcffeaf5f703e729U, 0xf603031aeee9fa34U, 0x1f0e141de7f228f1U,
  0x3606f0e2d4ff3019U, 0x2b1644f9f4f62630U, 0x1c0ef3373b250df6U, 0xf1c8d40d11082c02U,
  0xbddf2d4070b0410U, 0xd0ce02f63cdb0431U, 0xcd17eb12f109d2efU, 0xfbc210ed2d1907caU,
  0xdcc1f0dd2faf519U, 0xe106d81cc2d0c0daU, 0x14f40fe4fa3424daU, 0xebeffdeb11332017U,
  0x4d03edf5fade3fceU, 0x4424efd45bf20f21U, 0xec174b53e2ad3fb9U, 0x80908cbe5f4fafdU,
  0xdbb075111e33deaU, 0xdaca19bab40946f4U, 0xfe9d1ddef2000ccfU, 0xec441ff2397ff31bU,
  0xce07dde0fae307f6U, 0xd7e22dfb2707f8e7U, 0xfdc2c9e7fcddefefU, 0xed3451f34fd5e40fU,
  0x16fdb7cb4bc80108U, 0x15d3a927e22d0c06U, 0xfdfb473341cf0511U, 0xeedd0aabed374b03U,
  0x22e8e6df3b071c2bU, 0xff3ef73ddc0817dfU, 0xc003b5f3c10c03eeU, 0xe02bfe2652d7d1d4U,
  0xe61e1ee33a171319U, 0x190268dff5ee3ac6U, 0x501a0725e6e71aecU, 0x16f722b0e761e02bU,
  0x11e33ff2f0012603U, 0x501d05f324e6ec0fU, 0xf17dd0fe0e34cc3U, 0x1f05d3bcd4fff527U,
  0xfa0428f40166de9bU, 0xfb2932ec04f1eb1dU, 0x2e0f612d5b13627U, 0xffb1407062af8d7U,
  0x2116d5dbc339c408U, 0x53cefe060fede0fdU, 0xf6d5c4e9a02c05e2U, 0xeb07e00df8e6d958U,
  0xf6e0f603fbdc10e9U, 0x2b1b3513b9dab6f4U, 0xe61408b817850136U, 0xf7e417300b1246eeU,
  0xf32c37eac80ae729U, 0x2812bdeefafe3100U, 0x9bceef00ee27dcb8U, 0x196b23314ef2cd1aU,
  0xf8cde83c05f7e82bU, 0x20fb16c91ee3f2e3U, 0x12f9dfdc793e2fd4U, 0x1af4ba263ac32adcU,
  0x26ced222ba063a15U, 0x91fb132df5331d8U, 0xb520efbcc33cc3fU, 0xfa3b270cfd2f4bfaU,
  0x5127250c070d26e3U, 0xd931c6081ff0fd0bU, 0x221abb43cee237fbU, 0xce02ee3c6ebbad2aU,
  0xf2af28cb38659138U, 0x23f70fe327410dc8U, 0x1f72efe0aeed40fU, 0x8f325e3fccfe0e6U,
  0xb629f53bc4d5ff11U, 0x1a4ffef31ff7640dU, 0x6cbe5ff3a27232eU, 0x451906fd27cf1529U,
  0xc31d1af6f7fd05d0U, 0xbec1d80106cbda13U, 0x7be06c829f4f9d1U, 0xb10de3023b2117e3U,
  0xfcd3eed51c0a01c6U, 0xe808fe1609f431d1U, 0x270905d5fee5d81fU, 0xfc29e11201df005eU,
  0xc9cb0badb04300c0U, 0x2314ca383a1004b5U, 0xba20000adcd4b523U, 0xe84b17c720f02fc2U,
  0xe8201ae3df0bf70dU, 0xf1eafa15f12749c4U, 0x2f6c31501f3cd22U, 0xe4023035ef1e2bbeU,
  0xe00db2f1e12aeadaU, 0x1ef545f50fe0050cU, 0xd31920eee3e3e2deU, 0x23f400faffe3f2f3U,
  0xb606eb250cfabcccU, 0xd6fddb4927fa1fd6U, 0xaeab411072eddd6U, 0x4f9380ee9eb4ae6U,
  0xdcf4f401ccf12cd7U, 0x39f038c1b31bd7d7U, 0xe0e4d8c9f3eafc1eU, 0x21ff2c2b0efe22bbU,
  0xf4f818f526b308feU, 0x2b301827e0f70818U, 0x50adcfebbd51a0dU, 0x1ee6f3ebc19cdd31U,
  0x6c6c5f07c342745U, 0xb6ad16df0a0d0e14U, 0xb1f13525104050f8U, 0x8d209f2feedbe12U,
  0xf82fa9182d18ce0fU, 0x17ae26230beafb28U, 0xe9fa16a008114fa5U, 0x6139b71bf537f71fU,
  0xe2c6202d080840e1U, 0xafe2a22d13210e1U, 0x424935bde8030bc8U, 0x1de5d5062e62e640U,
  0x9cd2c957f74a2ff6U, 0x41fd13204a43b60bU, 0x7664d907d240f47fU, 0x11daccad471dcc10U,
  0x2cdfcb36290ff1dbU, 0x311aeeb4d1beec01U, 0xf1e4f4af2411fd47U, 0x2e221be0e9e0ff0fU,
  0xe615eae5f021fb0dU, 0xe71a4b0b3e0db0d5U, 0xb2cfc9f10fe18d4U, 0x2558a2b25bd513d8U,
  0x29bc2fca1920bb3aU, 0xfde104c3fc3548c5U, 0x2109fcecfbd1edccU, 0x6012f69e509febb2U,
  0x5443f5163232c8c0U, 0xeb46e3fcfb0525e6U, 0xdced8b81d0f064aU, 0x9cde1c35f3f7e1daU,
  0x16ca10e620e2dcefU, 0xe72ae5d1c89eebe2U, 0x51bc221d90b1bf7U, 0xad7fc262fe3e1c9U,
  0xe820e9ff581ce0faU, 0x59c54ae10a2bdb6bU, 0x5b2de2cf4bc19c2U, 0xf51305293946d8b4U,
  0xe90dcfcadb55c6aeU, 0x4e4f12616ebf137U, 0xe7d1f208cb4ed925U, 0xc328f6cef2f504c3U,
  0xf2a3841eee60b3bU, 0x272434d31234ea12U, 0x38482df21adbad17U, 0x7c7cfbf5c03b905U,
  0x32ce1e4edd8e65bU, 0x153fcef2f706ddU, 0xc2ffb5bce7182415U, 0x34e9df151afbdac6U,
  0xe806f33242505e16U, 0xe33e15fce6b4dc13U, 0xf20913bdaa123d5bU, 0x21d70df9df1d99U,
  0xdbdf140df70ef256U, 0xbf3aa91cd85fddd7U, 0xcd1ae2c038dec9c3U, 0xf50aeea90bd01515U,
  0x112ec91c350611d9U, 0xed32b30b2724190bU, 0xc7df2edd0c33f730U, 0xbdc73a1122332d34U,
  0x3a0203fdbb0b2352U, 0x2dcbf9fb043f351fU, 0x1303f4f71a14fbfbU, 0xaa1ff62734f6bde9U,
  0xd7ab1d5dbe2908d2U, 0xe407fbf4e41202e3U, 0x62e3cde0a925262aU, 0xbe6754a6de3ebf6dU,
  0xc7c9e075b9434a39U, 0xddd50f08c7122b84U, 0x68bce61bf6d3567bU, 0xce0dd2d0303f62cU,
  0xd1deec64e6d5ceecU, 0x552eff3509c5dc24U, 0x17c1bb3f03c7309eU, 0xf1e8836ee452a137U,
  0x2016e2240f3dcde4U, 0xf9edf294ccf1f2ecU, 0xc7e36a1609cdea28U, 0x54ed2beae6089115U,
  0xf52dfea545a34044U, 0x330420f9e0262900U, 0xff9350c8e60b00f8U, 0xd444221baa6e073dU,
  0xfed5f3a50afb46U, 0x35eeaedbffd23c24U, 0xb4601db100a0d7c6U, 0xeee26d8fcaf2f19U,
  0x23070054ff3a0dfeU, 0xddce20b1a1d5e5beU, 0xece8fd3deaffb9dbU, 0xef1a553ac329fce3U,
  0xc607201abe032e9bU, 0x378fc2cde908f632U, 0x3eeba5af1c2cee20U, 0xd52720e50cbaecf6U,
  0xf1835ea2b25f31aU, 0xe341e140cbed11bbU, 0xe5e1d6e0e0020930U, 0xff0c0027a8b5c668U,
  0xbbf5bbc2e2270a13U, 0xadd1fefb10cbfddcU, 0xedc3115ffe92cf22U, 0x213d76c00adaffddU,
  0xa91802135225fb33U, 0x3b309e341e2511faU, 0xa1c6bb4e0bced845U, 0xfbea16222b962926U,
  0x264adfe1efaf81cdU, 0x20671d0dece1eb6aU, 0xd3353439cfea2250U, 0x76dc08c1251cdf32U,
  0xed3b1ae648a42250U, 0x9bea99fdf5ec1be2U, 0xac04c7f16b0bc111U, 0x421af8cfb9100907U,
  0x1e0d8af1c20a4017U, 0xc734ee4c1d137c25U, 0x434d7b7e1c3ae26U, 0xea25db3018f7dffbU,
  0xd30761cdcb0bdf41U, 0x4001c23db1abd6e8U, 0xfeefdb43fb3b1244U, 0x181d0222a296c0f6U,
  0x50d78ff3d4c0d2edU, 0x14ff53fc2129ce39U, 0x95fc0dbbbb106a03U, 0xf320efd4cab89ae9U,
  0xf60eb358bffd3bd7U, 0xc3edea58d8b4180cU, 0xe0080fd2d3b82e70U, 0xf2225812101e15e2U,
  0x24ebbbada29630ecU, 0x5ee100302f31bfeU, 0xe4f8b33b16e3e3c4U, 0xf8e8f21b090e0b13U,
  0x538c03a131407d7U, 0x41f9d1e9d6d3bbccU, 0x43f2c1bc37093417U, 0xeca0d6ca3d120a0fU,
  0x2eb4f301da4c1da3U, 0xdc45ef3dbf24d7e9U, 0x2c3f256bc15ecfdeU, 0x4802bb0f081508b5U,
  0xe94708ed3417a727U, 0xfe0a484e20e53bc7U, 0x1324360b03bdb7d0U, 0xae434f42221a00bU,
  0x9f02c021663ce64aU, 0x5c0b03bf13c41937U, 0xda11f5262cc1fa0fU, 0xb8b4f21cf4ca48edU,
  0xffc85d51c6e7e9eaU, 0x71ef0c1181b2ef4U, 0x2c29042feff103f6U, 0xf622ec121033d2f9U,
  0x5546cef1a317521bU, 0x1ebb032feff02e4cU, 0xfd19c02ee91feb15U, 0xe4de4b77b4dc0bd6U,
  0x60e181132402ae3U, 0x3e46f712fce603e0U, 0x28e6d111d02b00e8U, 0x430e5cbd8f7b854U,
  0xc14c39e9cacd38feU, 0xdff6d510fc0040c9U, 0x36cd4e4514330e20U, 0x2e4d11f91ce934f5U,
  0xb6e840c709182110U, 0x1a2f0d2be517a5f4U, 0xa20ed7eb25390b51U, 0xc71f29003c06cb4cU,
  0x16443ee4cee12250U, 0xe338cd27c9f5dff1U, 0xc5e60cda00dcf70dU, 0xfd1af42af10f0cc3U,
  0xd16fdbff3143712U, 0x33e9a0ed06391f1dU, 0xda07baf01b26faf3U, 0xed15de03300f04f8U,
  0x80fcd04d8e72604U, 0xcae8e73d610a3f03U, 0xd627dafbf3d841d0U, 0xeafed6a2db8d29cfU,
  0xf10afefb0e4f192aU, 0xe11ad4fffd2e09c2U, 0x1dd2fd1742401e16U, 0xecf00ad7d3effd01U,
  0x4869bafcd41f11c5U, 0x3a6d6adb223279f7U, 0x1010e814d3dd49f8U, 0xa5d84a3fbcbf01f8U,
  0x16e0d973270f0439U, 0xe6588d14e6a1e459U, 0xebe7fb361867adbeU, 0x963e38c7fa7ad235U,
  0x1eedaef2e0e411e4U, 0x1be53f3f0057eb17U, 0x7be9f0ecd2231a09U, 0xef2c104af5f3422eU,
  0xd651efc5f3fe86b3U, 0xdacf28e3cf922075U, 0xb7e61b1f6bfa01deU, 0xb60aab290924f041U,
  0xd909fda31603fe4bU, 0x481fe0e8f325dc0fU, 0xe7e4a8bfeecee9e6U, 0x91434042d946a313U,
  0x3e10393337365312U, 0xd84ad209d2173040U, 0xf6e40ef71eed3d16U, 0x1124368d103dc719U,
  0xe0c614e6f9053230U, 0xd543ecabce01c123U, 0xc84cb7bd18e259b8U, 0xfd311dbafa0e04d5U,
  0x4572de3d62ad0dfU, 0xe3487f09dd291be3U, 0x1e924953fe9a3833U, 0xcdde36e32b0b0646U,
  0x9df24e3b20ded710U, 0xd9c8d3fc50c4f910U, 0x21dc411713d6c6bdU, 0xdee3a2c91e4d3204U,
  0xbe25fe1b06a7cdd5U, 0x1f8e19ebf1670102U, 0xf7c238bf1fa2d134U, 0xcf1fd44cc9e45a07U,
  0xd029462dee26e01bU, 0x95a12dc0314c1fbU, 0xf886b6c8c807df14U, 0xa0251f1508c9b1a6U,
  0xda71b27e8ca39bdU, 0x324613a60e8382dU, 0x45baccfce2f7fc1eU, 0x20ca41edf80b172cU,
  0x4535befdf404d9bbU, 0xecea3bf9cfcf003eU, 0x1020c41cd43730f5U, 0xdf45fae7cf3abed0U,
  0xe4cb24c55ea921d6U, 0xc5ace7fecec23319U, 0x12001cfe6142bbe5U, 0xf21ad7edd324ebe4U,
  0x23af1be1cb501c3bU, 0x24575317e9f51d1bU, 0x1445cdd0fcffc2f9U, 0xdafb151ea41f0ee5U,
  0xc3462ff4601007caU, 0xd3d7a53d070a2c0cU, 0xb736c80fc227e107U, 0xd1ddf864eb14eb4cU,
  0xe845bc0f1900b350U, 0xfaddf22fd2301547U, 0x44e0082c0056efc9U, 0x4ae6d643b4f007f3U,
  0xfbec060437e3323dU, 0x23f9c7f7e7fbbf5aU, 0xdb2d2ce04ed45df7U, 0x313a02ef3c1ef6ecU,
  0xee81621d729fb1aU, 0xfaba290444264949U, 0x2fb5929e2dcd519U, 0xefd4e4253243de12U,
  0xf7e2fef1ebdd16f3U, 0x6e2dede3aaf0a2aU, 0xf636c3cf0e16dbc9U, 0x2220e3e7f2d4afe2U,
  0xb82959cde1eaf614U, 0x41edc8d7cacbcc38U, 0xf4ff321fca18da18U, 0xd9ad32faf5ef05d9U,
  0xd70a3ef238112329U, 0x1dff41e50119ef34U, 0xff0621fb483b2fe9U, 0xe42ab1404c734dcU,
  0x2f1e1d031d2a280dU, 0xcc03d401153d1415U, 0xd60517d843e807c5U, 0x14b609f53ed41cf9U,
  0xf42ccffccd26b70cU, 0x9ec1edca1cc825b6U, 0xf0ca2a04012eecdeU, 0x4cce4113fcf62c1eU,
  0xbb933091c272aU, 0x573c5c11f2f332d6U, 0x13edafe0bbfb3b05U, 0xa7f5c203eadcbdfcU,
  0xea0cd252013d17e6U, 0xd44df2fec9e9b7f9U, 0xc2e8bf2e120b000fU, 0xf0352937500fcfdaU,
  0xe815e3fb1ee706efU, 0xf2f513ef3cfef022U, 0xd3fdf51cd326bee6U, 0x22191b24db3e17dfU,
  0x220ac61a2aea1ffdU, 0xe7e7d5d8d5c1c9deU, 0x28abf4e23af5d228U, 0xd5bde704e9cef5e3U,
  0x3f4eaba070304efU, 0x1ff6df0c2d01d3f7U, 0x20250732ee9bede1U, 0x1209f42118ddfe08U,
  0x1667f62d25d819ffU, 0x804043c2b1ddbd6U, 0xcc04f402faf4f75cU, 0xaff2fb21c0d9602U,
  0xe6e91e3506f51c05U, 0xd603f300fe0b1244U, 0xa806c633031a0124U, 0xd54ad80b1f0824e9U,
  0x1aea131309fde109U, 0x341f31f2d11fbd4U, 0x261c331ada1e01edU, 0xe1f0f3efd2bc46U,
  0xf1ed14f8fd1951f4U, 0x25be0ce0e12a4955U, 0x320fd9412ae7eaddU, 0xf626e0fb1131e7d8U,
