/**
  ******************************************************************************
  * @file    network_ecblobs.h
  * @brief   NN Code autogenerated DO NOT MODIFY IT
  ******************************************************************************
  * @attention
  *
  * Copyright (c) 2024 STMicroelectronics.
  * All rights reserved.
  *
  * This software is licensed under terms that can be found in the LICENSE file
  * in the root directory of this software component.
  * If no LICENSE file comes with this software, it is provided AS-IS.
  *
  ******************************************************************************
  */


#ifdef __cplusplus
extern "C" {
#endif

#include "ll_aton_caches_interface.h"

#include <string.h>

#if !defined(ECBLOB_CONST_SECTION)
#define ECBLOB_CONST_SECTION /* Empty */
#endif
#if !defined(ECBLOB_RUNTIME_SECTION)
#define ECBLOB_RUNTIME_SECTION /* Empty */
#endif

ECBLOB_CONST_SECTION
// _ec_blob_network_1 blob binary, aligned to the cache line size (equal to 64 bytes)
__attribute__((aligned(64)))
static const uint64_t _ec_blob_network_1[1624] =
{
  0x00000018ecbf0050UL, 0x0000000000000000UL, 0x0000000000000048UL, 0x0000002800000001UL,
  0x0000001000000006UL, 0x000002e2000002d4UL, 0x000006d7000006c9UL, 0x00000b8c00000b7eUL,
  0x0000003249505378UL, 0x00000c91ca057a7aUL, 0x0000005d0000003dUL, 0x30007c00008020e1UL,
  0x300200430008c100UL, 0x00000020342e0000UL, 0x00000000300500c3UL, 0x0000000000000020UL,
  0x0000002400000000UL, 0x300c004200100000UL, 0x0000000700000006UL, 0x00000100300d0043UL,
  0x30110043342e203fUL, 0x0000000000000000UL, 0x18007c0000802021UL, 0x1802012300080008UL,
  0x00200001342e2000UL, 0x0000010001000001UL, 0x0000010000000001UL, 0x0000002400002000UL,
  0x180c004200100000UL, 0x0000000700000006UL, 0x00000100180d0043UL, 0x18110043342e403fUL,
  0x0000000000000000UL, 0x0000000f10037c00UL, 0x0000000110007c00UL, 0x3000200118002001UL,
  0x0000006418007fe4UL, 0x10007c0000000000UL, 0x1000042400000002UL, 0x0000000000000064UL,
  0x4000000010007c00UL, 0x0000006410007bc4UL, 0x10037c0000000000UL, 0x18007c0000000000UL,
  0x1800042400000002UL, 0x0000000000000064UL, 0x4000000018007c00UL, 0x0000006418007bc4UL,
  0x0080002100000000UL, 0x0000000230007c00UL, 0x0000006430000424UL, 0x30007c0000000000UL,
  0x30007bc440000000UL, 0x0000000000000064UL, 0x0000007d008000e1UL, 0x3c007c0000802141UL,
  0x3c02012300000350UL, 0x0000110508100103UL, 0x0001020010b74006UL, 0xffff000001ff0000UL,
  0x0003010400070020UL, 0x3c0c004300000000UL, 0x0000000000fffff4UL, 0x40007c0000802161UL,
  0x400200e300000040UL, 0x0000110508100103UL, 0x0001020010b74000UL, 0xffff000001ff0000UL,
  0x400a7c00000f0820UL, 0x400c004300000000UL, 0x0000000000fffff4UL, 0x44007c0000802181UL,
  0x440200e300000040UL, 0x0000110508100103UL, 0x0001020010b74000UL, 0xffff000001ff0000UL,
  0x440a7c0000171020UL, 0x440c004300000000UL, 0x0000000000fffff4UL, 0x48007c00008021a1UL,
  0x480200e300000040UL, 0x0000110508100103UL, 0x0001020010a34600UL, 0xffff000001ff0000UL,
  0x480a7c00001f1820UL, 0x480c004300000000UL, 0x0000000000fffff4UL, 0x5c00004200802241UL,
  0x156000fc08000000UL, 0x000900005c020123UL, 0x0000000700000000UL, 0x00001fff000000ffUL,
  0x0000000000000000UL, 0x00000001040403f9UL, 0x000000005c0c0043UL, 0x5c0b7c0020422042UL,
  0x5d00400300000001UL, 0x00004fe0fe021971UL, 0x00001c50fdff0b2bUL, 0x00007e7efe010eebUL,
  0x00005c40fdfc1265UL, 0x0000d994fe0114ebUL, 0x00005ec2fdff3c59UL, 0x0000fca4fdfe0e0eUL,
  0x0000ea4dfe003df7UL, 0x0000cee3fdff1562UL, 0x00007552fdfe145fUL, 0x00003192fdff11daUL,
  0x00006b28fdff1371UL, 0x00006136fe0212b8UL, 0x00007c38fdfd1495UL, 0x0000c06efe02148cUL,
  0x00005b0ffdfc0eb1UL, 0x00001de6fdfd0faeUL, 0x0000b44cfe021464UL, 0x0000ee4efdfc0fc6UL,
  0x000027a3fdfc106bUL, 0x0000ca03fdfb1eadUL, 0x0000253afe03134dUL, 0x000088b3fdfc15dcUL,
  0x000087b6fe000e67UL, 0x0000932bfdff10ddUL, 0x0000a932fdfc134eUL, 0x000038a4fe010bbbUL,
  0x000047a8fe000f49UL, 0x00002840fe031574UL, 0x0000d357fdff132fUL, 0x0000a34ffe021a19UL,
  0x0000cdd2fe0011f2UL, 0x0000f76cfdfd13a5UL, 0x00009f11fe000f91UL, 0x00009a3afe052ac6UL,
  0x0000f417fe000b70UL, 0x0000b9a2fdff232fUL, 0x0000ffd2fdff0b4aUL, 0x0000739cfe000d9aUL,
  0x0000d8d8fe0215a0UL, 0x0000cc9efe041889UL, 0x00003e21fdff11b3UL, 0x0000c811fdfe112eUL,
  0x0000c637fe01188dUL, 0x00005d08fe001169UL, 0x00005770fdfe145eUL, 0x0000dc27fe001719UL,
  0x00006bbcfe0118d1UL, 0x0000e67efe010fe1UL, 0x0000aec7fe000e45UL, 0x0000182bfe0631d3UL,
  0x00007c3cfe0213eeUL, 0x00004904fe093ac3UL, 0x0000053efdfd1321UL, 0x000096c2fdff133eUL,
  0x0000cdeffe010fabUL, 0x0000dc9dfdff114aUL, 0x0000cd62fe031296UL, 0x0000753dfe02170aUL,
  0x0000baa4fdfe158eUL, 0x00009f89fe000deeUL, 0x0000f6e6fdff1233UL, 0x0000ca10fdfd0c65UL,
  0x0000d74ffe0111fdUL, 0x0000ac7afe0110d3UL, 0x00009f30fe01124dUL, 0x00000d24fe040decUL,
  0x0000cbe7fe011648UL, 0x0000bc5cfe020f94UL, 0x0000d878fe0112aaUL, 0x00006082fe0111cbUL,
  0x0000535afe002023UL, 0x0000233cfdfd0e87UL, 0x00009913fe020d90UL, 0x0000873cfe0416b6UL,
  0x00001551fe0011b8UL, 0x0000f573fe031117UL, 0x0000c539fdfc1b9eUL, 0x000039c6fe021ae4UL,
  0x00003971fdff13e3UL, 0x0000efaafe041e36UL, 0x0000ed22fe061c94UL, 0x000076d7fdfe18d7UL,
  0x0000d80bfe04165eUL, 0x0000165dfe03124fUL, 0x00007aabfe041b8cUL, 0x00002be9fe00176bUL,
  0x0000b2cdfdfe1631UL, 0x0000b311fdfc1006UL, 0x00004b95fdff0d4dUL, 0x000038c5fe0626b3UL,
  0x00008e6cfdff147aUL, 0x0000a73efe0314b4UL, 0x0000b040fdff1084UL, 0x00000692fe031342UL,
  0x0000c02ffdfe1297UL, 0x0000546afdfe1291UL, 0x0000df05fdff1304UL, 0x000027f4fe0115e6UL,
  0x000069c6fe021646UL, 0x0000374dfe01137fUL, 0x00004df4fe0213baUL, 0x00004b9dfe001744UL,
  0x00003886fe001324UL, 0x00002112fdfe177dUL, 0x0000886ffe020e39UL, 0x0000e14dfe0425e0UL,
  0x00001ecffe011362UL, 0x00006051fe032256UL, 0x0000644efe041100UL, 0x0000c517fdff0f94UL,
  0x000017befe0527e7UL, 0x0000d1fbfdff124bUL, 0x0000fa7ffdfe1326UL, 0x00004959fdfc1363UL,
  0x0000f631fdfe1110UL, 0x0000e87bfdff13ceUL, 0x00001512fe042147UL, 0x00009c8afe001328UL,
  0x00009096fdfc0ee2UL, 0x00009871fe0413cbUL, 0x0000de3bfe0010b7UL, 0x0000d32efe010f0eUL,
  0x00004434fe0010b9UL, 0x000002a2fe051288UL, 0x00008beffdfc0fbdUL, 0x000058f0fe032590UL,
  0x00005ac2fe0216d0UL, 0x0000be16fe041480UL, 0x0000b25efdff15cbUL, 0x00008ed9fdff1fe7UL,
  0x0000aebefe001219UL, 0x0000fe67fe0314c4UL, 0x000013e7fe011dadUL, 0x0000eba7fdfb0d88UL,
  0x0000d0f9fe01106cUL, 0x00004369fdff101dUL, 0x00003bdcfe000fb4UL, 0x000076f9fe031057UL,
  0x0000d700fe021299UL, 0x0000f097fdfd0fa4UL, 0x00001778fe0523beUL, 0x000066eefe021383UL,
  0x000010b2fe00126dUL, 0x00006cd1fe01158fUL, 0x00004b69fe042411UL, 0x00001aeefe021167UL,
  0x0000ecc6fe020e56UL, 0x0000347cfe081e9fUL, 0x0000217efe03148dUL, 0x00000a4ffdfe12e3UL,
  0x000004abfe010f85UL, 0x00003854fe041624UL, 0x000035b7fe011319UL, 0x00006bb1fe031670UL,
  0x00002d89fdfe0d1cUL, 0x0000f120fe0113baUL, 0x0000e523fdfe12e6UL, 0x000074b5fe0217deUL,
  0x0000617bfe041b1eUL, 0x00003c9afe0113d4UL, 0x000070ebfdfc0f7bUL, 0x000096c2fdff0ec5UL,
  0x0000c183fe021cc3UL, 0x0000df6afe031473UL, 0x0000a25dfe041bf2UL, 0x0000e843fe011788UL,
  0x0000434dfe0314f1UL, 0x000063a6fe01104bUL, 0x0000a9c6fe0212b8UL, 0x00000c1cfdff1279UL,
  0x0000ec10fe023050UL, 0x0000cac8fe0310bcUL, 0x0000a78dfe03143cUL, 0x00006bbbfe00111cUL,
  0x00007e7bfe011f06UL, 0x0000457dfe0213f4UL, 0x000098cdfe0112b4UL, 0x0000ca35fe011b4eUL,
  0x00002682fe022f3bUL, 0x0000fda1fe0015bbUL, 0x0000f033fe02115cUL, 0x00006643fe031009UL,
  0x0000b233fe044603UL, 0x0000943efe0015b6UL, 0x0000cd81fe011066UL, 0x0000dbf2fdfd1325UL,
  0x0000032bfdff1214UL, 0x00003d52fe0014a8UL, 0x000015a3fe0016b4UL, 0x0000c3a8fdfd1298UL,
  0x00003769fdff11dbUL, 0x000014affe031228UL, 0x0000e8fbfdff0facUL, 0x00001704fe031c7dUL,
  0x000069c6fe0113c6UL, 0x00001ea5fe0110d9UL, 0x00007ad0fdfd13e1UL, 0x0000fa07fe031660UL,
  0x00004db4fdff0e76UL, 0x0000b2affdfc141dUL, 0x0000a4a7fe0315c7UL, 0x0000d47efdfd124fUL,
  0x0000ebccfe01121cUL, 0x00008ed9fdfe18c4UL, 0x0000ebecfdfe0c27UL, 0x0000bd91fe032cc4UL,
  0x00008afffe0114caUL, 0x0000a1b3fe001230UL, 0x00004af7fe02115cUL, 0x00002848fe031de2UL,
  0x0000c8cffdfd131eUL, 0x0000eb95fdfd12e9UL, 0x00007898fe03126eUL, 0x0000830cfe0213d3UL,
  0x0000ac61fdfe1ec9UL, 0x00005dfffe0017c7UL, 0x000079ecfe0314aaUL, 0x0000142bfe0218efUL,
  0x0000f878fe04154cUL, 0x0000c2adfe0010a2UL, 0x00009b93fdff1118UL, 0x000020e3fe0311c0UL,
  0x0000e52efe0011cdUL, 0x0000615cfdfe0edcUL, 0x000072b9fe031a96UL, 0x0000eb69fe011511UL,
  0x00002a65fe051daaUL, 0x00002e16fe062420UL, 0x000091a7fdfe12c6UL, 0x00001286fe010fe3UL,
  0x000059a5fdfe13bfUL, 0x0000e5b8fe00145dUL, 0x000080cdfdff124bUL, 0x00008af1fe010cf3UL,
  0x00001a78fe011652UL, 0x00007310fe022579UL, 0x0000c25efe031abcUL, 0x0000600dfe012485UL,
  0x0000b935fe021655UL, 0x000095e4fdfe0da2UL, 0x0000effdfdff10cdUL, 0x0000f4c7fdff0ef6UL,
  0x0000382cfdfd17faUL, 0x0000e071fe03212fUL, 0x00001ac9fe0315d7UL, 0x00001931fe0023d5UL,
  0x00005c61fe00124eUL, 0x00006ccafdfd0ebbUL, 0x000066a9fdfd1103UL, 0x0000f827fdfd139bUL,
  0x000089b7fe0211a4UL, 0x0000895dfe00119eUL, 0x0000b7c4fdfe136aUL, 0x00003362fdfe0e37UL,
  0x0000d492fe052464UL, 0x6000004200802261UL, 0x1500000008000000UL, 0x0007000060027c00UL,
  0x0000400060070043UL, 0x600c004300000020UL, 0x1041104100000000UL, 0x24007c0000802081UL,
  0x240201230008c000UL, 0x00010020342e2000UL, 0x0000200001000010UL, 0x0000000400000040UL,
  0x0000002400000000UL, 0x240c004200100000UL, 0x0000000700000006UL, 0x00000080240d0043UL,
  0x24110043342e403fUL, 0x0000000000000000UL, 0x1c007c0000802041UL, 0x1c0200430008c184UL,
  0x0003000000000000UL, 0x000000001c0500c3UL, 0x0000000000000000UL, 0x0000002400000000UL,
  0x1c0c004200100000UL, 0x0000000700000006UL, 0x000000011c0d0043UL, 0x1c1100430003003fUL,
  0x0000000800000000UL, 0x38007c0000802121UL, 0x380200430088c100UL, 0x00000100342e4000UL,
  0x00000000380500c3UL, 0x0000000000000000UL, 0x0000002400000000UL, 0x380c004205900000UL,
  0x0000000700000006UL, 0x00000080380d0043UL, 0x38110043342e423fUL, 0x0000000000000000UL,
  0x30007c00008020e1UL, 0x300201230008c000UL, 0x00010020342e2010UL, 0x0000200001000010UL,
  0x0000000400000040UL, 0x0000002400000000UL, 0x300c004200100000UL, 0x0000000700000006UL,
  0x00000080300d0043UL, 0x30110043342e403fUL, 0x0000000000000000UL, 0x2c007c00008020c1UL,
  0x2c0201230008c000UL, 0x00010020342e2020UL, 0x0000200001000010UL, 0x0000000400000040UL,
  0x0000002400000000UL, 0x2c0c004200100000UL, 0x0000000700000006UL, 0x000000802c0d0043UL,
  0x2c110043342e403fUL, 0x0000000000000000UL, 0x20007c0000802061UL, 0x200201230008c000UL,
  0x00010020342e2030UL, 0x0000200001000010UL, 0x0000000400000040UL, 0x0000002400000000UL,
  0x200c004200100000UL, 0x0000000700000006UL, 0x00000080200d0043UL, 0x20110043342e403fUL,
  0x0000000000000000UL, 0x28007c00008020a1UL, 0x2802004300880108UL, 0x00000100342e4000UL,
  0x00000000280500c3UL, 0x0000000000000000UL, 0x0000002400000000UL, 0x280c004200100000UL,
  0x0000000700000006UL, 0x00000080280d0043UL, 0x28110043342e423fUL, 0x0000000000000000UL,
  0x34007c0000802101UL, 0x3402012300080008UL, 0x00200001342e0000UL, 0x0000010001000008UL,
  0x0000002000000008UL, 0x0000002400002000UL, 0x340c004200100000UL, 0x0000000700000006UL,
  0x00000020340d0043UL, 0x34110043342e203fUL, 0x0000000000000000UL, 0x0000001b10077c00UL,
  0x00000027100a7c00UL, 0x00000009100c0183UL, 0x0000001300000005UL, 0x000000050000000fUL,
  0x0000000d00000015UL, 0x0000001700000005UL, 0x0000000500000007UL, 0x101e7c0000000019UL,
  0x10207c00011b031aUL, 0x10007c0000000025UL, 0x2800200100000001UL, 0x3c007c0034002001UL,
  0x40007c0000000351UL, 0x44007c0000000041UL, 0x48007c0000000041UL, 0x5c00200100000041UL,
  0x1c00200160002001UL, 0x2400200120002001UL, 0x300020012c002001UL, 0x28007fe438002001UL,
  0x0000000000000064UL, 0x0000006434007fe4UL, 0x10007c0000000000UL, 0x1000042400000002UL,
  0x0000000000000064UL, 0x4000000010007c00UL, 0x0000006410007bc4UL, 0x10077c0000000000UL,
  0x100a7c0000000000UL, 0x100c018300000000UL, 0x0000000000000000UL, 0x0000000000000000UL,
  0x0000000000000000UL, 0x0000000000000000UL, 0x0000000000000000UL, 0x0000000000000000UL,
  0x00000000101e7c00UL, 0x0000000010207c00UL, 0x0000000228007c00UL, 0x0000006428000424UL,
  0x28007c0000000000UL, 0x28007bc440000000UL, 0x0000000000000064UL, 0x34007c00008000a1UL,
  0x3400042400000002UL, 0x0000000000000064UL, 0x4000000034007c00UL, 0x0000006434007bc4UL,
  0x0080010100000000UL, 0x000000023c007c00UL, 0x000000643c000424UL, 0x3c007c0000000000UL,
  0x3c007bc440000000UL, 0x0000000000000064UL, 0x40007c0000800141UL, 0x4000042400000002UL,
  0x0000000000000064UL, 0x4000000040007c00UL, 0x0000006440007bc4UL, 0x0080016100000000UL,
  0x0000000244007c00UL, 0x0000006444000424UL, 0x44007c0000000000UL, 0x44007bc440000000UL,
  0x0000000000000064UL, 0x48007c0000800181UL, 0x4800042400000002UL, 0x0000000000000064UL,
  0x4000000048007c00UL, 0x0000006448007bc4UL, 0x008001a100000000UL, 0x080000025c007c00UL,
  0x000000645c000424UL, 0x5c007c0000000000UL, 0x5c007bc448000000UL, 0x0000000000000064UL,
  0x60007c0000800241UL, 0x6000042408000002UL, 0x0000000000000064UL, 0x4800000060007c00UL,
  0x0000006460007bc4UL, 0x0080026100000000UL, 0x000000021c007c00UL, 0x000000641c000424UL,
  0x1c007c0000000000UL, 0x1c007bc440000000UL, 0x0000000000000064UL, 0x20007c0000800041UL,
  0x2000042400000002UL, 0x0000000000000064UL, 0x4000000020007c00UL, 0x0000006420007bc4UL,
  0x0080006100000000UL, 0x0000000224007c00UL, 0x0000006424000424UL, 0x24007c0000000000UL,
  0x24007bc440000000UL, 0x0000000000000064UL, 0x2c007c0000800081UL, 0x2c00042400000002UL,
  0x0000000000000064UL, 0x400000002c007c00UL, 0x000000642c007bc4UL, 0x008000c100000000UL,
  0x0000000230007c00UL, 0x0000006430000424UL, 0x30007c0000000000UL, 0x30007bc440000000UL,
  0x0000000000000064UL, 0x38007c00008000e1UL, 0x3800042400000002UL, 0x0000000000000064UL,
  0x4000000038007c00UL, 0x0000006438007bc4UL, 0x0080012100000000UL, 0x008021410000009dUL,
  0x001003303c007c00UL, 0x081001033c020123UL, 0x1077400800001105UL, 0x01ff000000010200UL,
  0x00070020ffff0000UL, 0x0000000000030104UL, 0x000000003c0d7c00UL, 0x40007c0000802161UL,
  0x400200e300100020UL, 0x0000110508100103UL, 0x0001020010774000UL, 0xffff000001ff0000UL,
  0x400a7c00000f0820UL, 0x400d7c0000000000UL, 0x0080218100000000UL, 0x0010002044007c00UL,
  0x08100103440200e3UL, 0x1077400000001105UL, 0x01ff000000010200UL, 0x00171020ffff0000UL,
  0x00000000440a7c00UL, 0x00000000440d7c00UL, 0x48007c00008021a1UL, 0x480200e300100020UL,
  0x0000110508100103UL, 0x0001020010634800UL, 0xffff000001ff0000UL, 0x480a7c00001f1820UL,
  0x480d7c0000000000UL, 0x0080228100000000UL, 0x0800000064000042UL, 0x64020123156000fcUL,
  0x0000000000078000UL, 0x000000ff00000007UL, 0x0000000000001fffUL, 0x040403f900000000UL,
  0x640c004300000001UL, 0x2042204200000000UL, 0x00000001640b7c00UL, 0xffc00cdf65004003UL,
  0xffc0054300002d26UL, 0xffbf038b00000fe4UL, 0xffbf01480000d4c8UL, 0xffc00c1a0000f252UL,
  0xffc0090800004752UL, 0xffbf0fb7000027deUL, 0xffc00d120000fc80UL, 0xffc005d900003edbUL,
  0xffc00a4a00000a9fUL, 0xffc0124500005a46UL, 0xffc00c6200002e9bUL, 0xffc00ce3000058a8UL,
  0xffc00f40000004aeUL, 0xffbf04c700001043UL, 0xffc00dd60000c37fUL, 0xffbf040400000b14UL,
  0xffbf03c30000e2bcUL, 0xffc0042d0000c65aUL, 0xffbf0b3100000669UL, 0xffbf01310000ec69UL,
  0xffc00eb30000fe06UL, 0xffc0433c000027bcUL, 0xffc010f3000008edUL, 0xffc00dea000044ecUL,
  0xffbf044800003a88UL, 0xffc00c9d0000cbaeUL, 0xffc00a2a00002a84UL, 0xffbf022400000aa4UL,
  0xffbf05670000fcacUL, 0xffbf04860000c967UL, 0xffbf04c10000e8aeUL, 0xffc009ca0000b7e0UL,
  0xffbf0bf70000447dUL, 0xffc00b010000f153UL, 0xffbf059900000a19UL, 0xffc005340000f789UL,
  0xffbf0cb4000017ccUL, 0xffc00a850000e64aUL, 0xffc012dd00004039UL, 0xffc00a71000003e7UL,
  0xffbf0c2e000010d8UL, 0xffbf04700000ca7aUL, 0xffbf08da0000c870UL, 0xffc0073a0000e43dUL,
  0xffbf04f500001217UL, 0xffbf059e0000c45bUL, 0xffc00c980000bb5bUL, 0xffbf0630000019d3UL,
  0xffbf05600000d615UL, 0xffc00ab30000eddfUL, 0xffc00550000050d1UL, 0xffbf048100001203UL,
  0xffc009ac0000e196UL, 0xffbf073b00001eacUL, 0xffbf04e30000ee8aUL, 0xffbf05850000b89bUL,
  0xffc00aa80000c720UL, 0xffbf04db00000788UL, 0xffc010e20000b79fUL, 0xffbf08b200004f88UL,
  0xffc00c680000e226UL, 0xffc00c2c00003608UL, 0xffc02df000005698UL, 0xffbf0a010000110cUL,
  0xffc00d130000f0a4UL, 0xffbf0444000010f5UL, 0xffc00c970000d461UL, 0xffc00d18000003c9UL,
  0xffbf03fb000030bfUL, 0xffbf05120000ea01UL, 0xffc00cf40000cfe9UL, 0xffbf0253000008cdUL,
  0xffbf02a60000da1dUL, 0xffc009c00000fa9fUL, 0xffc0134d000023d5UL, 0xffbf059f00000fd5UL,
  0xffbf04420000fdfaUL, 0xffc004cc0000fc79UL, 0xffbf0c74000004c2UL, 0xffbf04da0000f917UL,
  0xffc0089b0000c006UL, 0xffbf02e20000138fUL, 0xffc004f20000f69aUL, 0xffbf0001000013f4UL,
  0xffbf0b9d0000ffffUL, 0xffbf0e0a0000fbf6UL, 0xffc00dde0000f77fUL, 0xffc004b8000050ecUL,
  0xffbf054100000153UL, 0xffbf001e0000fcc1UL, 0xffc00a980000ff8dUL, 0xffbf04fd0000240bUL,
  0xffbf04a00000c527UL, 0xffc004ea0000bd98UL, 0xffbf0449000014e9UL, 0xffc00bd80000ddf4UL,
  0xffbf0a0700002ff8UL, 0xffbf03510000f993UL, 0xffc0007b0000e9e4UL, 0xffbf055b00000084UL,
  0xffc004fd0000ef5fUL, 0xffc0108f000005f1UL, 0xffc00a8a0000429dUL, 0xffc008c400003b2aUL,
  0xffc0055400002212UL, 0xffc00b88000015f8UL, 0xffc00b880000536bUL, 0xffc00e9800003630UL,
  0xffbf0cb800000106UL, 0xffc009290000f256UL, 0xffbf05fa0000015cUL, 0xffbf06850000db08UL,
  0xffc00b2c0000ff28UL, 0xffbf0209000056d4UL, 0xffc00c480000f85cUL, 0xffc00d5800001d50UL,
  0xffc00f8900004e82UL, 0xffc00ab5000019d9UL, 0xffc010210000471bUL, 0xffbf04b800003124UL,
  0xffc00ae60000eb26UL, 0xffbf03bf0000073cUL, 0xffbf04450000d69aUL, 0xffbf0a9f0000bc04UL,
  0xffc00c170000f4b7UL, 0xffc009d7000017feUL, 0xffbf049b000036e1UL, 0xffbf032a0000df18UL,
  0xffc00e310000e5ffUL, 0xffbf044c00003bb4UL, 0xffc00c4c0000cd89UL, 0xffc00cd5000011dfUL,
  0xffbf03a400004bc8UL, 0xffc00b2f0000f1b4UL, 0xffc00c2a00001726UL, 0xffbf0d9300004118UL,
  0xffc00fce0000fe40UL, 0xffbf049900000d06UL, 0xffbf058c0000e749UL, 0xffbf0c050000c7acUL,
  0xffbf08c90000f949UL, 0xffc009770000fd41UL, 0xffbf049a000005c4UL, 0xffc00b680000c5b0UL,
  0xffbf0ac4000012b6UL, 0xffbf05520000e0a1UL, 0xffbf0a0d0000dffbUL, 0xffc00ab60000f8d0UL,
  0xffc00d8000004b25UL, 0xffc00ee400003191UL, 0xffc039d900003065UL, 0xffc00c7400000c33UL,
  0xffbf043000000a1dUL, 0xffc005870000ec72UL, 0xffbf05840000178dUL, 0xffc005d60000d644UL,
  0xffbf0a3000000515UL, 0xffbf09f10000f2bfUL, 0xffc00c280000fa19UL, 0xffc0065200002e10UL,
  0xffbf099100002c67UL, 0xffc00b8c0000fdfbUL, 0xffbf051f00005a56UL, 0xffc00d200000d071UL,
  0xffc0098400000148UL, 0xffbf050300004f85UL, 0xffbf0d580000d82fUL, 0xffbf001a0000f9e6UL,
  0xffbf016c0000ffcbUL, 0xffbf0b710000f912UL, 0xffbf02800000ff04UL, 0xffbf0ae50000e0a3UL,
  0xffbf09cd0000f767UL, 0xffbf02980000eef6UL, 0xffbf09ac0000e807UL, 0xffc0092b0000d6bcUL,
  0xffbf049b000017a3UL, 0xffc013000000f7b0UL, 0xffc00a1100001560UL, 0xffc005e10000520eUL,
  0xffc00c60000011aeUL, 0xffbf056d00002110UL, 0xffc00d4f0000ef09UL, 0xffc00baa0000115cUL,
  0xffc0050900000bb5UL, 0xffc0094200001070UL, 0xffbf05a90000548fUL, 0xffc00f810000f8baUL,
  0xffbf06c500004e3dUL, 0xffc0052d0000dcb3UL, 0xffc0098e00001955UL, 0xffc009f700003a07UL,
  0xffc0105800000f91UL, 0xffbf035800004566UL, 0xffc00c050000d9ecUL, 0xffc00b42000030c9UL,
  0xffc005e200001b70UL, 0xffbf045400000e03UL, 0xffc00b9b0000fb66UL, 0xffbf04d700004127UL,
  0xffc00a670000dbbaUL, 0xffbf03e1000015f1UL, 0xffc00b580000edd2UL, 0xffc00be7000025abUL,
  0xffc0096300003399UL, 0xffbf051b000002bfUL, 0xffc00d9e0000c58eUL, 0xffc00d18000047deUL,
  0xffc00c0b00001546UL, 0xffc002a500001be5UL, 0xffc0054500000504UL, 0xffc00aa500000224UL,
  0xffbf0c1c000031ddUL, 0xffc00d0e0000f149UL, 0xffc001fb00001ecdUL, 0xffc00e6a0000035fUL,
  0xffc0030d0000200aUL, 0xffc009f100000331UL, 0xffc00abf00004962UL, 0xffc00e9700004724UL,
  0xffbf0461000057fcUL, 0xffc0109a0000fc94UL, 0xffc00ca100001a75UL, 0xffc00532000045ceUL,
  0xffbf02b300000de7UL, 0xffbf0bb10000dd8cUL, 0xffbf03710000f01bUL, 0xffc00c750000cce3UL,
  0xffbf055700004342UL, 0xffc012db0000ffaaUL, 0xffbf08bf00000f9dUL, 0xffc00aeb0000d73dUL,
  0xffc0053800001d6dUL, 0xffc0000000001bd6UL, 0xffc00be200000000UL, 0xffbf04f100003b14UL,
  0xffbf0e9e0000c8b2UL, 0xffbf04630000ec95UL, 0xffbf053d0000f7eaUL, 0xffbf02c80000fe23UL,
  0xffbf012b0000dd89UL, 0xffbf04250000fb61UL, 0xffbf04a80000d226UL, 0xffc0050a0000f61fUL,
  0xffc0085200000005UL, 0xffbf035e000040e5UL, 0xffc00e270000eecfUL, 0xffc00c490000494dUL,
  0xffc00ad000005197UL, 0xffc06b1500002c84UL, 0xffc00f7e00001555UL, 0xffc00591000007fcUL,
  0xffc00d1200000132UL, 0xffbf0080000022ddUL, 0xffc011460000fb02UL, 0x008022a100004877UL,
  0x0800000068000042UL, 0x68027c0015000000UL, 0x6807004300070000UL, 0x0000002000004000UL,
  0x00000000680c0043UL, 0x0080200110411041UL, 0x0008000014007c00UL, 0x342e000014020123UL,
  0x0100001000010020UL, 0x0000004000002000UL, 0x0000000000000004UL, 0x0010000000000024UL,
  0x00000006140c0042UL, 0x140d004300000007UL, 0x342e203f00000080UL, 0x0000000014110043UL,
  0x0080208100000000UL, 0x0008018424007c00UL, 0x0003000024020043UL, 0x240500c300030000UL,
  0x0000000000000000UL, 0x0000000000000000UL, 0x0010000000000024UL, 0x00000006240c0042UL,
  0x240d004300000007UL, 0x0006003f00000001UL, 0x0000000024110043UL, 0x008020e100000008UL,
  0x0088c10030007c00UL, 0x342e200030020043UL, 0x300500c300000100UL, 0x0000000000000000UL,
  0x0000000000000000UL, 0x0690000000000024UL, 0x00000006300c0042UL, 0x300d004300000007UL,
  0x342e223f00000080UL, 0x0000000030110043UL, 0x0080210100000000UL, 0x0008000034007c00UL,
  0x342e001034020123UL, 0x0100001000010020UL, 0x0000004000002000UL, 0x0000000000000004UL,
  0x0010000000000024UL, 0x00000006340c0042UL, 0x340d004300000007UL, 0x342e203f00000080UL,
  0x0000000034110043UL, 0x008020a100000000UL, 0x0008000028007c00UL, 0x342e002028020123UL,
  0x0100001000010020UL, 0x0000004000002000UL, 0x0000000000000004UL, 0x0010000000000024UL,
  0x00000006280c0042UL, 0x280d004300000007UL, 0x342e203f00000080UL, 0x0000000028110043UL,
  0x0080204100000000UL, 0x000800001c007c00UL, 0x342e00301c020123UL, 0x0100001000010020UL,
  0x0000004000002000UL, 0x0000000000000004UL, 0x0010000000000024UL, 0x000000061c0c0042UL,
  0x1c0d004300000007UL, 0x342e203f00000080UL, 0x000000001c110043UL, 0x008020c100000000UL,
  0x008801082c007c00UL, 0x342e20002c020043UL, 0x2c0500c300000100UL, 0x0000000000000000UL,
  0x0000000000000000UL, 0x0010000000000024UL, 0x000000062c0c0042UL, 0x2c0d004300000007UL,
  0x342e223f00000080UL, 0x000000002c110043UL, 0x0080212100000000UL, 0x0008000838007c00UL,
  0x342e5d8038020123UL, 0x0100000800200001UL, 0x0000000800000100UL, 0x0000200000000020UL,
  0x0010000000000024UL, 0x00000006380c0042UL, 0x380d004300000007UL, 0x342e7dbf00000020UL,
  0x0000000038110043UL, 0x10087c0000000000UL, 0x100b01a30000001bUL, 0x000000010000002bUL,
  0x0000000f00000009UL, 0x0000000900000011UL, 0x0000000b00000015UL, 0x0000001700000009UL,
  0x0000000900000005UL, 0x10227c0000000019UL, 0x10247c00011b031aUL, 0x10007c0000000029UL,
  0x2c00200100000001UL, 0x3c007c0038002001UL, 0x40007c0000100331UL, 0x44007c0000100021UL,
  0x48007c0000100021UL, 0x6400200100100021UL, 0x1400200168002001UL, 0x240020011c002001UL,
  0x3000200128002001UL, 0x2c007fe434002001UL, 0x0000000000000064UL, 0x0000006438007fe4UL,
  0x10007c0000000000UL, 0x1000042400000002UL, 0x0000000000000064UL, 0x4000000010007c00UL,
  0x0000006410007bc4UL, 0x10087c0000000000UL, 0x100b01a300000000UL, 0x0000000000000000UL,
  0x0000000000000000UL, 0x0000000000000000UL, 0x0000000000000000UL, 0x0000000000000000UL,
  0x0000000000000000UL, 0x10227c0000000000UL, 0x10247c0000000000UL, 0x2c007c0000000000UL,
  0x2c00042400000002UL, 0x0000000000000064UL, 0x400000002c007c00UL, 0x000000642c007bc4UL,
  0x008000c100000000UL, 0x0000000238007c00UL, 0x0000006438000424UL, 0x38007c0000000000UL,
  0x38007bc440000000UL, 0x0000000000000064UL, 0x3c007c0000800121UL, 0x3c00042400000002UL,
  0x0000000000000064UL, 0x400000003c007c00UL, 0x000000643c007bc4UL, 0x0080014100000000UL,
  0x0000000240007c00UL, 0x0000006440000424UL, 0x40007c0000000000UL, 0x40007bc440000000UL,
  0x0000000000000064UL, 0x44007c0000800161UL, 0x4400042400000002UL, 0x0000000000000064UL,
  0x4000000044007c00UL, 0x0000006444007bc4UL, 0x0080018100000000UL, 0x0000000248007c00UL,
  0x0000006448000424UL, 0x48007c0000000000UL, 0x48007bc440000000UL, 0x0000000000000064UL,
  0x64007c00008001a1UL, 0x6400042408000002UL, 0x0000000000000064UL, 0x4800000064007c00UL,
  0x0000006464007bc4UL, 0x0080028100000000UL, 0x0800000268007c00UL, 0x0000006468000424UL,
  0x68007c0000000000UL, 0x68007bc448000000UL, 0x0000000000000064UL, 0x14007c00008002a1UL,
  0x1400042400000002UL, 0x0000000000000064UL, 0x4000000014007c00UL, 0x0000006414007bc4UL,
  0x0080000100000000UL, 0x000000021c007c00UL, 0x000000641c000424UL, 0x1c007c0000000000UL,
  0x1c007bc440000000UL, 0x0000000000000064UL, 0x24007c0000800041UL, 0x2400042400000002UL,
  0x0000000000000064UL, 0x4000000024007c00UL, 0x0000006424007bc4UL, 0x0080008100000000UL,
  0x0000000228007c00UL, 0x0000006428000424UL, 0x28007c0000000000UL, 0x28007bc440000000UL,
  0x0000000000000064UL, 0x30007c00008000a1UL, 0x3000042400000002UL, 0x0000000000000064UL,
  0x4000000030007c00UL, 0x0000006430007bc4UL, 0x008000e100000000UL, 0x0000000234007c00UL,
  0x0000006434000424UL, 0x34007c0000000000UL, 0x34007bc440000000UL, 0x0000000000000064UL,
  0x000000bd00800101UL, 0x3c007c0000802141UL, 0x3c0200e310d00034UL, 0x0000110016800101UL,
  0x0020008010774005UL, 0x001f0000ffff0000UL, 0x3c0a7c000015002cUL, 0x3c0d7c0000000000UL,
  0x0080216100000000UL, 0x10d0002040007c00UL, 0x16800101400200e3UL, 0x1063450000001100UL,
  0xffff000000200080UL, 0x002b162c001f0000UL, 0x00000000400a7c00UL, 0x00000000400d7c00UL,
  0x5c00004200802241UL, 0x156000fc08000000UL, 0x000880005c020123UL, 0x0000001500000000UL,
  0x00002ebf000002bfUL, 0x0000000000000000UL, 0x00000001022c03ebUL, 0x000000005c0c0043UL,
  0x5c0b7c0020422042UL, 0x5d005d8300000001UL, 0x0000f228ff9349d1UL, 0x00001b47ff940219UL,
  0x0000383bff9427fdUL, 0x00001329ff9402b0UL, 0x0000ad36ff930247UL, 0x0000ae43ff930373UL,
  0x0000a888ff93015fUL, 0x0000ae38ff9301c7UL, 0x0000c5cdff9301afUL, 0x000012a8ff9402f1UL,
  0x0000fe2eff93014bUL, 0x0000cfb5ff9301a6UL, 0x00009350ff942c0eUL, 0x0000e09aff9302dbUL,
  0x000097afff9302a4UL, 0x00000423ff9401d7UL, 0x0000904aff9424f0UL, 0x0000419cff940658UL,
  0x0000ff10ff930779UL, 0x000078a7ff9406dcUL, 0x00009dbfff9406d5UL, 0x0000b8a3ff930789UL,
  0x0000f1d1ff9306acUL, 0x00002f40ff9511d7UL, 0x0000c3dcff93011cUL, 0x0000f3bcff930108UL,
  0x000010acff94290bUL, 0x00007583ff9302caUL, 0x0000fba2ff9300dfUL, 0x0000e1daff93031fUL,
  0x0000efe3ff93020cUL, 0x0000a3b8ff930265UL, 0x0000aefcff930126UL, 0x0000b6ffff930287UL,
  0x0000b72eff9301afUL, 0x0000fd30ff9301bbUL, 0x00005c7aff930368UL, 0x0000b723ff93011aUL,
  0x0000dc8bff93011bUL, 0x0000a05aff9300d3UL, 0x0000db04ff9300e6UL, 0x0000bc41ff930100UL,
  0x0000ef6fff930157UL, 0x0000b9eeff93011bUL, 0x0000bb3fff9301eeUL, 0x00000a5dff9400c8UL,
  0x0000bcd2ff93019aUL, 0x0000ad28ff9301e6UL, 0x0000c511ff930297UL, 0x0000aef3ff9301afUL,
  0x0000a79cff930187UL, 0x0000bbcaff9300f6UL, 0x0000fd6fff9301ddUL, 0x0000206bff94010bUL,
  0x0000ef36ff9301edUL, 0x0000290eff9401a8UL, 0x0000cffbff9301efUL, 0x0000c507ff930302UL,
  0x0000c8f2ff930156UL, 0x0000ec31ff930334UL, 0x0000d623ff93009dUL, 0x0000c452ff930113UL,
  0x00000c45ff9400b4UL, 0x0000f717ff93015fUL, 0x0000e588ff93020eUL, 0x0000fe35ff9300e9UL,
  0x0000c078ff9301bcUL, 0x0000fe18ff9301b2UL, 0x00000f82ff94020dUL, 0x0000f96cff930231UL,
  0x0000983aff930133UL, 0x000002f8ff9400f3UL, 0x0000dbc4ff9300c3UL, 0x00001834ff94012aUL,
  0x000019ffff940114UL, 0x0000f5e8ff930163UL, 0x0000fc1fff930147UL, 0x0000e19cff9301afUL,
  0x0000e12fff930253UL, 0x0000af41ff930128UL, 0x00001694ff940240UL, 0x0000e57eff930218UL,
  0x0000fe46ff93009aUL, 0x00009531ff93024eUL, 0x00002c2dff9401f0UL, 0x00000341ff940215UL,
  0x00006b39ff9302f5UL, 0x0000ba28ff93020cUL, 0x0000bd9eff930213UL, 0x00000eefff9400f5UL,
  0x00008e50ff930315UL, 0x0000ad92ff9301aaUL, 0x0000adf3ff9300faUL, 0x00008db4ff9302a4UL,
  0x0000185bff9401b0UL, 0x0000d810ff93010fUL, 0x00000bb9ff940292UL, 0x0000101cff94012dUL,
  0x0000fe26ff9300fdUL, 0x0000c53cff930122UL, 0x0000ce05ff9300c9UL, 0x0000c0d4ff9300faUL,
  0x0000d7d3ff9302cbUL, 0x0000c140ff9300aeUL, 0x000004c3ff94030dUL, 0x0000bae7ff930168UL,
  0x0000c85bff930123UL, 0x00002244ff9401d6UL, 0x0000cd42ff9301beUL, 0x000011cfff9400f9UL,
  0x0000c544ff9301b2UL, 0x0000a7b7ff930124UL, 0x0000ea70ff9300e2UL, 0x0000fd6aff930197UL,
  0x0000bda1ff930279UL, 0x00009935ff930189UL, 0x00008ac3ff9303e5UL, 0x0000a269ff930180UL,
  0x00009b2eff930214UL, 0x0000e884ff930279UL, 0x00009f1aff930257UL, 0x00001efeff940163UL,
  0x0000c09eff9301e0UL, 0x00000427ff940158UL, 0x0000bb2eff9301dfUL, 0x000091a6ff93029fUL,
  0x0000a8acff9301a5UL, 0x0000dfccff930228UL, 0x00001231ff94019fUL, 0x00009a74ff930171UL,
  0x0000c504ff93015cUL, 0x0000a7e0ff930133UL, 0x0000f015ff93030dUL, 0x0000e9a3ff93020aUL,
  0x0000e559ff93014aUL, 0x00000f13ff9401beUL, 0x0000a8eeff9300ddUL, 0x0000cb4bff9301b1UL,
  0x000005deff9401d7UL, 0x0000e34dff9301dcUL, 0x000017cbff940105UL, 0x00000617ff9400cbUL,
  0x0000a261ff930212UL, 0x00002c07ff940353UL, 0x000009f1ff940191UL, 0x00001e11ff9400b7UL,
  0x0000e04dff930270UL, 0x0000a356ff930243UL, 0x0000051bff940179UL, 0x00000285ff9401c1UL,
  0x000002e6ff94011bUL, 0x0000b1b4ff930216UL, 0x0000d31cff930146UL, 0x00001dd8ff9400c7UL,
  0x0000bbf9ff930190UL, 0x00000cdfff9401d1UL, 0x0000be71ff93005dUL, 0x00002af7ff940259UL,
  0x00009922ff9301cfUL, 0x0000e950ff930121UL, 0x0000af33ff930188UL, 0x0000cbd7ff930291UL,
  0x00000aacff940152UL, 0x0000285aff940288UL, 0x000095eaff930250UL, 0x00000facff9402d9UL,
  0x0000fd69ff9301a0UL, 0x0000d142ff9301a3UL, 0x0000dfcfff9301f5UL, 0x000090c3ff930245UL,
  0x000017adff9401e6UL, 0x00000062ff9400f2UL, 0x0000f52fff930110UL, 0x0000d983ff9301eeUL,
  0x0000d07aff930286UL, 0x0000e17fff9301bcUL, 0x0000db4eff9300caUL, 0x00000187ff940272UL,
  0x0000ae11ff930302UL, 0x0000d9caff9301acUL, 0x0000f6b8ff930150UL, 0x000001ccff94024dUL,
  0x0000f3d6ff9302afUL, 0x00000ffbff9401d9UL, 0x0000015bff9400aeUL, 0x0000c426ff930214UL,
  0x0000bdccff93020cUL, 0x0000290eff9402adUL, 0x000024a5ff9400c5UL, 0x00002a37ff94027bUL,
  0x0000adabff9302bbUL, 0x00009fe3ff9302b9UL, 0x0000cbbaff93012eUL, 0x0000ffc6ff93016fUL,
  0x0000d2bdff93012bUL, 0x0000f191ff9300a4UL, 0x000015dcff9402c4UL, 0x0000dd6bff93034bUL,
  0x0000cde9ff930139UL, 0x0000f817ff93015eUL, 0x0000d385ff9300b0UL, 0x000026efff9401c1UL,
  0x000015a9ff94013aUL, 0x000000a6ff940215UL, 0x0000d19eff9301b9UL, 0x0000f3d6ff930192UL,
  0x00000c5cff940399UL, 0x000003a0ff9402b3UL, 0x0000f2b5ff9302c3UL, 0x0000c9aaff93022cUL,
  0x00001e72ff9401a2UL, 0x000010deff940274UL, 0x00008563ff930297UL, 0x00000ebcff940169UL,
  0x0000b8ddff930099UL, 0x0000ac22ff9301f3UL, 0x0000b52cff930198UL, 0x0000ded0ff9301daUL,
  0x000021edff94002bUL, 0x0000f557ff930151UL, 0x0000d490ff9300eaUL, 0x0000fbe4ff930143UL,
  0x00001a35ff9400b7UL, 0x0000b5c3ff9300e5UL, 0x0000e797ff93028bUL, 0x000005acff9401abUL,
  0x000017edff940159UL, 0x0000c8caff9300e9UL, 0x0000d410ff930056UL, 0x0000eb54ff9300a9UL,
  0x0000dceaff930286UL, 0x0000c2e7ff9301d2UL, 0x0000fe8bff930154UL, 0x0000f3cbff930279UL,
  0x0000f6ebff93015cUL, 0x00000a76ff940338UL, 0x00000521ff9401faUL, 0x00000d23ff9401d0UL,
  0x0000df36ff93013fUL, 0x0000a984ff9301bfUL, 0x0000ed12ff9301dcUL, 0x0000a42dff9302bcUL,
  0x0000c311ff9301ceUL, 0x0000dba7ff930128UL, 0x0000ec3cff930290UL, 0x0000c941ff9301baUL,
  0x0000ad04ff9301f3UL, 0x0000a58dff930257UL, 0x0000b335ff930310UL, 0x0000c79cff930072UL,
  0x0000b4aeff93024cUL, 0x0000ddd8ff93010aUL, 0x0000b290ff9301c9UL, 0x0000bf2cff930142UL,
  0x0000f751ff930102UL, 0x0000126eff94007fUL, 0x0000e7b2ff93014aUL, 0x0000c228ff9300f5UL,
  0x00004b5eff94139cUL, 0x0000a994ff942e61UL, 0x0000e022ff930171UL, 0x0000d479ff9302c9UL,
  0x000093f7ff93027eUL, 0x00000f9cff94013dUL, 0x0000136cff940133UL, 0x00000e2dff940179UL,
  0x0000b83eff930115UL, 0x0000d970ff930328UL, 0x0000dee6ff9300c7UL, 0x0000e914ff9301a4UL,
  0x00002d8fff9401faUL, 0x0000c938ff93019fUL, 0x0000b863ff930312UL, 0x0000fad1ff941511UL,
  0x00000374ff94374fUL, 0x0000d10bff930197UL, 0x0000eda6ff930208UL, 0x0000b950ff930116UL,
  0x0000efbeff93024dUL, 0x0000e0ebff93012eUL, 0x0000e7f1ff93011eUL, 0x0000de16ff9301bfUL,
  0x0000f1d8ff93012dUL, 0x0000d652ff9300deUL, 0x0000e18bff93022cUL, 0x0000fabcff930302UL,
  0x000052c5ff941d1bUL, 0x000097e7ff94319aUL, 0x0000a4c5ff942e40UL, 0x0000cbf8ff9300c3UL,
  0x0000cbf0ff930268UL, 0x0000f7ccff9302c3UL, 0x000002d5ff940142UL, 0x0000a0bbff9302d0UL,
  0x0000fb2dff930129UL, 0x0000e42bff9301dbUL, 0x0000a705ff93031aUL, 0x0000de94ff942878UL,
  0x0000bae5ff941af1UL, 0x000028bdff941912UL, 0x0000d6c8ff93022eUL, 0x00001fe1ff940164UL,
  0x0000f881ff930187UL, 0x00000e31ff940267UL, 0x0000b99fff9301d8UL, 0x00003466ff9402d1UL,
  0x00000450ff940055UL, 0x0000ba9aff930284UL, 0x0000036aff940155UL, 0x000012feff940316UL,
  0x0000c518ff930154UL, 0x0000a807ff930202UL, 0x0000cb5aff9301fdUL, 0x0000f262ff93011eUL,
  0x0000da7bff930117UL, 0x0000f4fdff930115UL, 0x0000ceedff9300a4UL, 0x0000e89eff930144UL,
  0x0000cb9cff9300bdUL, 0x0000d58bff93009eUL, 0x0000feaaff930179UL, 0x0000df00ff9302b0UL,
  0x0000148fff94185eUL, 0x0000a313ff94174cUL, 0x00008800ff942000UL, 0x00008b59ff941a3bUL,
  0x000015b9ff94022cUL, 0x0000e210ff9301e0UL, 0x00001051ff940128UL, 0x0000ac93ff930147UL,
  0x0000f689ff930125UL, 0x0000bf35ff9301cdUL, 0x00001664ff9400c9UL, 0x00000d1eff940192UL,
  0x0000d3f9ff930347UL, 0x00009fedff941581UL, 0x0000ad7cff9301bcUL, 0x00000177ff940065UL,
  0x00009a40ff9301f2UL, 0x000057ddff940ea5UL, 0x0000d0c1ff9301b3UL, 0x0000f50fff93017cUL,
  0x000038c1ff940ee3UL, 0x0000f336ff930086UL, 0x00000dabff9401cfUL, 0x0000d178ff930182UL,
  0x0000d54cff9300efUL, 0x00002718ff9400f4UL, 0x0000052aff940076UL, 0x0000dfb0ff9301baUL,
  0x0000c9b9ff930267UL, 0x0000247dff940294UL, 0x0000bacaff9301f5UL, 0x0000cabbff9300b6UL,
  0x0000a791ff9301efUL, 0x0000e9b3ff930123UL, 0x0000db20ff9301c8UL, 0x00000e16ff9401f4UL,
  0x000000a8ff94021aUL, 0x0000b822ff930293UL, 0x0000a122ff9301c0UL, 0x00001bbeff9403a7UL,
  0x0000a065ff9301a3UL, 0x0000db53ff9300d0UL, 0x0000fd77ff930180UL, 0x0000b475ff930169UL,
  0x0000d3eaff9300dcUL, 0x00001fa1ff94012bUL, 0x00000824ff940294UL, 0x00000ba9ff9401e3UL,
  0x0000cf84ff930039UL, 0x0000f62fff93026fUL, 0x0000600bff940bb0UL, 0x0000e62dff930254UL,
  0x38007c0000802121UL, 0x3802012308880200UL, 0x00200001342e5d80UL, 0x000001000100002bUL,
  0x0000001100000000UL, 0x0000002400000100UL, 0x380c004200100000UL, 0x0000000700000006UL,
  0x00000011380d0043UL, 0x38110043342e7dbfUL, 0x0000000000000000UL, 0x14007c0000802001UL,
  0x1402004308880184UL, 0x00007cb600060000UL, 0x00000000140500c3UL, 0x0000000000000000UL,
  0x0000002400000000UL, 0x140c004200100000UL, 0x0000000700000006UL, 0x00000001140d0043UL,
  0x1411004300077667UL, 0x0000000800000000UL, 0x24007c0000802081UL, 0x2402012308880200UL,
  0x00200001342e5e00UL, 0x000001000100002bUL, 0x0000001100000000UL, 0x0000002400000100UL,
  0x240c004200100000UL, 0x0000000700000006UL, 0x00000011240d0043UL, 0x24110043342e7dbfUL,
  0x0000000000000000UL, 0x30007c00008020e1UL, 0x3002012300080008UL, 0x00200001342e2ec0UL,
  0x0000017601760016UL, 0x0000001100000016UL, 0x0000002400002ec0UL, 0x300c004200100000UL,
  0x0000000700000006UL, 0x00000011300d0043UL, 0x30110043342e5dbfUL, 0x0000000000000000UL,
  0x0000002510097c00UL, 0x00000013100c0043UL, 0x100f006300000001UL, 0x0000000100000009UL,
  0x101e7c0000000015UL, 0x10007c0000000017UL, 0x3000200100000001UL, 0x10d000353c007c00UL,
  0x10d0002140007c00UL, 0x140020015c002001UL, 0x3800200124002001UL, 0x0000006430007fe4UL,
  0x10007c0000000000UL, 0x1000042400000002UL, 0x0000000000000064UL, 0x4000000010007c00UL,
  0x0000006410007bc4UL, 0x10097c0000000000UL, 0x100c004300000000UL, 0x0000000000000000UL,
  0x00000000100f0063UL, 0x0000000000000000UL, 0x00000000101e7c00UL, 0x0000000230007c00UL,
  0x0000006430000424UL, 0x30007c0000000000UL, 0x30007bc440000000UL, 0x0000000000000064UL,
  0x3c007c00008000e1UL, 0x3c00042400000002UL, 0x0000000000000064UL, 0x400000003c007c00UL,
  0x000000643c007bc4UL, 0x0080014100000000UL, 0x0000000240007c00UL, 0x0000006440000424UL,
  0x40007c0000000000UL, 0x40007bc440000000UL, 0x0000000000000064UL, 0x5c007c0000800161UL,
  0x5c00042408000002UL, 0x0000000000000064UL, 0x480000005c007c00UL, 0x000000645c007bc4UL,
  0x0080024100000000UL, 0x0000000214007c00UL, 0x0000006414000424UL, 0x14007c0000000000UL,
  0x14007bc440000000UL, 0x0000000000000064UL, 0x24007c0000800001UL, 0x2400042400000002UL,
  0x0000000000000064UL, 0x4000000024007c00UL, 0x0000006424007bc4UL, 0x0080008100000000UL,
  0x0000000238007c00UL, 0x0000006438000424UL, 0x38007c0000000000UL, 0x38007bc440000000UL,
  0x0000000000000064UL, 0x000000dd00800121UL, 0x20007c0000802061UL, 0x2002012300080000UL,
  0x00200001342e2ec0UL, 0x0000017601760001UL, 0x0000017600000001UL, 0x0000002400002ec0UL,
  0x200c004200100000UL, 0x0000000700000006UL, 0x00000176200d0043UL, 0x20110043342e5dbfUL,
  0x0000000000000000UL, 0x28007c00008020a1UL, 0x280200430008010cUL, 0x00002ec0342e0000UL,
  0x00000000280500c3UL, 0x0000000000002ec0UL, 0x0000002400000000UL, 0x280c004200100000UL,
  0x0000000700000006UL, 0x00000001280d0043UL, 0x28110043342e2effUL, 0x0000000000000000UL,
  0x0000000710077c00UL, 0x0000000110007c00UL, 0x2000200128002001UL, 0x0000006428007fe4UL,
  0x10007c0000000000UL, 0x1000042400000002UL, 0x0000000000000064UL, 0x4000000010007c00UL,
  0x0000006410007bc4UL, 0x10077c0000000000UL, 0x28007c0000000000UL, 0x2800042400000002UL,
  0x0000000000000064UL, 0x4000000028007c00UL, 0x0000006428007bc4UL, 0x008000a100000000UL,
  0x0000000220007c00UL, 0x0000006420000424UL, 0x20007c0000000000UL, 0x20007bc440000000UL,
  0x0000000000000064UL, 0x000000fd00800061UL, 0x000000000000000cUL
};

ECBLOB_RUNTIME_SECTION
// _ec_blob_network_1 blob, aligned to the cache line size (equal to 64 bytes)
__attribute__((aligned(64)))
static uint64_t _ec_blob_network_1_ptr[1616];

#define _ec_blob_network_1_address _ec_blob_network_1_ptr

#define _ec_blob_network_1_reloc_table_ptr ((const ECFileEntry *)((const uint8_t *)_ec_blob_network_1 + 24))

#define _ec_blob_network_1_xSPI2_RELOC_IDX 0    // index of xSPI2 relocation of _ec_blob_network_1 blob
#define _ec_blob_network_1_xSPI2_BASE_SYMBOL ((unsigned char *)_mem_pool_xSPI2_network)    // base address of xSPI2 relocation of _ec_blob_network_1 blob

// this macro returns true if _ec_blob_network_1 blob is encrypted and must be decrypted on the fly, false otherwise
#define LL_ATON_EC_MustDecryptBlob_network__ec_blob_network_1 false

// this function MUST be called ONLY ONCE once for initializing the network
bool LL_ATON_EC_Network_Init_network(void)
{
  LL_ATON_Cache_NPU_Clean_Invalidate_Range((uintptr_t)_ec_blob_network_1_ptr, 12928);

  unsigned int size;
  size = 3232;

  if (!ec_copy_blob((ECInstr *)_ec_blob_network_1_ptr, (const uint8_t *)_ec_blob_network_1, &size))
  {
    // TODO maybe generate/print error because it was not possible to copy the blob
    return false;
  }

  ECAddr base;
  base = 0;

  if (!ec_reloc((ECInstr *)_ec_blob_network_1_ptr, _ec_blob_network_1_reloc_table_ptr, _ec_blob_network_1_xSPI2_RELOC_IDX, (ECAddr)(uintptr_t)_ec_blob_network_1_xSPI2_BASE_SYMBOL, &base))
  {
    // TODO maybe generate/print error because it was not possible to relocate the blob
    return false;
  }

  LL_ATON_Cache_MCU_Clean_Range((uintptr_t)_ec_blob_network_1_ptr, 12928);

  return true;
}

// this function should be called before each inference
bool LL_ATON_EC_Inference_Init_network(void)
{
  return true;
}

#ifdef __cplusplus
}
#endif
