/**
  ******************************************************************************
  * @file    network_ecblobs.h
  * @brief   NN Code autogenerated DO NOT MODIFY IT
  ******************************************************************************
  * @attention
  *
  * Copyright (c) 2024 STMicroelectronics.
  * All rights reserved.
  *
  * This software is licensed under terms that can be found in the LICENSE file
  * in the root directory of this software component.
  * If no LICENSE file comes with this software, it is provided AS-IS.
  *
  ******************************************************************************
  */


#ifdef __cplusplus
extern "C" {
#endif

#include "ll_aton_caches_interface.h"

#include <string.h>

#if !defined(ECBLOB_CONST_SECTION)
#define ECBLOB_CONST_SECTION /* Empty */
#endif
#if !defined(ECBLOB_RUNTIME_SECTION)
#define ECBLOB_RUNTIME_SECTION /* Empty */
#endif

ECBLOB_CONST_SECTION
// _ec_blob_network_1 blob binary, aligned to the cache line size (equal to 64 bytes)
__attribute__((aligned(64)))
static const uint64_t _ec_blob_network_1[1624] =
{
  0x00000018ecbf0050UL, 0x0000000000000000UL, 0x0000000000000048UL, 0x0000002800000001UL,
  0x0000001000000006UL, 0x000002e2000002d4UL, 0x000006d7000006c9UL, 0x00000b8c00000b7eUL,
  0x0000003249505378UL, 0x00000c91ca057a7aUL, 0x0000005d0000003dUL, 0x30007c00008020e1UL,
  0x300200430008c100UL, 0x00000020342e0000UL, 0x00000000300500c3UL, 0x0000000000000020UL,
  0x0000002400000000UL, 0x300c004200100000UL, 0x0000000700000006UL, 0x00000100300d0043UL,
  0x30110043342e203fUL, 0x0000000000000000UL, 0x18007c0000802021UL, 0x1802012300080008UL,
  0x00200001342e2000UL, 0x0000010001000001UL, 0x0000010000000001UL, 0x0000002400002000UL,
  0x180c004200100000UL, 0x0000000700000006UL, 0x00000100180d0043UL, 0x18110043342e403fUL,
  0x0000000000000000UL, 0x0000000f10037c00UL, 0x0000000110007c00UL, 0x3000200118002001UL,
  0x0000006418007fe4UL, 0x10007c0000000000UL, 0x1000042400000002UL, 0x0000000000000064UL,
  0x4000000010007c00UL, 0x0000006410007bc4UL, 0x10037c0000000000UL, 0x18007c0000000000UL,
  0x1800042400000002UL, 0x0000000000000064UL, 0x4000000018007c00UL, 0x0000006418007bc4UL,
  0x0080002100000000UL, 0x0000000230007c00UL, 0x0000006430000424UL, 0x30007c0000000000UL,
  0x30007bc440000000UL, 0x0000000000000064UL, 0x0000007d008000e1UL, 0x3c007c0000802141UL,
  0x3c02012300000350UL, 0x0000110208100103UL, 0x0001020010b74005UL, 0xffff000001ff0000UL,
  0x0003010400070020UL, 0x3c0c004300000000UL, 0x0000000000fffffcUL, 0x40007c0000802161UL,
  0x400200e300000040UL, 0x0000110208100103UL, 0x0001020010b74000UL, 0xffff000001ff0000UL,
  0x400a7c00000f0820UL, 0x400c004300000000UL, 0x0000000000fffffcUL, 0x44007c0000802181UL,
  0x440200e300000040UL, 0x0000110208100103UL, 0x0001020010b74000UL, 0xffff000001ff0000UL,
  0x440a7c0000171020UL, 0x440c004300000000UL, 0x0000000000fffffcUL, 0x48007c00008021a1UL,
  0x480200e300000040UL, 0x0000110208100103UL, 0x0001020010a34500UL, 0xffff000001ff0000UL,
  0x480a7c00001f1820UL, 0x480c004300000000UL, 0x0000000000fffffcUL, 0x5c00004200802241UL,
  0x156000fc08000000UL, 0x000a00005c020123UL, 0x0000000700000000UL, 0x00001fff000000ffUL,
  0x0000000000000000UL, 0x00000001040403f9UL, 0x000000005c0c0043UL, 0x5c0b7c0020422042UL,
  0x5d00400300000001UL, 0x000082b0f80a3526UL, 0x0000c18cf805322aUL, 0x00004eaaf80440ddUL,
  0x0000df14f8012f77UL, 0x00004cddf7fd46a9UL, 0x0000b4c1f8022f92UL, 0x0000af58f80448d3UL,
  0x00008d02f7f83570UL, 0x00000c58f80041d5UL, 0x00000022f8013a21UL, 0x0000f954f80c37cbUL,
  0x00008167f7f53bb4UL, 0x00002d81f8123766UL, 0x0000473ff8053f08UL, 0x0000eb78f80f3ccdUL,
  0x0000a165f7f93ad4UL, 0x0000e214f80a4689UL, 0x0000bfccf80c3808UL, 0x00007153f7ff39cbUL,
  0x0000219bf7f733acUL, 0x0000ab93f7fa412bUL, 0x00005abbf8064a5dUL, 0x000080c5f807483aUL,
  0x0000ac8cf80b3f60UL, 0x0000f09cf8063a40UL, 0x00009da5f808324fUL, 0x0000622ff8093190UL,
  0x000056fef8023b87UL, 0x00005c80f7fe330bUL, 0x0000d9c5f8023a3cUL, 0x00007035f80f3b3dUL,
  0x0000a1cdf7fc3c1cUL, 0x0000d949f80035e7UL, 0x00002c59f809359aUL, 0x0000d89ef7fa390eUL,
  0x00009476f80a3966UL, 0x0000dee4f7fe391cUL, 0x00005f3df80735d3UL, 0x00006f06f7f93be7UL,
  0x0000e179f808340aUL, 0x0000a540f806378dUL, 0x00007842f80436e6UL, 0x0000f57ff8083e17UL,
  0x00008cbaf8084033UL, 0x00008b06f7fd3811UL, 0x0000ae63f7ff3146UL, 0x000022ccf8043774UL,
  0x00006b7df7fd3837UL, 0x000061eaf8013d8dUL, 0x000030bef8053be3UL, 0x000051f7f7f9392eUL,
  0x0000c25cf8073ca7UL, 0x00009d10f80b3761UL, 0x00002528f80e39cbUL, 0x0000445af80a4320UL,
  0x00002802f7fe3bb3UL, 0x00002646f7fa3737UL, 0x0000f493f7fe3257UL, 0x0000b53cf80a3909UL,
  0x00007f6ef8042e2cUL, 0x0000747bf8083e02UL, 0x0000e32af80f3bc9UL, 0x00000d9df805388dUL,
  0x00005e83f8093865UL, 0x0000edc2f8083e69UL, 0x0000e569f806362aUL, 0x0000af93f80e3c6dUL,
  0x0000a233f7fc3df9UL, 0x00003706f8043728UL, 0x00002f88f7f646b6UL, 0x0000b620f8053a57UL,
  0x00002183f80f3d17UL, 0x000044b9f7f647d2UL, 0x0000917ef80a39a4UL, 0x000073d4f80840b6UL,
  0x0000d51cf7fb3bcaUL, 0x000095bef7f74177UL, 0x00000625f7ff3f74UL, 0x0000978bf80a3a97UL,
  0x00005574f806315eUL, 0x000069c2f8013d40UL, 0x00003e24f7fc3c5aUL, 0x000058b8f80c34edUL,
  0x0000fc9bf80046e8UL, 0x0000e376f80440b2UL, 0x00003269f7f641efUL, 0x00005674f80a4842UL,
  0x0000dd34f7f837feUL, 0x0000217cf803327dUL, 0x0000cf3cf8134073UL, 0x000001c8f8003904UL,
  0x0000c66cf80c380eUL, 0x00008a7cf80b4206UL, 0x00002764f8013e9aUL, 0x00001cbef80b3080UL,
  0x000062a5f80836d3UL, 0x000029e2f7f53f23UL, 0x00003f3ff80e37a8UL, 0x00005456f7fd4aabUL,
  0x000025fdf80b3665UL, 0x0000412af7fc31a6UL, 0x0000c2a8f80544e4UL, 0x0000fe5af80f368cUL,
  0x0000e08cf7ff3b34UL, 0x00003983f80545efUL, 0x00004ee9f7fd3d98UL, 0x0000f471f8104bc6UL,
  0x0000eed2f7f937c8UL, 0x0000c698f7f93cebUL, 0x000097bff7f83ec0UL, 0x00009fd7f8113e12UL,
  0x00003d41f7fc3804UL, 0x0000f582f80437baUL, 0x000019a5f7f53506UL, 0x000022e3f8063c6bUL,
  0x0000beebf806354aUL, 0x00004d75f7f73415UL, 0x00007763f7f43ec8UL, 0x00005ba1f80e4261UL,
  0x00003ac2f8033d3eUL, 0x0000d557f7f8345fUL, 0x00009d12f7fd3f10UL, 0x00004cfcf7fd3af7UL,
  0x0000a6abf7f84228UL, 0x0000197ef8093d5aUL, 0x0000c7e4f7ff3086UL, 0x00009fbef7ff3701UL,
  0x00005c18f80c42b3UL, 0x0000cd73f7fb46c1UL, 0x0000324ef7fe3215UL, 0x00007d8cf7f232beUL,
  0x00005a31f7f9414cUL, 0x000016d0f80e3582UL, 0x0000f598f8013526UL, 0x000004fff7fa3a53UL,
  0x00003426f80e3d35UL, 0x00000045f8093f4bUL, 0x0000f25af80f366eUL, 0x0000adf4f7fb38ffUL,
  0x00009e55f7f83e57UL, 0x00000e2bf7fd3c02UL, 0x0000cb8af8083e38UL, 0x0000b781f80739f1UL,
  0x0000bbdaf80c35beUL, 0x00000bf2f7fa4514UL, 0x0000bf7ef8003a5cUL, 0x0000f7e7f80039e8UL,
  0x000059f7f8063f74UL, 0x0000b904f7fd477aUL, 0x000099e6f80740ccUL, 0x000084c1f804356aUL,
  0x0000c2f2f8093ef7UL, 0x0000272df804338cUL, 0x00005814f7fb3189UL, 0x00006e99f80e39dfUL,
  0x00005b0ef80337fdUL, 0x0000272ff7fb3b71UL, 0x0000af05f7fa38dbUL, 0x0000f933f7f53ac1UL,
  0x000015fef8024576UL, 0x00004503f80c3dbdUL, 0x0000a5eef8014382UL, 0x00003501f8044534UL,
  0x0000b2bff7ff382fUL, 0x000040eef7ff3b5dUL, 0x0000457bf80e3d67UL, 0x0000d047f8133aaeUL,
  0x000082f4f80c3b48UL, 0x0000dcb4f80337cdUL, 0x0000039df80039d7UL, 0x0000beecf8003db6UL,
  0x0000b6d5f8053c7bUL, 0x0000433af8013837UL, 0x0000545df80a37c8UL, 0x0000d348f8044d0eUL,
  0x00004aa3f7fe39d5UL, 0x00009d38f7f4377dUL, 0x0000e826f7fe379fUL, 0x0000e8f1f7fe3d96UL,
  0x00007760f7f83b1dUL, 0x00006473f80e36d0UL, 0x0000beabf7fd3750UL, 0x000070faf8094014UL,
  0x00006be1f7fc357fUL, 0x00008037f804371dUL, 0x0000f544f80d3f2cUL, 0x0000da24f80336b1UL,
  0x0000ef7af7fd408dUL, 0x00007b01f80645f2UL, 0x00005bd2f8093ed7UL, 0x00002867f7f63e43UL,
  0x000055d5f80636dcUL, 0x0000c18cf8083217UL, 0x00005838f80b3741UL, 0x0000b25cf8033d8dUL,
  0x00008ea0f8033439UL, 0x00003829f80442baUL, 0x00006a1ef7f93f19UL, 0x0000485af7fa32e9UL,
  0x0000786cf80a36fcUL, 0x0000de84f8073e87UL, 0x0000cd80f80e31ddUL, 0x0000e661f80836dcUL,
  0x000063b1f7fc3b65UL, 0x00004e84f7fd3124UL, 0x000002c2f8093fcdUL, 0x00007065f80c35f9UL,
  0x00002195f8083bd9UL, 0x0000707af80a2da9UL, 0x000023f6f80732f4UL, 0x0000dbedf80735beUL,
  0x0000a21df8033588UL, 0x0000ebfff7ff471eUL, 0x000050acf8034c49UL, 0x0000dd5df8113e5bUL,
  0x0000b60ef80a35ccUL, 0x0000a9e2f7fe3a8bUL, 0x0000510bf7fa474dUL, 0x0000caeef804363bUL,
  0x00006194f8053617UL, 0x00001281f7ff3dcaUL, 0x000033fef7fc3b96UL, 0x00009e0cf8042dafUL,
  0x00004b7af80239abUL, 0x0000011bf80939b8UL, 0x000010aff80a327eUL, 0x00005963f7fc4075UL,
  0x00004f86f7fe3c2cUL, 0x00006487f801431dUL, 0x0000a74df7f9326dUL, 0x0000b16cf8084898UL,
  0x0000b488f7fd4324UL, 0x0000ece3f8063775UL, 0x00004656f8093631UL, 0x0000c871f7fc375dUL,
  0x0000ea4bf8093952UL, 0x000036d8f8094430UL, 0x0000da10f80641ceUL, 0x00002c82f8083c37UL,
  0x00000dedf81036deUL, 0x00009bd7f807465aUL, 0x00003504f8093c70UL, 0x000048baf8004b13UL,
  0x000041d3f80c2fcbUL, 0x00000903f7f83231UL, 0x0000f5e1f80d32c3UL, 0x00002abff80c3758UL,
  0x0000a89af80c3fb3UL, 0x00003d7af80a3c65UL, 0x0000b586f80539e2UL, 0x00001819f80736e1UL,
  0x000086e6f8033fecUL, 0x0000e1f2f7fa48a8UL, 0x0000cd9bf7f63770UL, 0x0000d212f7fd3852UL,
  0x0000bee7f8123ce4UL, 0x6000004200802261UL, 0x1500000008000000UL, 0x0007000060027c00UL,
  0x0000400060070043UL, 0x600c004300000020UL, 0x1041104100000000UL, 0x24007c0000802081UL,
  0x240201230008c000UL, 0x00010020342e2000UL, 0x0000200001000010UL, 0x0000000400000040UL,
  0x0000002400000000UL, 0x240c004200100000UL, 0x0000000700000006UL, 0x00000080240d0043UL,
  0x24110043342e403fUL, 0x0000000000000000UL, 0x1c007c0000802041UL, 0x1c0200430008c184UL,
  0x0003000000000000UL, 0x000000001c0500c3UL, 0x0000000000000000UL, 0x0000002400000000UL,
  0x1c0c004200100000UL, 0x0000000700000006UL, 0x000000011c0d0043UL, 0x1c1100430003003fUL,
  0x0000000800000000UL, 0x38007c0000802121UL, 0x380200430088c100UL, 0x00000100342e4000UL,
  0x00000000380500c3UL, 0x0000000000000000UL, 0x0000002400000000UL, 0x380c004205900000UL,
  0x0000000700000006UL, 0x00000080380d0043UL, 0x38110043342e423fUL, 0x0000000000000000UL,
  0x30007c00008020e1UL, 0x300201230008c000UL, 0x00010020342e2010UL, 0x0000200001000010UL,
  0x0000000400000040UL, 0x0000002400000000UL, 0x300c004200100000UL, 0x0000000700000006UL,
  0x00000080300d0043UL, 0x30110043342e403fUL, 0x0000000000000000UL, 0x2c007c00008020c1UL,
  0x2c0201230008c000UL, 0x00010020342e2020UL, 0x0000200001000010UL, 0x0000000400000040UL,
  0x0000002400000000UL, 0x2c0c004200100000UL, 0x0000000700000006UL, 0x000000802c0d0043UL,
  0x2c110043342e403fUL, 0x0000000000000000UL, 0x20007c0000802061UL, 0x200201230008c000UL,
  0x00010020342e2030UL, 0x0000200001000010UL, 0x0000000400000040UL, 0x0000002400000000UL,
  0x200c004200100000UL, 0x0000000700000006UL, 0x00000080200d0043UL, 0x20110043342e403fUL,
  0x0000000000000000UL, 0x28007c00008020a1UL, 0x2802004300880108UL, 0x00000100342e4000UL,
  0x00000000280500c3UL, 0x0000000000000000UL, 0x0000002400000000UL, 0x280c004200100000UL,
  0x0000000700000006UL, 0x00000080280d0043UL, 0x28110043342e423fUL, 0x0000000000000000UL,
  0x34007c0000802101UL, 0x3402012300080008UL, 0x00200001342e0000UL, 0x0000010001000008UL,
  0x0000002000000008UL, 0x0000002400002000UL, 0x340c004200100000UL, 0x0000000700000006UL,
  0x00000020340d0043UL, 0x34110043342e203fUL, 0x0000000000000000UL, 0x0000001b10077c00UL,
  0x00000027100a7c00UL, 0x00000009100c0183UL, 0x0000001300000005UL, 0x000000050000000fUL,
  0x0000000d00000015UL, 0x0000001700000005UL, 0x0000000500000007UL, 0x101e7c0000000019UL,
  0x10207c00011b031aUL, 0x10007c0000000025UL, 0x2800200100000001UL, 0x3c007c0034002001UL,
  0x40007c0000000351UL, 0x44007c0000000041UL, 0x48007c0000000041UL, 0x5c00200100000041UL,
  0x1c00200160002001UL, 0x2400200120002001UL, 0x300020012c002001UL, 0x28007fe438002001UL,
  0x0000000000000064UL, 0x0000006434007fe4UL, 0x10007c0000000000UL, 0x1000042400000002UL,
  0x0000000000000064UL, 0x4000000010007c00UL, 0x0000006410007bc4UL, 0x10077c0000000000UL,
  0x100a7c0000000000UL, 0x100c018300000000UL, 0x0000000000000000UL, 0x0000000000000000UL,
  0x0000000000000000UL, 0x0000000000000000UL, 0x0000000000000000UL, 0x0000000000000000UL,
  0x00000000101e7c00UL, 0x0000000010207c00UL, 0x0000000228007c00UL, 0x0000006428000424UL,
  0x28007c0000000000UL, 0x28007bc440000000UL, 0x0000000000000064UL, 0x34007c00008000a1UL,
  0x3400042400000002UL, 0x0000000000000064UL, 0x4000000034007c00UL, 0x0000006434007bc4UL,
  0x0080010100000000UL, 0x000000023c007c00UL, 0x000000643c000424UL, 0x3c007c0000000000UL,
  0x3c007bc440000000UL, 0x0000000000000064UL, 0x40007c0000800141UL, 0x4000042400000002UL,
  0x0000000000000064UL, 0x4000000040007c00UL, 0x0000006440007bc4UL, 0x0080016100000000UL,
  0x0000000244007c00UL, 0x0000006444000424UL, 0x44007c0000000000UL, 0x44007bc440000000UL,
  0x0000000000000064UL, 0x48007c0000800181UL, 0x4800042400000002UL, 0x0000000000000064UL,
  0x4000000048007c00UL, 0x0000006448007bc4UL, 0x008001a100000000UL, 0x080000025c007c00UL,
  0x000000645c000424UL, 0x5c007c0000000000UL, 0x5c007bc448000000UL, 0x0000000000000064UL,
  0x60007c0000800241UL, 0x6000042408000002UL, 0x0000000000000064UL, 0x4800000060007c00UL,
  0x0000006460007bc4UL, 0x0080026100000000UL, 0x000000021c007c00UL, 0x000000641c000424UL,
  0x1c007c0000000000UL, 0x1c007bc440000000UL, 0x0000000000000064UL, 0x20007c0000800041UL,
  0x2000042400000002UL, 0x0000000000000064UL, 0x4000000020007c00UL, 0x0000006420007bc4UL,
  0x0080006100000000UL, 0x0000000224007c00UL, 0x0000006424000424UL, 0x24007c0000000000UL,
  0x24007bc440000000UL, 0x0000000000000064UL, 0x2c007c0000800081UL, 0x2c00042400000002UL,
  0x0000000000000064UL, 0x400000002c007c00UL, 0x000000642c007bc4UL, 0x008000c100000000UL,
  0x0000000230007c00UL, 0x0000006430000424UL, 0x30007c0000000000UL, 0x30007bc440000000UL,
  0x0000000000000064UL, 0x38007c00008000e1UL, 0x3800042400000002UL, 0x0000000000000064UL,
  0x4000000038007c00UL, 0x0000006438007bc4UL, 0x0080012100000000UL, 0x008021410000009dUL,
  0x001003303c007c00UL, 0x081001033c020123UL, 0x1077410900001102UL, 0x01ff000000010200UL,
  0x00070020ffff0000UL, 0x0000000000030104UL, 0x000000003c0d7c00UL, 0x40007c0000802161UL,
  0x400200e300100020UL, 0x0000110208100103UL, 0x0001020010774101UL, 0xffff000001ff0000UL,
  0x400a7c00000f0820UL, 0x400d7c0000000000UL, 0x0080218100000000UL, 0x0010002044007c00UL,
  0x08100103440200e3UL, 0x1077410100001102UL, 0x01ff000000010200UL, 0x00171020ffff0000UL,
  0x00000000440a7c00UL, 0x00000000440d7c00UL, 0x48007c00008021a1UL, 0x480200e300100020UL,
  0x0000110208100103UL, 0x0001020010634901UL, 0xffff000001ff0000UL, 0x480a7c00001f1820UL,
  0x480d7c0000000000UL, 0x0080228100000000UL, 0x0800000064000042UL, 0x64020123156000fcUL,
  0x0000000000078000UL, 0x000000ff00000007UL, 0x0000000000001fffUL, 0x040403f900000000UL,
  0x640c004300000001UL, 0x2042204200000000UL, 0x00000001640b7c00UL, 0xffc00c7565004003UL,
  0xffc015d600000cb3UL, 0xffc00c7200002b5fUL, 0xffc014240000106eUL, 0xffbf1639000025ffUL,
  0xffc00c790000f568UL, 0xffc0168300000f6bUL, 0xffbf162900001948UL, 0xffc012920000fec9UL,
  0xffbf140000003bb3UL, 0xffbf0c630000fb63UL, 0xffbf155f0000dc31UL, 0xffc0165e0000f967UL,
  0xffbf18e0000015ccUL, 0xffbf133c0000f01dUL, 0xffc013200000ff19UL, 0xffc017fa0000106fUL,
  0xffc014f700001cccUL, 0xffc012d80000124eUL, 0xffbf0c7d000039efUL, 0xffc013d70000d924UL,
  0xffc0150f00002104UL, 0xffbf0e07000032caUL, 0xffc012980000bee7UL, 0xffbf1528000007a0UL,
  0xffbf15670000fea2UL, 0xffbf0c760000ed9bUL, 0xffbf14a90000fc72UL, 0xffc013c70000edb8UL,
  0xffbf0c7a00004080UL, 0xffc016a10000d60fUL, 0xffbf0c7c000035c9UL, 0xffc0190f0000cb6dUL,
  0xffc012ce000016b5UL, 0xffbf180800002645UL, 0xffc015450000ff57UL, 0xffc0186b00002e27UL,
  0xffc014ef00003b91UL, 0xffbf153200002c29UL, 0xffbf1a8a0000e9cfUL, 0xffc013370000e64aUL,
  0xffbf0c7c00001cf8UL, 0xffc00d2e0000fe19UL, 0xffc0146c00000784UL, 0xffbf19aa000039c2UL,
  0xffc017000000f32bUL, 0xffbf131a00000649UL, 0xffc0177a0000f2fbUL, 0xffc0145600003626UL,
  0xffbf164300002cbaUL, 0xffbf16600000fcbdUL, 0xffbf0cd60000ff6eUL, 0xffbf0e250000e2d8UL,
  0xffc011890000e4d8UL, 0xffc0143c00000e01UL, 0xffc012a500001880UL, 0xffc0133600002d39UL,
  0xffc01876000020afUL, 0xffbf14ee000007eeUL, 0xffc012c90000ede4UL, 0xffc01a010000069aUL,
  0xffbf1224000026b4UL, 0xffc015390000fc3eUL, 0xffc0168100001f36UL, 0xffc01d1d00001ac4UL,
  0xffbf0c7c00001c7cUL, 0xffc0140a0000e8dbUL, 0xffc0160b00001e0eUL, 0xffc01662000016bbUL,
  0xffc01453000025baUL, 0xffc013810000026bUL, 0xffbf12f10000146bUL, 0xffc0168c0000ef33UL,
  0xffc019d200000657UL, 0xffc014cc00002340UL, 0xffc013d8000004d5UL, 0xffc011b00000066fUL,
  0xffc0152500003ba7UL, 0xffc00fc200002961UL, 0xffbf151c00004669UL, 0xffbf14110000f245UL,
  0xffc014a40000f098UL, 0xffc017cc000026a9UL, 0xffc0127600001a1fUL, 0xffc013ac00002097UL,
  0xffc018ef000004cdUL, 0xffc0126b00000529UL, 0xffc0140b0000401bUL, 0xffbf17e200000245UL,
  0xffc00c7b0000f29cUL, 0xffbf175f00000b5cUL, 0xffc014690000ff96UL, 0xffbf16f6000000a3UL,
  0xffc015530000e404UL, 0xffbf185e000040d9UL, 0xffc0162c0000f9c3UL, 0xffc0156300002923UL,
  0xffbf0d7c000031e0UL, 0xffbf15ff0000c5abUL, 0xffbf14d30000fc9bUL, 0xffc0129b0000f9c6UL,
  0xffbf17dc00000478UL, 0xffbf149b0000d20cUL, 0xffbf18640000fda0UL, 0xffbf0ca70000d869UL,
  0xffbf0db50000dbd2UL, 0xffc01ac00000dce7UL, 0xffc016d500001438UL, 0xffc016b000004a79UL,
  0xffbf150d00001522UL, 0xffc012cd0000fba4UL, 0xffc01a4c00002422UL, 0xffc0193600000c11UL,
  0xffbf1331000030d9UL, 0xffbf15150000e293UL, 0xffbf12410000fcc9UL, 0xffc014ef0000d4dbUL,
  0xffbf198200003441UL, 0xffbf18970000f979UL, 0xffc012180000f447UL, 0xffbf147900001861UL,
  0xffc015a70000e0d0UL, 0xffbf15f6000000b8UL, 0xffc014780000eb53UL, 0xffc01235000013f2UL,
  0xffc0157e00001a47UL, 0xffc012cf00000554UL, 0xffc012d6000006d5UL, 0xffc017390000069fUL,
  0xffc01394000013ddUL, 0xffbf0c76000003e6UL, 0xffc015ae0000fc2dUL, 0xffc016ab00001f3fUL,
  0xffbf16f6000024caUL, 0xffc016a00000f7cbUL, 0xffc017f500004828UL, 0xffc016cb00003bfcUL,
  0xffc0146800002b68UL, 0xffbf0dc9000010bdUL, 0xffbf28ac0000e657UL, 0xffbf14100000f111UL,
  0xffc0122c0000dae4UL, 0xffbf0c7800000478UL, 0xffc0141a0000d72fUL, 0xffc00c6c00002ec1UL,
  0xffbf13db000012a2UL, 0xffc017c20000e914UL, 0xffbf11c200003d27UL, 0xffc016360000eda6UL,
  0xffc0134200002915UL, 0xffc0145400002f04UL, 0xffbf151e00000d2eUL, 0xffbf17de0000fd9bUL,
  0xffbf14b70000e5c1UL, 0xffc014590000fefdUL, 0xffc01b7d000019b6UL, 0xffc0135d0000130eUL,
  0xffc0199b00003dc2UL, 0xffbf157d00001a81UL, 0xffc0164c0000fdc6UL, 0xffbf173f00000951UL,
  0xffc0172f0000eaeeUL, 0xffc0183f000032e5UL, 0xffbf13a10000164eUL, 0xffc012370000eeb6UL,
  0xffbf108000000333UL, 0xffbf16ec0000e317UL, 0xffbf0cd30000f72eUL, 0xffc013f90000f6f5UL,
  0xffc014c0000007e1UL, 0xffc01226000021d6UL, 0xffbf190b0000095bUL, 0xffc016730000f757UL,
  0xffc0162900002bb7UL, 0xffbf13f200003652UL, 0xffbf178b0000fa0aUL, 0xffbf0c7b0000fdfaUL,
  0xffc014e80000e8e4UL, 0xffc00d320000434aUL, 0xffc0127600000996UL, 0xffc010e800001402UL,
  0xffbf16c00000199fUL, 0xffc013820000f94aUL, 0xffc0145600001d6aUL, 0xffc00d0200000b00UL,
  0xffc017a00000074aUL, 0xffc0167e000025f9UL, 0xffc01674000030c2UL, 0xffc013e800001e2bUL,
  0xffc014a800001ef3UL, 0xffc015cd0000144bUL, 0xffc019290000171fUL, 0xffc01447000002d9UL,
  0xffc013830000416cUL, 0xffc014af00002c02UL, 0xffc014b3000006e8UL, 0xffbf0cd7000037a1UL,
  0xffbf0c780000f470UL, 0xffc015fa0000dda3UL, 0xffc016c90000110aUL, 0xffbf14cc000033ccUL,
  0xffc0129e0000f373UL, 0xffbf0c7400002c9eUL, 0xffbf137f0000c642UL, 0xffc015070000f5e8UL,
  0xffc016bf00003279UL, 0xffc0165400002ab2UL, 0xffc012f30000024fUL, 0xffbf0dc50000420fUL,
  0xffc014aa0000cdeaUL, 0xffc015cd000043c3UL, 0xffc0146500003660UL, 0xffc013600000326dUL,
  0xffbf152400000009UL, 0xffbf0c870000f50fUL, 0xffbf151d0000cf85UL, 0xffbf19ca0000f761UL,
  0xffbf17480000fb2aUL, 0xffc018600000f015UL, 0xffbf151b0000109dUL, 0xffc014bb0000ec2cUL,
  0xffc0192b00001b7dUL, 0xffc0124700003e6dUL, 0xffc013ca0000067fUL, 0xffc0144e00001789UL,
  0xffc0134e00001eb2UL, 0xffc0167a00000cb5UL, 0xffbf0c7b00002e3aUL, 0xffc015aa0000f29eUL,
  0xffbf0c980000221aUL, 0xffc012530000f298UL, 0xffc00c6d000015c2UL, 0xffc012de00000ee1UL,
  0xffc0107100003a26UL, 0xffc01e3d00002b60UL, 0xffbf122300001eb5UL, 0xffc00c6f0000f07bUL,
  0xffc013000000026dUL, 0xffc014610000492dUL, 0xffc0159200002fccUL, 0xffc015f6000005f0UL,
  0xffbf1563000002eaUL, 0xffbf46d20000ff5fUL, 0xffc00dc60000d829UL, 0xffc0154700000b38UL,
  0xffc015c900003aceUL, 0xffc0165800004939UL, 0xffc0135a00001918UL, 0xffbf131000002c07UL,
  0xffbf154b0000fd05UL, 0xffbf152d0000f41bUL, 0xffc013db0000fd4fUL, 0xffbf14bf00001656UL,
  0xffbf0c790000ffb7UL, 0xffc014a30000db6fUL, 0xffc014de00001616UL, 0x008022a100002804UL,
  0x0800000068000042UL, 0x68027c0015000000UL, 0x6807004300070000UL, 0x0000002000004000UL,
  0x00000000680c0043UL, 0x0080200110411041UL, 0x0008000014007c00UL, 0x342e000014020123UL,
  0x0100001000010020UL, 0x0000004000002000UL, 0x0000000000000004UL, 0x0010000000000024UL,
  0x00000006140c0042UL, 0x140d004300000007UL, 0x342e203f00000080UL, 0x0000000014110043UL,
  0x0080208100000000UL, 0x0008018424007c00UL, 0x0003000024020043UL, 0x240500c300030000UL,
  0x0000000000000000UL, 0x0000000000000000UL, 0x0010000000000024UL, 0x00000006240c0042UL,
  0x240d004300000007UL, 0x0006003f00000001UL, 0x0000000024110043UL, 0x008020e100000008UL,
  0x0088c10030007c00UL, 0x342e200030020043UL, 0x300500c300000100UL, 0x0000000000000000UL,
  0x0000000000000000UL, 0x0690000000000024UL, 0x00000006300c0042UL, 0x300d004300000007UL,
  0x342e223f00000080UL, 0x0000000030110043UL, 0x0080210100000000UL, 0x0008000034007c00UL,
  0x342e001034020123UL, 0x0100001000010020UL, 0x0000004000002000UL, 0x0000000000000004UL,
  0x0010000000000024UL, 0x00000006340c0042UL, 0x340d004300000007UL, 0x342e203f00000080UL,
  0x0000000034110043UL, 0x008020a100000000UL, 0x0008000028007c00UL, 0x342e002028020123UL,
  0x0100001000010020UL, 0x0000004000002000UL, 0x0000000000000004UL, 0x0010000000000024UL,
  0x00000006280c0042UL, 0x280d004300000007UL, 0x342e203f00000080UL, 0x0000000028110043UL,
  0x0080204100000000UL, 0x000800001c007c00UL, 0x342e00301c020123UL, 0x0100001000010020UL,
  0x0000004000002000UL, 0x0000000000000004UL, 0x0010000000000024UL, 0x000000061c0c0042UL,
  0x1c0d004300000007UL, 0x342e203f00000080UL, 0x000000001c110043UL, 0x008020c100000000UL,
  0x008801082c007c00UL, 0x342e20002c020043UL, 0x2c0500c300000100UL, 0x0000000000000000UL,
  0x0000000000000000UL, 0x0010000000000024UL, 0x000000062c0c0042UL, 0x2c0d004300000007UL,
  0x342e223f00000080UL, 0x000000002c110043UL, 0x0080212100000000UL, 0x0008000838007c00UL,
  0x342e5d8038020123UL, 0x0100000800200001UL, 0x0000000800000100UL, 0x0000200000000020UL,
  0x0010000000000024UL, 0x00000006380c0042UL, 0x380d004300000007UL, 0x342e7dbf00000020UL,
  0x0000000038110043UL, 0x10087c0000000000UL, 0x100b01a30000001bUL, 0x000000010000002bUL,
  0x0000000f00000009UL, 0x0000000900000011UL, 0x0000000b00000015UL, 0x0000001700000009UL,
  0x0000000900000005UL, 0x10227c0000000019UL, 0x10247c00011b031aUL, 0x10007c0000000029UL,
  0x2c00200100000001UL, 0x3c007c0038002001UL, 0x40007c0000100331UL, 0x44007c0000100021UL,
  0x48007c0000100021UL, 0x6400200100100021UL, 0x1400200168002001UL, 0x240020011c002001UL,
  0x3000200128002001UL, 0x2c007fe434002001UL, 0x0000000000000064UL, 0x0000006438007fe4UL,
  0x10007c0000000000UL, 0x1000042400000002UL, 0x0000000000000064UL, 0x4000000010007c00UL,
  0x0000006410007bc4UL, 0x10087c0000000000UL, 0x100b01a300000000UL, 0x0000000000000000UL,
  0x0000000000000000UL, 0x0000000000000000UL, 0x0000000000000000UL, 0x0000000000000000UL,
  0x0000000000000000UL, 0x10227c0000000000UL, 0x10247c0000000000UL, 0x2c007c0000000000UL,
  0x2c00042400000002UL, 0x0000000000000064UL, 0x400000002c007c00UL, 0x000000642c007bc4UL,
  0x008000c100000000UL, 0x0000000238007c00UL, 0x0000006438000424UL, 0x38007c0000000000UL,
  0x38007bc440000000UL, 0x0000000000000064UL, 0x3c007c0000800121UL, 0x3c00042400000002UL,
  0x0000000000000064UL, 0x400000003c007c00UL, 0x000000643c007bc4UL, 0x0080014100000000UL,
  0x0000000240007c00UL, 0x0000006440000424UL, 0x40007c0000000000UL, 0x40007bc440000000UL,
  0x0000000000000064UL, 0x44007c0000800161UL, 0x4400042400000002UL, 0x0000000000000064UL,
  0x4000000044007c00UL, 0x0000006444007bc4UL, 0x0080018100000000UL, 0x0000000248007c00UL,
  0x0000006448000424UL, 0x48007c0000000000UL, 0x48007bc440000000UL, 0x0000000000000064UL,
  0x64007c00008001a1UL, 0x6400042408000002UL, 0x0000000000000064UL, 0x4800000064007c00UL,
  0x0000006464007bc4UL, 0x0080028100000000UL, 0x0800000268007c00UL, 0x0000006468000424UL,
  0x68007c0000000000UL, 0x68007bc448000000UL, 0x0000000000000064UL, 0x14007c00008002a1UL,
  0x1400042400000002UL, 0x0000000000000064UL, 0x4000000014007c00UL, 0x0000006414007bc4UL,
  0x0080000100000000UL, 0x000000021c007c00UL, 0x000000641c000424UL, 0x1c007c0000000000UL,
  0x1c007bc440000000UL, 0x0000000000000064UL, 0x24007c0000800041UL, 0x2400042400000002UL,
  0x0000000000000064UL, 0x4000000024007c00UL, 0x0000006424007bc4UL, 0x0080008100000000UL,
  0x0000000228007c00UL, 0x0000006428000424UL, 0x28007c0000000000UL, 0x28007bc440000000UL,
  0x0000000000000064UL, 0x30007c00008000a1UL, 0x3000042400000002UL, 0x0000000000000064UL,
  0x4000000030007c00UL, 0x0000006430007bc4UL, 0x008000e100000000UL, 0x0000000234007c00UL,
  0x0000006434000424UL, 0x34007c0000000000UL, 0x34007bc440000000UL, 0x0000000000000064UL,
  0x000000bd00800101UL, 0x3c007c0000802141UL, 0x3c0200e310d00034UL, 0x0000110016800101UL,
  0x0020008010774007UL, 0x001f0000ffff0000UL, 0x3c0a7c000015002cUL, 0x3c0d7c0000000000UL,
  0x0080216100000000UL, 0x10d0002040007c00UL, 0x16800101400200e3UL, 0x1063470000001100UL,
  0xffff000000200080UL, 0x002b162c001f0000UL, 0x00000000400a7c00UL, 0x00000000400d7c00UL,
  0x5c00004200802241UL, 0x156000fc08000000UL, 0x000980005c020123UL, 0x0000001500000000UL,
  0x00002ebf000002bfUL, 0x0000000000000000UL, 0x00000001022c03ebUL, 0x000000005c0c0043UL,
  0x5c0b7c0020422042UL, 0x5d005d8300000001UL, 0x0000f39bfff7210dUL, 0x00001d4efff7257dUL,
  0x0000bdf0fff82897UL, 0x00005af9fff7269eUL, 0x00006a7ffff8264bUL, 0x00004c19fff8259cUL,
  0x0000c431fff625d9UL, 0x0000ddd1fff72662UL, 0x0000eb69fff7251fUL, 0x0000c1c5fff626cbUL,
  0x0000e116fff72554UL, 0x00000f60fff825daUL, 0x0000edeefff725eaUL, 0x0000b32ffff62567UL,
  0x0000addbfff72618UL, 0x00004c52fff7273fUL, 0x00003cf4fff94ec7UL, 0x0000835bfff73501UL,
  0x0000eb2cfff72ec5UL, 0x00002be1fff931b9UL, 0x00001f5bfff82d9dUL, 0x00002f09fff83d6fUL,
  0x0000a295fff7379dUL, 0x00006e1dfff834fdUL, 0x0000ed9dfff72737UL, 0x00007e25fff7267aUL,
  0x000052e8fff725dfUL, 0x000081ebfff72504UL, 0x0000c8c8fff72634UL, 0x00006cebfff82632UL,
  0x0000fda9fff73be5UL, 0x0000fc57fff6283dUL, 0x0000ce6cfff626d8UL, 0x0000fd05fff626c5UL,
  0x0000901cfff724eaUL, 0x000041b9fff8266aUL, 0x0000754cfff72510UL, 0x00001784fff7264cUL,
  0x00000614fff826e8UL, 0x000058d5fff726e7UL, 0x0000dc27fff7268eUL, 0x00004d71fff725b7UL,
  0x00000ee7fff728b6UL, 0x00006b93fff72626UL, 0x00002968fff72634UL, 0x00007860fff826e9UL,
  0x000024c1fff82641UL, 0x000042f6fff82670UL, 0x00000ea0fff7258aUL, 0x0000e81cfff72639UL,
  0x000022ecfff826dfUL, 0x00006970fff726c7UL, 0x00003162fff725e4UL, 0x00004d0bfff72a2fUL,
  0x0000883afff725f3UL, 0x0000a8b1fff72603UL, 0x00005087fff8262dUL, 0x00005c18fff8258bUL,
  0x00000753fff725ceUL, 0x00008eb2fff72692UL, 0x0000bd36fff72439UL, 0x00008efdfff7262bUL,
  0x000041a8fff825b0UL, 0x0000b23efff625c6UL, 0x00006f26fff72588UL, 0x00003eb5fff72706UL,
  0x00000c03fff726a7UL, 0x00001a47fff72514UL, 0x0000ef35fff62614UL, 0x00002975fff827e6UL,
  0x00002abcfff72524UL, 0x00002389fff826e0UL, 0x00001749fff726fdUL, 0x0000f39bfff62642UL,
  0x00003fadfff7263aUL, 0x000009d7fff829fdUL, 0x00001786fff8252dUL, 0x00006bc7fff72640UL,
  0x00004c02fff725c5UL, 0x0000b0ecfff6250aUL, 0x0000a324fff72542UL, 0x0000537dfff72601UL,
  0x00006fccfff729aaUL, 0x0000dce8fff62623UL, 0x0000351afff82785UL, 0x0000370bfff82725UL,
  0x000059b5fff825a6UL, 0x00000a1efff82618UL, 0x0000dff5fff726b1UL, 0x0000e0e5fff626a5UL,
  0x0000f8dcfff72611UL, 0x0000e2fbfff62500UL, 0x0000b9f0fff72585UL, 0x000092d9fff72662UL,
  0x0000c5e1fff62555UL, 0x00006372fff82538UL, 0x0000a2abfff7266aUL, 0x00002ac8fff726a8UL,
  0x0000368ffff826cdUL, 0x000044dbfff82652UL, 0x0000bc93fff72605UL, 0x00005371fff8266cUL,
  0x00007d44fff72777UL, 0x0000d4b4fff7267cUL, 0x00001c66fff8257aUL, 0x0000d731fff625feUL,
  0x0000e903fff726b7UL, 0x0000097dfff824ceUL, 0x0000da4efff725fdUL, 0x00003db3fff82514UL,
  0x00006906fff82572UL, 0x00007195fff82676UL, 0x00005e3bfff82689UL, 0x00005892fff72611UL,
  0x0000ed05fff6259bUL, 0x00004bfdfff82699UL, 0x00004ab7fff726bdUL, 0x0000f5d0fff62513UL,
  0x00003a23fff72773UL, 0x0000cb68fff72677UL, 0x00001e9bfff8272dUL, 0x000046b3fff8253eUL,
  0x0000f1c2fff625ceUL, 0x0000f061fff725b9UL, 0x000032f2fff72618UL, 0x0000c0b0fff62617UL,
  0x00008f6bfff72729UL, 0x0000c65afff725a6UL, 0x00009ce7fff726e9UL, 0x0000ca50fff72559UL,
  0x00001f46fff825c5UL, 0x00004b9efff724c4UL, 0x00006dfafff72675UL, 0x0000b42efff6263bUL,
  0x000006befff728f5UL, 0x0000cdaafff72576UL, 0x0000376cfff725a5UL, 0x0000e836fff62719UL,
  0x00005725fff7261eUL, 0x0000d63cfff727e4UL, 0x0000b9c8fff72615UL, 0x00003d92fff826a2UL,
  0x0000617afff7254dUL, 0x00007809fff72530UL, 0x0000c828fff72cacUL, 0x0000c17efff62781UL,
  0x000057e6fff7252aUL, 0x0000c030fff726e5UL, 0x0000bd1ffff625f3UL, 0x0000cfecfff7254cUL,
  0x00007c01fff725f7UL, 0x00006871fff825c4UL, 0x00004e13fff726ffUL, 0x000005d3fff82548UL,
  0x0000c8f9fff6260fUL, 0x0000bc48fff6260dUL, 0x00001aeffff8264eUL, 0x0000207dfff7269cUL,
  0x0000533efff825ebUL, 0x000072bafff726f9UL, 0x000030a1fff72686UL, 0x000000e6fff82678UL,
  0x000097acfff72839UL, 0x0000e6d4fff626b3UL, 0x0000353ffff726cbUL, 0x00003d89fff8260dUL,
  0x00009840fff729c3UL, 0x000026c8fff825e5UL, 0x0000f4a3fff72549UL, 0x0000c6a1fff6257dUL,
  0x00006bc5fff7247dUL, 0x0000eeadfff726e6UL, 0x0000322bfff724f3UL, 0x00003be5fff72577UL,
  0x0000336ffff72568UL, 0x0000cbb6fff72564UL, 0x000080a7fff72689UL, 0x0000076bfff82793UL,
  0x0000601bfff825daUL, 0x000013fffff828a2UL, 0x000055a1fff82548UL, 0x00005e76fff824a4UL,
  0x000057e9fff72743UL, 0x0000e7eafff62682UL, 0x0000232cfff8294fUL, 0x0000ec58fff62630UL,
  0x0000299ffff8280fUL, 0x00005feefff72628UL, 0x00007f30fff72658UL, 0x000030c6fff72779UL,
  0x00000bdffff725a6UL, 0x0000dab5fff6269fUL, 0x00002fb9fff8262eUL, 0x0000f812fff62621UL,
  0x0000e448fff624fbUL, 0x00000e8efff826d2UL, 0x0000fd3ffff62678UL, 0x000049bdfff825c1UL,
  0x0000e4e7fff627bcUL, 0x000048d2fff725c2UL, 0x00002eeffff72681UL, 0x0000529bfff8274fUL,
  0x0000b0f0fff72512UL, 0x0000b052fff6293cUL, 0x00007667fff72674UL, 0x00008575fff82621UL,
  0x00004b6dfff826c6UL, 0x0000af54fff7263fUL, 0x0000d941fff726beUL, 0x0000c630fff726f2UL,
  0x0000cb2efff7255aUL, 0x00001d91fff825d9UL, 0x0000b761fff6264fUL, 0x0000fdbafff6262dUL,
  0x00008f19fff7263bUL, 0x00001bdcfff8258bUL, 0x00003519fff727d5UL, 0x0000b29afff6254eUL,
  0x0000ba90fff725d2UL, 0x0000d0a6fff625b3UL, 0x0000c800fff62538UL, 0x00000e48fff936eaUL,
  0x00001b3ffff826c1UL, 0x00002fdafff72543UL, 0x0000735efff82628UL, 0x000028cafff7275aUL,
  0x00003dc5fff726baUL, 0x0000a6a6fff72793UL, 0x00000ebdfff825bbUL, 0x0000515efff726f1UL,
  0x0000d2c9fff625cdUL, 0x000019f2fff7252eUL, 0x0000d6b9fff72722UL, 0x000078dafff825bbUL,
  0x00007d4efff727d5UL, 0x0000784dfff7262dUL, 0x00005bb0fff7254aUL, 0x00005e25fff82661UL,
  0x0000cee2fff625e1UL, 0x00005620fff82625UL, 0x00000a25fff726c1UL, 0x00006e47fff725e9UL,
  0x0000526ffff725a8UL, 0x000048d5fff725d1UL, 0x00006638fff726d3UL, 0x00005a74fff82677UL,
  0x000053d5fff726bbUL, 0x0000554efff725efUL, 0x00000f9efff82672UL, 0x00005d54fff824a5UL,
  0x0000eb23fff627a4UL, 0x0000f3a8fff72881UL, 0x000040f5fff72564UL, 0x000033e8fff725dcUL,
  0x00000c16fff725e4UL, 0x00005d83fff72618UL, 0x000060fafff72643UL, 0x00008362fff7266fUL,
  0x00004bb5fff83857UL, 0x00002432fff91ca9UL, 0x000070e2fff7254fUL, 0x000033adfff82760UL,
  0x00003588fff82612UL, 0x0000e825fff62607UL, 0x0000ee26fff72615UL, 0x0000ed10fff62640UL,
  0x0000533efff726ddUL, 0x00004e98fff82543UL, 0x0000304cfff825eeUL, 0x0000efd2fff62524UL,
  0x000058b3fff72696UL, 0x00003889fff8267eUL, 0x0000cb01fff627b6UL, 0x000081ddfff85efcUL,
  0x0000c883fff72664UL, 0x0000664bfff7296bUL, 0x000023c9fff8258cUL, 0x0000bfc6fff7266aUL,
  0x0000eca2fff72622UL, 0x0000cda4fff7274eUL, 0x000067fdfff825ecUL, 0x0000cc41fff72649UL,
  0x0000c60efff726a1UL, 0x0000a5a1fff82d1cUL, 0x0000b614fff72627UL, 0x000034b9fff72660UL,
  0x00000352fff9505fUL, 0x00009b3ffff72662UL, 0x00004c12fff8271bUL, 0x0000268afff7293dUL,
  0x0000c559fff725baUL, 0x00001a55fff827a8UL, 0x00008eacfff72646UL, 0x000041ccfff8404bUL,
  0x0000ce39fff62656UL, 0x000000d2fff728fbUL, 0x00001178fff93cfcUL, 0x000015defff825d4UL,
  0x00006fe1fff732aeUL, 0x000057aafff8262bUL, 0x0000538dfff82708UL, 0x000057a1fff82606UL,
  0x0000d843fff72720UL, 0x00002d2efff7260fUL, 0x0000473ffff72654UL, 0x0000c8b7fff72640UL,
  0x0000e2e9fff7279cUL, 0x0000d397fff725e5UL, 0x00002b74fff72651UL, 0x00006d10fff726c7UL,
  0x0000b853fff6264eUL, 0x00004a43fff82748UL, 0x00002ebbfff725adUL, 0x000082fdfff72677UL,
  0x00005a45fff82663UL, 0x0000c869fff625f3UL, 0x0000fb56fff6265aUL, 0x00008bcafff7263dUL,
  0x000023f2fff82607UL, 0x0000a848fff625a3UL, 0x00001e2ffff726e7UL, 0x000096aafff726a2UL,
  0x0000e29ffff83b14UL, 0x00000ee8fff92922UL, 0x00008fdcfff82f76UL, 0x0000257afff84af5UL,
  0x00004ff9fff82632UL, 0x00002f1dfff8262bUL, 0x0000dd9ffff7254aUL, 0x0000d366fff62564UL,
  0x00003447fff72569UL, 0x00006bf2fff7265dUL, 0x00006f7efff72585UL, 0x00004d74fff72658UL,
  0x0000ba68fff72665UL, 0x0000cc3afff85723UL, 0x00000c7dfff826ffUL, 0x00003301fff7271bUL,
  0x0000c7e9fff625f0UL, 0x0000f731fff726deUL, 0x0000f3adfff741b6UL, 0x00007dfafff7269dUL,
  0x0000d396fff626cdUL, 0x000014bdfff8270bUL, 0x00009386fff7265bUL, 0x0000b2e5fff72667UL,
  0x0000e114fff72730UL, 0x0000411bfff8274fUL, 0x00003204fff825e2UL, 0x00006727fff824adUL,
  0x00000330fff7255eUL, 0x0000ee6afff62965UL, 0x0000fbbefff726eaUL, 0x0000b686fff725c5UL,
  0x0000a4d8fff726a2UL, 0x0000267cfff82630UL, 0x0000b74cfff726f0UL, 0x0000b2bafff727b9UL,
  0x0000dea9fff725c4UL, 0x0000fdedfff72c30UL, 0x0000f67cfff62693UL, 0x0000d0f3fff7269aUL,
  0x000002cffff827f6UL, 0x0000474cfff826abUL, 0x0000e957fff725aaUL, 0x0000fbc4fff726b4UL,
  0x0000c448fff72608UL, 0x0000b686fff7268bUL, 0x00005534fff82784UL, 0x00002f8cfff72602UL,
  0x0000ca59fff7265dUL, 0x00002d40fff725f1UL, 0x0000bfe5fff72806UL, 0x00005b47fff82690UL,
  0x38007c0000802121UL, 0x3802012308880200UL, 0x00200001342e5d80UL, 0x000001000100002bUL,
  0x0000001100000000UL, 0x0000002400000100UL, 0x380c004200100000UL, 0x0000000700000006UL,
  0x00000011380d0043UL, 0x38110043342e7dbfUL, 0x0000000000000000UL, 0x14007c0000802001UL,
  0x1402004308880184UL, 0x00007cb600060000UL, 0x00000000140500c3UL, 0x0000000000000000UL,
  0x0000002400000000UL, 0x140c004200100000UL, 0x0000000700000006UL, 0x00000001140d0043UL,
  0x1411004300077667UL, 0x0000000800000000UL, 0x24007c0000802081UL, 0x2402012308880200UL,
  0x00200001342e5e00UL, 0x000001000100002bUL, 0x0000001100000000UL, 0x0000002400000100UL,
  0x240c004200100000UL, 0x0000000700000006UL, 0x00000011240d0043UL, 0x24110043342e7dbfUL,
  0x0000000000000000UL, 0x30007c00008020e1UL, 0x3002012300080008UL, 0x00200001342e2ec0UL,
  0x0000017601760016UL, 0x0000001100000016UL, 0x0000002400002ec0UL, 0x300c004200100000UL,
  0x0000000700000006UL, 0x00000011300d0043UL, 0x30110043342e5dbfUL, 0x0000000000000000UL,
  0x0000002510097c00UL, 0x00000013100c0043UL, 0x100f006300000001UL, 0x0000000100000009UL,
  0x101e7c0000000015UL, 0x10007c0000000017UL, 0x3000200100000001UL, 0x10d000353c007c00UL,
  0x10d0002140007c00UL, 0x140020015c002001UL, 0x3800200124002001UL, 0x0000006430007fe4UL,
  0x10007c0000000000UL, 0x1000042400000002UL, 0x0000000000000064UL, 0x4000000010007c00UL,
  0x0000006410007bc4UL, 0x10097c0000000000UL, 0x100c004300000000UL, 0x0000000000000000UL,
  0x00000000100f0063UL, 0x0000000000000000UL, 0x00000000101e7c00UL, 0x0000000230007c00UL,
  0x0000006430000424UL, 0x30007c0000000000UL, 0x30007bc440000000UL, 0x0000000000000064UL,
  0x3c007c00008000e1UL, 0x3c00042400000002UL, 0x0000000000000064UL, 0x400000003c007c00UL,
  0x000000643c007bc4UL, 0x0080014100000000UL, 0x0000000240007c00UL, 0x0000006440000424UL,
  0x40007c0000000000UL, 0x40007bc440000000UL, 0x0000000000000064UL, 0x5c007c0000800161UL,
  0x5c00042408000002UL, 0x0000000000000064UL, 0x480000005c007c00UL, 0x000000645c007bc4UL,
  0x0080024100000000UL, 0x0000000214007c00UL, 0x0000006414000424UL, 0x14007c0000000000UL,
  0x14007bc440000000UL, 0x0000000000000064UL, 0x24007c0000800001UL, 0x2400042400000002UL,
  0x0000000000000064UL, 0x4000000024007c00UL, 0x0000006424007bc4UL, 0x0080008100000000UL,
  0x0000000238007c00UL, 0x0000006438000424UL, 0x38007c0000000000UL, 0x38007bc440000000UL,
  0x0000000000000064UL, 0x000000dd00800121UL, 0x20007c0000802061UL, 0x2002012300080000UL,
  0x00200001342e2ec0UL, 0x0000017601760001UL, 0x0000017600000001UL, 0x0000002400002ec0UL,
  0x200c004200100000UL, 0x0000000700000006UL, 0x00000176200d0043UL, 0x20110043342e5dbfUL,
  0x0000000000000000UL, 0x28007c00008020a1UL, 0x280200430008010cUL, 0x00002ec0342e0000UL,
  0x00000000280500c3UL, 0x0000000000002ec0UL, 0x0000002400000000UL, 0x280c004200100000UL,
  0x0000000700000006UL, 0x00000001280d0043UL, 0x28110043342e2effUL, 0x0000000000000000UL,
  0x0000000710077c00UL, 0x0000000110007c00UL, 0x2000200128002001UL, 0x0000006428007fe4UL,
  0x10007c0000000000UL, 0x1000042400000002UL, 0x0000000000000064UL, 0x4000000010007c00UL,
  0x0000006410007bc4UL, 0x10077c0000000000UL, 0x28007c0000000000UL, 0x2800042400000002UL,
  0x0000000000000064UL, 0x4000000028007c00UL, 0x0000006428007bc4UL, 0x008000a100000000UL,
  0x0000000220007c00UL, 0x0000006420000424UL, 0x20007c0000000000UL, 0x20007bc440000000UL,
  0x0000000000000064UL, 0x000000fd00800061UL, 0x000000000000000cUL
};

ECBLOB_RUNTIME_SECTION
// _ec_blob_network_1 blob, aligned to the cache line size (equal to 64 bytes)
__attribute__((aligned(64)))
static uint64_t _ec_blob_network_1_ptr[1616];

#define _ec_blob_network_1_address _ec_blob_network_1_ptr

#define _ec_blob_network_1_reloc_table_ptr ((const ECFileEntry *)((const uint8_t *)_ec_blob_network_1 + 24))

#define _ec_blob_network_1_xSPI2_RELOC_IDX 0    // index of xSPI2 relocation of _ec_blob_network_1 blob
#define _ec_blob_network_1_xSPI2_BASE_SYMBOL ((unsigned char *)_mem_pool_xSPI2_network)    // base address of xSPI2 relocation of _ec_blob_network_1 blob

// this macro returns true if _ec_blob_network_1 blob is encrypted and must be decrypted on the fly, false otherwise
#define LL_ATON_EC_MustDecryptBlob_network__ec_blob_network_1 false

// this function MUST be called ONLY ONCE once for initializing the network
bool LL_ATON_EC_Network_Init_network(void)
{
  LL_ATON_Cache_NPU_Clean_Invalidate_Range((uintptr_t)_ec_blob_network_1_ptr, 12928);

  unsigned int size;
  size = 3232;

  if (!ec_copy_blob((ECInstr *)_ec_blob_network_1_ptr, (const uint8_t *)_ec_blob_network_1, &size))
  {
    // TODO maybe generate/print error because it was not possible to copy the blob
    return false;
  }

  ECAddr base;
  base = 0;

  if (!ec_reloc((ECInstr *)_ec_blob_network_1_ptr, _ec_blob_network_1_reloc_table_ptr, _ec_blob_network_1_xSPI2_RELOC_IDX, (ECAddr)(uintptr_t)_ec_blob_network_1_xSPI2_BASE_SYMBOL, &base))
  {
    // TODO maybe generate/print error because it was not possible to relocate the blob
    return false;
  }

  LL_ATON_Cache_MCU_Clean_Range((uintptr_t)_ec_blob_network_1_ptr, 12928);

  return true;
}

// this function should be called before each inference
bool LL_ATON_EC_Inference_Init_network(void)
{
  return true;
}

#ifdef __cplusplus
}
#endif
