/**
  ******************************************************************************
  * @file    network_data.c
  * @author  AST Embedded Analytics Research Platform
  * @date    2026-06-22T20:07:48-0400
  * @brief   AI Tool Automatic Code Generator for Embedded NN computing
  ******************************************************************************
  * Copyright (c) 2026 STMicroelectronics.
  * All rights reserved.
  *
  * This software is licensed under terms that can be found in the LICENSE file
  * in the root directory of this software component.
  * If no LICENSE file comes with this software, it is provided AS-IS.
  ******************************************************************************
  */

#include "network_data.h"
STAI_ALIGNED(8)
const uint64_t g_network_weights_array[172995] = {
  0xd3000000f7U, 0xf70000000aU, 0xfa00000028U, 0x17500000000U,
  0x3f80000040000000U, 0x7f00000080U, 0x79767a760000007fU, 0x757a787872777776U,
  0x73757673767b7778U, 0x7470747871797576U, 0x7c74797a71787578U, 0x7a77727372787574U,
  0x75737b7773757876U, 0x7673747277767574U, 0x7378717174777b74U, 0x7a767573777c7774U,
  0x7075747173767571U, 0x7774757575777774U, 0x7778797578747670U, 0x7674767b74717874U,
  0x7575797577777374U, 0x777379767c767477U, 0x7474737474757376U, 0x747477737372737cU,
  0x7975787470737774U, 0x7572767773767779U, 0x717374757a797775U, 0x7377717874767674U,
  0x7775737973777575U, 0x7773737c7873747fU, 0x7675757375777677U, 0x7876787378777576U,
  0x79747c7871767773U, 0x7572727973757875U, 0x767771757a787675U, 0x7577737078787274U,
  0x79747771757b7f77U, 0x77797b7972737971U, 0x7c7a7c7874737076U, 0x777a7d7b757c7c7aU,
  0x7477797b7a7b7e7aU, 0x76777b7d7a7a7879U, 0x7b777b7a7c777979U, 0x7a7d747575797d7aU,
  0x79787d77797a787aU, 0x7a757a797b7a797cU, 0x757a7778767d7b73U, 0x7d7d787978787b79U,
  0x77797976777a7b74U, 0x7a797f7f7c787b77U, 0x797a7d7d7a797e7bU, 0x79787c7677797879U,
  0x767a7b75767b7676U, 0x7a7b7b7a757a7b7bU, 0x767d7879777c7b7bU, 0x7c777c7678767979U,
  0x7a7a7b75797a7e7aU, 0x7779797d7779757cU, 0x757a77787c7b7a79U, 0x7a7c767c78777775U,
  0x7b7c7878787a787aU, 0x7b787c7879777a7bU, 0x797b7c74797c7b78U, 0x787a77797b7b7578U,
  0x7978787a787e777bU, 0x7874787b777c7a79U, 0x7879797a777b7b7cU, 0x787b7b7877797677U,
  0x7c747b777e7b7c7eU, 0x7d7a797878787575U, 0x7b797b7d7a797778U, 0x7b7d7b7e7d7c7b7dU,
  0x7c7b7a7b7d7c7a7aU, 0x7d7d7d7d7d7b7b7eU, 0x7c7e7e7a7c7e7c7eU, 0x7b7e7c7a7d7f7e7bU,
  0x7e7a7c7e7a7b7b7bU, 0x7d7b7b7d7a7a7d7bU, 0x7a7e7a7c7b7c7b7bU, 0x79797c797c7c7e7bU,
  0x7b7a7d7d7c7c7e7bU, 0x7c7b7d7a7d7b7e7bU, 0x7a7d7b7b7b7d7a7bU, 0x7b7e7b7a7d7d7d7cU,
  0x7d7e7c7a7b7c7d7fU, 0x7b7c7c7b7b7d7e7dU, 0x7c7c7d7c7c7b7d7bU, 0x7d7c7c7c7c7a7c7cU,
  0x7c7b797d7e7a7c7dU, 0x7a7b797a7b7d7b7bU, 0x7c7d7d7d7b7e7e7bU, 0x7c7a7a7d7a7b7b7bU,
  0x7b7e7d7b7d7d7a7bU, 0x7c7d7e7c7d7c7c7cU, 0x7b7c7c7d7b7a7d7cU, 0x7d7c7d7d7d797c7dU,
  0x7b7b7e7b7e7e7b7bU, 0x7c7d7d7a7c7c7b7bU, 0x79797d7e7d7d7d7dU, 0x7d7e7c7d7b7d7d7bU,
  0x7b7b7c7c7e7a7d7dU, 0x7a7e7b7f7b7c7e7eU, 0x9f3ab2b67b7c7c7dU, 0xbd3fe4c3c6100bd9U,
  0x2bc25f35a5b49b2bU, 0x28add66550b5b95fU, 0x600c9e57c301def6U, 0x356917a58425be15U,
  0xcf325d3262487fd4U, 0x562e976334906849U, 0x32008de320359a4aU, 0xb69d3e0e5c677c5cU,
  0x4937cde0c2c11f92U, 0x1987393b258c12efU, 0x6cd4f4a764b66480U, 0x67b7dddccf364a09U,
  0x57b5983e47183eb5U, 0x1ea5efe4ca3365a3U, 0xaf2c9e7fc3b021ccU, 0x39330b437b6e69b0U,
  0xeb3d09fe09fb2ff9U, 0xf546dfff2819e525U, 0xdc80fff73c1516d3U, 0x35b0afa499be271U,
  0xf1121502600c31fdU, 0xf6110aeb18fd01feU, 0xc1079333e33207fdU, 0x27e3d50f5be54542U,
  0x33f549ec0a03ecc7U, 0xc042ce4c40a231dU, 0xf7ad177a25f70a58U, 0xecf9d31434684b24U,
  0x1215e60909451103U, 0x2b0ffa11f34ecad2U, 0xe36ab276fa2b1521U, 0xf2fa14e1cb154cd7U,
  0xff12191fd00f0901U, 0x1ce4bb0ff3f0ff22U, 0x8dbdda6b1d02fff3U, 0x9d110db0a54fba4U,
  0xf1e8e410e6e2f8U, 0xf603f2d22ff7f504U, 0xd336da57ff0ff3f0U, 0xe7190db3011131e6U,
  0xf1ee180700e3e6efU, 0x15fcc1f91713cb2aU, 0x95b6d452f81aeb14U, 0xeafae9cbfc3e26cdU,
  0xff0c03d524ecf2dbU, 0xdaddf5da09e90900U, 0xbe7ffae5020e06f0U, 0x1c3001f6eaca07fdU,
  0xefde923ccd31ddeU, 0xed5f61cf50bffccU, 0xf4e3805d040ade14U, 0xf6dcfaff0d3b3bU,
  0xfde8def6da05fb04U, 0xfe0c1ecefb011be2U, 0xc51138c6e1e106f6U, 0x1205f9eef1b60e0dU,
  0xebf61313bbf5de04U, 0xf70cd6f0041d0bf6U, 0xd7fde3e9ec10e8f7U, 0x9e3140421e72127U,
  0xfe17f711f4e507d0U, 0xccfff3de14161b06U, 0x797b7d7cca0800f4U, 0x797a7d7a7a797a7aU,
  0x7b7d7c7e7e7f7d7aU, 0x7e7a7d7d7c7a7d7aU, 0x7c7a7c7a7c7a7c7eU, 0x7d7b7d797e7c7d7eU,
  0x7b7d7d7a7c7a7d79U, 0x7d7d7e7c7c7e7c7cU, 0x7c7d787a7e7a7b7dU, 0x7d7d7d7d7d7b7d7cU,
  0x7b7d797d7c7a7c7eU, 0x7c7e7b7b7b797f79U, 0x7d7b7c7b7c797b79U, 0x797a7979787c7a7dU,
  0x797c7c7a7c7b7a7dU, 0x7a7b7c7a7f7d7c7cU, 0x7a7d7d7a7b797d7cU, 0x7c7a7c7d7b7f7a7bU,
  0x7b7b7d7d7c797c7cU, 0x7f787e7c7c7b797cU, 0x7a7e7a7d7b7c7f7cU, 0x7d7c7b797a7b7e7bU,
  0x7d7c7c7d7b7d787bU, 0x7c797d7e7d7d7b7cU, 0x7d7d7d7b797e7e7aU, 0x7979797a7d7e7c7aU,
  0x7c7f7c7e7c7c7c7dU, 0x7b7b7c7e797d7d7aU, 0x7b7a7d7c797d7a79U, 0x7f7d7a7b7b7b7c7eU,
  0x7a787a7d7c7c7c7aU, 0x7a797b7b7c7d797cU, 0x7a797b7a7c7c7c7cU, 0x797c7a787c7b7877U,
  0x797b7978797c797bU, 0x7b797a7b787d7a7cU, 0x7c79797b7a787c79U, 0x7b797a7c7a7a797cU,
  0x7a7b7a787b7b797aU, 0x797b7a7b7a7a797aU, 0x7778797b7b7c7c7cU, 0x79787a7d7b7b7978U,
  0x7579797c7d7c7979U, 0x7e787a7b797a7a79U, 0x7b7a7b797a797b7dU, 0x7c7a7d7c7b797a7bU,
  0x7a7c7a787c7b7a78U, 0x7a7b7a7a7a797b7aU, 0x7b7a797b7b7a7a79U, 0x7a7b7e7a7d7a7a78U,
  0x7c797d7a7c797b7aU, 0x7d7b797b7a797c78U, 0x777a7a797a7d7b78U, 0x7a7b787d7c78797bU,
  0x797c7a7b7879797cU, 0x7b7c7b7a7a7b797bU, 0x7d797b7a7a797b79U, 0x7b7b7d797a7b7c7bU,
  0x7b797b7c7b7b787bU, 0x7d797a797a787a7aU, 0x7a7b7c797c7b7878U, 0x797977787a797c7cU,
  0x7979797a78797e79U, 0x7d797979797a7b7fU, 0x1411a0f4777d7b7aU, 0x99f53230c13cf0b0U,
  0x24d8deb44aa9f3b8U, 0xca2d5911dcee06e7U, 0xa4aa31c68023a2b1U, 0xfc057118fd36305eU,
  0x123ac7c1178a58e1U, 0xfe09c3fc4dbbd28bU, 0x9ae8b4becf3942c1U, 0x15d7d11958e94502U,
  0xbc0bb233104af0fU, 0x34d48b1e5648ae5eU, 0xb7eab53d22f8dd38U, 0xc201e05aa2e8ac29U,
  0xa9e7f3c333381c11U, 0x7f07d0b0c2fec1cdU, 0xd4b9e23232144132U, 0x20b6d6b4ba3fdd42U,
  0xc58af9f12ae73bf7U, 0x4eb5d9312dba32dfU, 0x309fa0eb65c011e1U, 0xe9b549a349c2eb02U,
  0x1780da01b4dac73bU, 0x62eae73a23a5c3ccU, 0x481f54a850d2e950U, 0x4dbe0c8a2afd294cU,
  0xe816c2090af0e062U, 0xeaeeffb0f1dbf01eU, 0x47d27f00dcf65516U, 0xf2cf9d40d1062222U,
  0xb140971562cadbe6U, 0xe23314b12caf15f7U, 0xf660e358f8a5fce6U, 0x34031c44310e10b5U,
  0x6fdfdb11d1f3d27U, 0x2a7a29562b35d9e2U, 0xbb9d910d48c3e929U, 0xe3d85e3228dc2044U,
  0x47d1ff6802756f7U, 0x465a68eed20a68e7U, 0xe467845fcdf8f0c8U, 0x18571a295f24fb9bU,
  0x14f0f8001bf36b38U, 0x3425022c515924dbU, 0x72d90b6fe50e584fU, 0x1fb300e3bf3764aU,
  0x703cc1f328df1fe1U, 0x56d72a18fc456341U, 0x2061529332485144U, 0x731e3edff20b2c1cU,
  0x540506e36a362832U, 0xd410fe30f7231becU, 0x307a422a2f047619U, 0x394b49131b312466U,
  0x2c44c2173205243eU, 0x2a4449df19fc3317U, 0x7f035017c43626f3U, 0x6a25c1d5fa487cfeU,
  0x1d0010224cd3f209U, 0xf8390a0315f62023U, 0x32b6ba41bec3d02U, 0x327065a430322104U,
  0x2f693a0d1e2c0f58U, 0xdd423af403164a23U, 0x1420d6e90411fd15U, 0x17013303e0d2271eU,
  0x351033daf926f9d4U, 0xb0f2080b0009101aU, 0x6122f0df70220fbU, 0x14f2d0fefb063728U,
  0xdf21160cfa30e82aU, 0xe5f7001808f3ee00U, 0x714feecce1ad4f4U, 0x190f01ce00f8cb13U,
  0xf42405f7032cdcf3U, 0xed0f2feff7cbf8fbU, 0x6f7f9db0224560fU, 0xda090d0c18ce0ce0U,
  0xe1d04dffc0ff1aU, 0x10ade1bd6161602U, 0x27f108032d19e0f8U, 0x32f8240214f6f810U,
  0x212131e05e4f203U, 0x4caf8eaec29201cU, 0xe40c1c14e0fd220fU, 0xfec2af632311528U,
  0x20fd10e92300054dU, 0xf1ef000cde28fd2bU, 0x62af7ff381f56e5U, 0xfee8f416da071b16U,
  0x1615f6db0dd70030U, 0xf3f60a0fe414ee0cU, 0xa1e90dfe0508f111U, 0x121ae0eff80bf1e8U,
  0xeef21e0e1708bcf1U, 0x707ecdb052de517U, 0xff20f529f1450c08U, 0xff071f14284815e9U,
  0xea1c321b0ddefbdbU, 0x1727ea300af9f6fcU, 0xfec12e713312400U, 0xf0240c1118caf4e9U,
  0xcfeb05ed23f6f2d0U, 0x4f8ef1c04fa16fdU, 0x101d18290e061009U, 0x3c042ee10e0cd42eU,
  0x30ff1614212f110dU, 0x4d41e2112fcf4feU, 0x12f5d10c2a1909e1U, 0xe3ec1fd906ed1e14U,
  0xf70425ed0bef0910U, 0x16d90b190f19d9f6U, 0x2d0d17e708df3fcaU, 0xfef4e4f90e0dfe00U,
  0x1e1bf5fb1cf9e019U, 0xf9df09f20af01006U, 0xcec2fe07e9e51c24U, 0xea232e0515eff302U,
  0xff47d2f93a16f023U, 0xe4e32ac41de70f3dU, 0xf0cf2b0e0d0ee40aU, 0xfe2317180622f3f6U,
  0xe510f0f916e3db16U, 0x2306e6102a010be1U, 0xf40a07fd0af618dcU, 0xcae63a29dff5e11bU,
  0xfbead20702e41c23U, 0x3eef2e3f7f012e1U, 0xf119ec220fe22716U, 0x4cec20fffa10dbe0U,
  0xe11a25f805ea12e8U, 0x122416eb29112307U, 0x13f8ccf00a2c01f4U, 0x5c3306d5f8320414U,
  0xdb00cff0c180ffcU, 0xc60cd3f331e952f7U, 0x2edafafdefdeeb32U, 0x3c2c071bd90b30f4U,
  0xdfd038eb26c0e919U, 0xeee1f608d3020af8U, 0x1b1e130df62206ddU, 0x419efd7231416daU,
  0xd4e6f72a18272a1fU, 0x2b111e271d14f84aU, 0xcdee02bcf2e4f334U, 0x1b20fb0f2a1cdf10U,
  0x2f142f20ee06025cU, 0xfcffff03e4fddffaU, 0xd1f60dfaf7e01620U, 0x60aeef6243323ffU,
  0x352708fe011ceae6U, 0x211c2e17f12c0ffdU, 0xe2d72d00fafcf707U, 0xe6f7f729c71915fdU,
  0x1a0c1fea2b4132b4U, 0xc50c27fb34b3fa00U, 0xfef80001f427001eU, 0x26d2020f1f272728U,
  0xffe8ebe125164c29U, 0xe20217e8d30f3b02U, 0xe4f7e20accfb14e7U, 0xdd021120cc0a0cffU,
  0x1fffb0511251003U, 0xe4f4f3fcf1f91309U, 0xfd2bcf07fdfe2eedU, 0xe8f4230fc3efe5f6U,
  0xfee1fb1b16f924e8U, 0xcf905e72af31d0eU, 0xf20a1d10edcffeeeU, 0xd50304fd1dd4f3eeU,
  0xed1c10fa150af3f1U, 0xece9110defddfde3U, 0xf110d24f1f10a1fU, 0x91ff30006ff12e9U,
  0x527dce6ddf305faU, 0xd41f320d1848f9edU, 0xa2c1def05f1fffcU, 0xe7c9d943030d08c9U,
  0xb11327ff2fe6e316U, 0xfa0910f9e516dfd8U, 0xe6d915eff8e10f0cU, 0x260a01e8f612f0e1U,
  0x27eb4514dd29161aU, 0x4209052b31e930dbU, 0xe92f0e410111f812U, 0x422dee3e6fb0621U,
  0xc03ff0bf6e70f02U, 0x8193bf404f2cf09U, 0xd3e0d1e0f321ed0cU, 0xf6f5f6fb1d170af4U,
  0x50b11410be412e5U, 0xd605e1034c21f0efU, 0x10240405f805df04U, 0xe8f32f160f0716deU,
  0x10f3fb0c0603eafcU, 0xf90a0119d40000f9U, 0x24df200618edfacbU, 0xbfd08cfb80a1ceeU,
  0xf4f71809360327U, 0x80426ecf8fef5f9U, 0xd2801b90f0b1d3bU, 0x180ee20c1d0d1115U,
  0x4fe010f16ea2d0fU, 0xecf800dbe4dff309U, 0x17f2001aea08f25dU, 0x9091a0edf0223f6U,
  0xf61b03cf0e2fecd3U, 0x5f00c0230f926ecU, 0x1502f4cc2e261feaU, 0xf2e2061910ee0e05U,
  0xee1df40b09eaeef8U, 0x2901ebd6eeeae217U, 0xcfd71af6eede2df4U, 0x1cedf62605ee28f1U,
  0xfadcf104e5faf3e6U, 0xee0fe70dd9060c2bU, 0xf3021408e0d026f8U, 0xd812d5edf30b0941U,
  0xf1efebfc2bebdbU, 0x816eae2f60ef011U, 0x250bf6d5131b19e6U, 0xee1f00231833d60dU,
  0x2ed30a110bd1e9ecU, 0xffe0802f40b0dceU, 0xf31303eb070d3e1eU, 0xe3fb2d3b244a28feU,
  0x180e23e9d0ebe61aU, 0xf1fb2e19be1cf40cU, 0x64419fb0fed15fdU, 0xf9fd06fb041ae8e8U,
  0x4d41f0df4ee0f1cU, 0x1cf1f709f00b46fbU, 0xfbf72defc6e8d1U, 0xfa2a34ed12ed00U,
  0x2118f529f00de120U, 0xfd151d27f8fe0a27U, 0xebe901f7fe0203feU, 0xe0ae7261ef83925U,
  0xc9f4dee7e8e8faf8U, 0xf20aeee11328011dU, 0x1e21fbe7f1fdf2e7U, 0xf30d0dbbd9e80be3U,
  0x12dce6e7f9f802feU, 0xfdff0b17e1041c25U, 0xed18fd2d5de9f027U, 0x1c09fef2ca1eff1fU,
  0x21fff7f8f5f614faU, 0xe42ced1f05f417c1U, 0xfbf8200cccf8ee01U, 0x16f7e509ceee3f02U,
  0xdde41540cf00f7cdU, 0xfa0ce117fcfb04ddU, 0xd8efecd8fa181103U, 0x100d25d5cc25150fU,
  0x150d25d4f2f40216U, 0xf42009dafff2e914U, 0xf5f3fe0af6272c09U, 0x2210ef36182f2a11U,
  0xf7e0d818330decefU, 0xff72232e54fe0e8U, 0xdad434c8c3d030f8U, 0xbf4f5110b091500U,
  0xd829f418dc070e05U, 0xfe13fd0a06f7f9f3U, 0xdbed0206e8f80bc4U, 0x7f82bdcf9ed261dU,
  0xfc2a26fef8ee2ee3U, 0x60715ec0a05f04bU, 0x360cf81402e52208U, 0x43ef6efeaff180bU,
  0x27d52910fb16db1cU, 0xdae2fd001fe9fa44U, 0x3ee916f4251afbdeU, 0xa201b00fee8f5ddU,
  0xe0021d10f1e202dfU, 0x13ec0d13d81aec14U, 0x1219e1bff0f1dc24U, 0xf0f4fbd4fa120d11U,
  0x28edc2ecf5fad5f8U, 0xe1c31302cfd15e7U, 0x3fc2fdadff5cd32U, 0x19f900160beb23d0U,
  0x5f32afd21e5fee9U, 0xf424eceae6111d0cU, 0xe5d181d0201140dU, 0x7f5f7de1cf0dd0aU,
  0x11dfd20b2001f0ecU, 0xee002cf4df2221f7U, 0x7ea3be40c06e92aU, 0xf331e701eafdca22U,
  0x2329f0f5060bf7dbU, 0x4e1f31eecff1e1aU, 0xe04100a16f6f541U, 0xe5faff0add22f348U,
  0x9f406ef181ed0e8U, 0xfa0e1e0df2070912U, 0x7b8fce2102f1805U, 0x23f3ebf5e50b1428U,
  0xf5101e0ff6e8f90cU, 0xbe5fbfae410eac6U, 0x1f011a0a4f1af200U, 0x1e040e23f309f6cdU,
  0xeafeff1d10041a24U, 0xea0801e413031e1cU, 0xf1ee46cb2508eb05U, 0x55f3e502f0e9f415U,
  0xff1117efeefc2ffbU, 0xefd0420cdeb2b11U, 0x1cfca84f1409ed20U, 0x218de1b031438fdU,
  0xd41af801eec92d3eU, 0xf1ffc17f70ce8f5U, 0xeae9042af700fcfdU, 0x22fd04e934332906U,
  0x17ee2826cde4ccfaU, 0xaffd52425e3e3fbU, 0x13e002f528ff3520U, 0xaf8e419ed000c0dU,
  0x1ce8f2eefef9effbU, 0x2102f409f7aa05ebU, 0xfc02f807dbe7e21dU, 0x443e17f31ce22cf3U,
  0xef6dafce01919e3U, 0xef242120e1fbf012U, 0x66f08ea09cdf104U, 0x47f92200d105d7dcU,
  0xf7f608d6d806ee47U, 0x51d04f8dfe1f4f5U, 0x3dfd31d392ffc34U, 0xe004f606fb0201daU,
  0xccdb1602f2df0d3aU, 0xe71e01ec27f6090bU, 0xbf2412e232013807U, 0x1933def5e3100c03U,
  0xad9f0ea191ceee7U, 0x11031f26f0f6f504U, 0xf90b4bff01092ceeU, 0xfa02b5ec0c210e0dU,
  0x1adced1415f1fbe5U, 0xe4fff90ded091610U, 0x230ae7f3ffdef80bU, 0x36d7fc091425d320U,
  0x181a1ef7f00e2601U, 0xc1412e6ed320c27U, 0xfa0c0df2ebdde42eU, 0x301290d0b060f16U,
  0x9ecee01d42c2919U, 0xf1030006e10d000aU, 0xf1fa03ce14140016U, 0xceff40aef3af934U,
  0xdabef512e3c326e3U, 0x901e5fb200c03d7U, 0xd4170ad7e917e600U, 0x7e62103fbf53514U,
  0xf04f20efc05c8eaU, 0xdefed5ead8f6e504U, 0x20b403fd2cfd33e7U, 0xef0800fc0235f505U,
  0x6f2dcd4e60cd5U, 0x1f0e11915fe1bf3U, 0xe5d30c19010fd518U, 0x7d3af0ee7e9f907U,
  0xfb07f0ea1d0af711U, 0xe1e015a9ed13280cU, 0xfde70f06040cfbd8U, 0x3de40e1a35131637U,
  0xfad41dfeedf80f0cU, 0xf15b040c010af51bU, 0xfee31d070112eb0fU, 0xeedd07e7d3d70c04U,
  0xf81848dedff317fcU, 0x112cf70c42f7f800U, 0xaa2ecf0aeff1e41fU, 0x3f26ffdfe31332e8U,
  0xeafa07e60e030de8U, 0xbd1fb1d1d2f14e8U, 0x23f101e81e02280dU, 0xeb1df11b282512fcU,
  0xcf1a070bc01fff28U, 0xceea23e220c904f9U, 0xb12b509ea281925U, 0x9fcf22cdf02e3e5U,
  0xbbffed380dfefae2U, 0xff1cf80e27f94330U, 0x3af413dbf830f2e4U, 0x14ee011ae0f72cf6U,
  0xeaebe302f4eff2beU, 0x1125f904f1f212e6U, 0x7d6ee0d16f800e9U, 0x4f616dce80bcf0fU,
  0x3001ecfc080409faU, 0xaf80ff4e4e3f9e8U, 0x33d6f9e321fbfd13U, 0x5082424231404e7U,
  0x1cfbf5f4edee5202U, 0xc1bebf90e1de40cU, 0x31bd6d0111c0805U, 0xd914e72df2040300U,
  0x13ff2eceedfb0ef1U, 0xc10e2411182f2109U, 0x100905f33be60a38U, 0xe1f9283a1a060bdfU,
  0xed0021ec36061413U, 0x4f9e2ea0624dfU, 0x1a040e03f3bc1cf6U, 0xe0e812d90afc0609U,
  0xe7e1052bd90ad63eU, 0xeef71534f9ef11feU, 0xebf4e1d7132ff91eU, 0xf72a1f19d8f913e0U,
  0x15e807f7e4020ff9U, 0xef1e0b103312e6faU, 0xefe601e71df6d717U, 0x17f4060fd7f1dc28U,
  0xfaec0b1c33fd25f2U, 0x391012ce12183c12U, 0xf1fb0fea031efd32U, 0xf6eff51419152514U,
  0xf11a1604c2150eeeU, 0xfc15191c0fdff32cU, 0xee19d9e304f80d06U, 0x1cfefc02d4dbd631U,
  0xf9e026f41300ebfcU, 0xfe3b352a0f02e91bU, 0xe9eae801e60d1c1aU, 0xed29010816d70c05U,
  0xe1e8270c1822e62cU, 0x200c00fbe70ff102U, 0x5614f140de07001dU, 0xfffc2a091b0d0610U,
  0x26f707f1fa0d2931U, 0x415f8ea170e0722U, 0x5d5e033c811132bU, 0xd0ff523f1ea0aeaU,
  0xdf6d2010bf62718U, 0xed06c82f1ff4fb06U, 0x2e130a2f18b9e701U, 0xd509e3f003ca16dbU,
  0xf0f809fa0a2dfe19U, 0x101c15fb2918fa0dU, 0xef1ff14f1f911ffU, 0x4726112a00071d0fU,
  0xfbf90b0aee041012U, 0x55e42309060941e1U, 0xdc13ee27e60de4efU, 0xed13fd002eeafafbU,
  0x4316fc083138d002U, 0xf615e5f2daf120e6U, 0xf910da08e822e407U, 0x20cd27f10b1c0700U,
  0xc6dd0ffd4e1d06d6U, 0x13314d6facdcb1cU, 0xa19fd0c18f8ddeeU, 0xeb0af3fc0afe21faU,
  0x30a7ce273d29371bU, 0x3ce431052bee1c3bU, 0xf7e0ffd71320f001U, 0xf0f11e141b0002fdU,
  0x1a032d19f20ff6f8U, 0x420ecfd1ef422e2U, 0xef04c11133f8eb21U, 0xfbddde041fd907e3U,
  0xefe8ed14fcaf19efU, 0xf801eafe292ce7e7U, 0xdedee04ff051315U, 0x36f41624d3291823U,
  0x5f12fe08fdf908fdU, 0xcbf42af8edfaf601U, 0x2101221615e1110cU, 0xf05240a11dffb09U,
  0x2231ee0915ea0ad1U, 0x32c31b13f5142524U, 0x5506c6ea29f60823U, 0xfbf7c83abb1b2afaU,
  0xe8d5ef26bce4d2ffU, 0x130f33ff17f60ce2U, 0xda01f10d06f92126U, 0x22bd80ceeb426U,
  0xd6fc1229f8da1e1bU, 0xea01cfee17f6f122U, 0x8f0c9f4ecfc26f4U, 0x1f2534f738e6ef47U,
  0xf0df1fe9dfe00514U, 0xfa14faf0f714e631U, 0xe2f924f3ef05f6e6U, 0xef14f1d72c0ff84fU,
  0x2dbd13edcd37ee13U, 0xf01add1a02e9f903U, 0x210031f9fd0a26faU, 0xf30eee24f3f518e4U,
  0x200e91e142507f7U, 0xe5dfefd1ec091025U, 0xffe60efe07e2f435U, 0xfaf30d07040d23f4U,
  0x18d50ec3e0f8fd05U, 0xa10e609f4f4dd01U, 0xe42e07ecefd53a0eU, 0xf7deefdae602f610U,
  0xe9cb191b1d1b03d5U, 0x210af5162116f102U, 0xfaebc20bef0b1204U, 0x1c0b1ffcf7eafbedU,
  0xf11f1bf51bfb12fdU, 0x1c32f610e41420e0U, 0x1817b622d4e3f5dfU, 0x1b07effefa17e2e4U,
  0x8f4361ef8fe25f0U, 0xe9f23efb1b0cfdddU, 0x25492bf7dde7d3ffU, 0x35e814e9c6e91b0bU,
  0xd11806e10be50a35U, 0xd010f7fbf22d3afaU, 0xf151dcdd503da16U, 0x93b0a1316eb1f52U,
  0x132dfb42cbdc3bd5U, 0x4dfac9f0f2ffed27U, 0xcb7bd610de049e7U, 0xdcd9fbdc14fef11bU,
  0xfee6bdeb1a12d134U, 0x1b07d3e8ed491942U, 0xbf7def5d01880f4U, 0xb72815fc162bff04U,
  0xffea1110271a2f21U, 0xe81140c816ee2319U, 0xea35be2d01ed3735U, 0x1b0335f519e32f23U,
  0x1abf024a24121901U, 0x1630fef1c301e123U, 0xed36100635dcc50aU, 0xc3180315da14df00U,
  0x1335bfd9db5e01d4U, 0x24e2bf09431015e3U, 0x44f3bf25f8e7eed2U, 0x12f1fd042cda0240U,
  0x3614e8c40a2a14f0U, 0xf3fd04de0b48ffeaU, 0xc3ea13f3a252b4d7U, 0xf40bf218f6252fe7U,
  0xebd0df2fe2181e13U, 0xdae0f5dbe8fde61cU, 0x14d1cf40548e4f1U, 0x3e5b2720e0ec031cU,
  0xf81d14dff0fcef28U, 0x162ae03aec2e0ed2U, 0x382afc07c9c901efU, 0x129cdec1504c8ffU,
  0x6ce02f6c0e10530U, 0x6fdf30dff0eef4aU, 0xb51721050de4f0feU, 0xe4ec070a0af5df14U,
  0xff04d20d7fef6b1U, 0xf4dbfef814f01816U, 0xdf2afbecf20fe4f7U, 0xfae016f93209fffaU,
  0x1fe6fcea2a18fd00U, 0x10e6fd011217fe24U, 0x1c100c1de3e4e805U, 0x7020acdcc050003U,
  0x31fed2e4e81ee61cU, 0xe2191021d7e018f8U, 0x21efbc04f116ddf6U, 0x1514e917160700edU,
  0xb1e420afbf6df1fU, 0x3d2d04fa070ff1ffU, 0x1aeb2104e5110ff2U, 0x41de923e8e5b906U,
  0xdff6cef50c02e9efU, 0x1d26e1fcfbeee71eU, 0x12db19ef0fe9dde3U, 0x4fc423af0f30af5U,
  0x152d0a0f390a2337U, 0xd821f721bfe6eb07U, 0xf9edf5dfc1260b08U, 0xe40309faedd427ecU,
  0x15042e67faedd929U, 0x12103d90bf0e224U, 0xff240cfd1f2b2405U, 0x195306ee2401ee51U,
  0x1602e91efef1083dU, 0x3e8d31700e52df9U, 0xdf26dcf32bf3e1d2U, 0xcf1511d0e2ce02f4U,
  0xfa04fb0af0e92fd9U, 0x34f208eb0232f5f4U, 0x1ed6e20ae41f2df6U, 0xf0a02ecf10021f1U,
  0xf02716d3caf21111U, 0xbf1af9d21d17f1c4U, 0xfb39fce92c24dbe1U, 0x17f218fd2603fc07U,
  0x4f09fe0b0a1211efU, 0xe80015ea02f7f108U, 0xdf2719d6fe192ff6U, 0xe74930f609eeee1fU,
  0x1de7031df90a363bU, 0xb18fd110efafffcU, 0xe40128ea11f3ec40U, 0x220df90613cdeff6U,
  0xdff70105111a1009U, 0xeb48d4fd2aea01ebU, 0xfce708d11623160fU, 0xfd14b3e41d15e307U,
  0xeb0a23f9e6f9fa0cU, 0xf2f3fb1f1f1ce626U, 0x120130f0e3fe3322U, 0xe3f700d411dffad0U,
  0xf12fe225f1e40ef8U, 0xdcf42bf418d50bfcU, 0x15fcfb2b090cfd0aU, 0xeb42fa0826e51a15U,
  0xc6f7051ceefbdeedU, 0x1d140a48c6f417ffU, 0x11d10f1d722da05U, 0xd8db01e50f00e807U,
  0x111306f00d01e5fdU, 0x172f0d03ece9fa0eU, 0xf9f82b0406471703U, 0xe00558d9e6251ed7U,
  0xfde6f0cefaff03f6U, 0xd4011aeeea0b021bU, 0xe928f60e10f0f0ccU, 0x4032534f40c271aU,
  0x1a1506faf9013a1dU, 0x12eff4f40dfffcf4U, 0xa2501282ffb23f4U, 0xee210cea3805f917U,
  0xf9020e1403fb210dU, 0xe4f2f3141ebd0723U, 0xe401be0b02211cd9U, 0x13fdee01fee728dcU,
  0x1defc90d18e4f20fU, 0xddc8f9ed13c93225U, 0xf1d6f3c008141af6U, 0x1d04c0f1420015e5U,
  0xffe0f504ead5014dU, 0x23161429f218eeb9U, 0x51f11fafa050c0aU, 0x16ed27fe00292c09U,
  0x1efc26143ade08bcU, 0xf7d912ecfceff3daU, 0x2743feee12ec0e0cU, 0xde24ebd80c1b07f2U,
  0x2904e528ebf6d2dcU, 0x3d00ccef0fd231e6U, 0x131308380beaf80eU, 0xf1fef9d6e850dffdU,
  0x1e0cf5e31b13f4f4U, 0x401fb0132ec1f17U, 0x11e6e206d91a2809U, 0xf3c6f61eef10ff02U,
  0xfe0703a504055a20U, 0xe3531eede90609daU, 0x9caf7ef16170ee8U, 0x1404fb1909011524U,
  0xdc0309d6f9e0e6U, 0xf3e11d0b28d6e7f8U, 0x1df51a13050e4dddU, 0xd80032f3fcd904f3U,
  0xc2060d11fffc00f4U, 0xf32212de12080af1U, 0xd0f81918fc13f9f6U, 0x30ce12e419050ed3U,
  0x151f1509fe070109U, 0xf105de1d060c36f4U, 0xe1d4faf51699ef00U, 0x1d2828f00eeafa14U,
  0x14e428f3f20d1a1bU, 0xfe2a1bdfd6171045U, 0xe3fd30361c0c0aU, 0xd4091524e5f115dfU,
  0xe507de06d6fc4cf8U, 0x1701240e14f1fb04U, 0x506e407fcf4fb04U, 0xff21f6fe18e31123U,
  0xd4ec0d04c902d922U, 0xe2311ae0e830dd3cU, 0xf0eee0ee15dbd3d8U, 0x6fd1aed0b2bb809U,
  0x180b25093620162eU, 0x14f01fd74105e516U, 0xfa021615f5170df0U, 0xc1f50e00bc0d001dU,
  0xeb3112c70ad12007U, 0x6e1160af6e9d8efU, 0xef601f0df15e9beU, 0xd833110c23071025U,
  0x1ed3fc330010ebf6U, 0x21e960fe05decae5U, 0xd61313d8cfe6f7f8U, 0x2f0a2a100100f6e1U,
  0xf0ebeb13e800edffU, 0x39f21de3111cfb2cU, 0x36fbe3230ed71ffeU, 0x2ff7f9fa0047ef16U,
  0x4c6ff0f1705ebecU, 0xc8f819fddf271623U, 0x2b171001f5e8d7ceU, 0xe90df1faf4f8e705U,
  0xfcc7ff1fe2cdf935U, 0xe7000fda0dd6f511U, 0x2323380eaec5f517U, 0xe9f9e0f6ff1c4aeeU,
  0x1bef3c162902fecaU, 0x34df4d2512caf510U, 0x415dd0bfdf9e0eaU, 0x1a2410eb0f02fa2bU,
  0xe91b083c0609d424U, 0x670ced18e5ecfe11U, 0xebd6192d170cf3d7U, 0xe1f0f2c6f800eaedU,
  0xf5f3063fd307efcdU, 0x7ff07170e57cdefU, 0xf2e73337e808eef0U, 0xe5161210ce0fe2ffU,
  0x2005ee2edd23ef03U, 0xfe0f26f2fd2ffabaU, 0x1efd0d0ef71affdaU, 0xad14fbf2f63f1305U,
  0x290718e4f212e2f2U, 0xf5f93efa0df7bcf2U, 0x21ee0ea0207fc2aU, 0xfd2e4009e4f32111U,
  0x15f624260318e6faU, 0x1deb2c1af8f4d305U, 0xf9daefd4ed2113fdU, 0x61ebaf8d50c2b06U,
  0x7f9fefe12f3042cU, 0xc61fddfa23bafeefU, 0xf71745080e1103f1U, 0xd1d9f407f8dddfe4U,
  0x7f21642f1c02e17U, 0xfd240a26e1e5f0f5U, 0x3f914f919d422ebU, 0xeae706aa16131023U,
  0xdbfc001af3f433d2U, 0xf4d11b0313f7e20eU, 0xf5f901d4331d0c37U, 0xfdf9e419292209ffU,
  0xf4fff00f2121f2e0U, 0xe621bd06e2411b0cU, 0xebed020938e2deU, 0xccee5f8ebfd0819U,
  0x10ae621f10102ffU, 0xeb07f11ada15e0ebU, 0xd31605dfee17df1cU, 0xeff5eb061f4bfdddU,
  0x3ffb11c9210a0d19U, 0xd2ff0d06ecf8fbefU, 0x12f71bfb07270dabU, 0xeafb02e910d9073cU,
  0xd5081807332ed1e6U, 0xf2e519f409c8e0d1U, 0x17002cff250012f8U, 0x35121aff1f16110cU,
  0x20eed0382a442fe9U, 0x2f0ead2e23002ebU, 0xff2abaf3e8121a06U, 0x2617fc2cfbf5460dU,
  0x310ff3011c19e33fU, 0xa7e8321919c41ad1U, 0xfef9153afee75100U, 0x1e15f5ee31f6fcedU,
  0xc34210180dfa1b17U, 0xf9100bcccc262fffU, 0x1d172c1c0ee7e020U, 0xed120a18e51510eeU,
  0x2ee12f700f8f0edU, 0x2ae91b0909e6061dU, 0xe9061dfbdf17f941U, 0x616d2f304164513U,
  0xf5e8ebf8f3e0c010U, 0xc0a1440ee09061bU, 0xfcdb10e6012f9dfcU, 0x2dbeefbeb23f8ebU,
  0x171e0712f50fe71fU, 0x23fb2a060e30efeeU, 0xcdcf3fffd4e2280cU, 0x7eb10e5160edff1U,
  0xf3c3fbdd0c081839U, 0xf20fc6fbfdea09f8U, 0xe0f8e80ce4ffdcd0U, 0xe021afd2e07211bU,
  0x221ac6e1e106fafeU, 0x1ecf310810e8eaf8U, 0x2e23120701dbdae5U, 0xec121af8dc541dffU,
  0xecd9271820220925U, 0xfef31e0ef4f61e1dU, 0x22e0d02da03735fcU, 0x10b824e82c1ce6d8U,
  0xff2cddef0109204eU, 0xd5d2e50425f2f7f1U, 0xdc18eadae82fee14U, 0xcef2afe61cd3eb29U,
  0xd4c12d190d08212fU, 0xf8bdcfef08c413f5U, 0xc31b1ee210032a3aU, 0xe2f5e437e7ebf8daU,
  0xfb1328f51716faceU, 0x2e3302b0ee3061aU, 0xc230321f5f1fa05U, 0x46c613f6f0ef331bU,
  0x1dbdf6fa05e8ea1eU, 0x24171545d115f8e9U, 0xcff1ec32b41d0bddU, 0xc401d3d0dd040ef0U,
  0x5d18e82e41200021U, 0xfe12fffbe8e4feffU, 0x1316f8f4eb1f3913U, 0xf1f5e617d54ac71cU,
  0xfb00f502d224101eU, 0xe7f604e3e916031fU, 0x4eb07f5f308fbf0U, 0xdde9243901ea280aU,
  0x26022e0efe17e50cU, 0x7fa36272fb5bbd2U, 0x1a08f4e614fefff9U, 0x2e12d94de5fe07ebU,
  0xdbd6d433312bf0f5U, 0xf31c1f18fefbe604U, 0xd8fcdbf9d6011938U, 0x34f40a0bc1fc1a27U,
  0x22eeef0f2d1929ecU, 0xc2ec521a0cf516f8U, 0xb0315ff9e61100f3U, 0xd5e107e61e110bfdU,
  0xc4dbea3003abd021U, 0xe080921f409fdf2U, 0xd02a07e1d6b2ee08U, 0xddeaffbbc6e51ee6U,
  0x40fe04221ec1de5U, 0x6f6f0e31dece1e4U, 0x2428f5bb16e0ca0cU, 0x26f4d6ec2de7f144U,
  0xdd12b60ed7db0cc1U, 0x3b0d1b2a22e2fa11U, 0xf603fc22f01902eeU, 0xe3d3f30b171c10f0U,
  0x1838d322340df0faU, 0x4d211e4391d030fU, 0xff0418d2030deae9U, 0xd304cd0e0a2cf53bU,
  0x322ef104e22e2a3aU, 0xc925f11d121430fdU, 0xd002e2160ad6fddaU, 0xdff92fdb04d5ee41U,
  0xe51c0fdb0852e0edU, 0x27eb070e1c0304ddU, 0x22fe21ea28142fd4U, 0x8572425ecff450fU,
  0x310fe4f80c2406f3U, 0x32108d50ad32106U, 0xe603050a00082c19U, 0x13d3e810e9ff0436U,
  0xfdd0fe2936e22f19U, 0x19d2e818f5deebdfU, 0xe2f814f9130e17e5U, 0xf928dbde35060912U,
  0xd3d62d0bb1faff28U, 0xc4ea1c2ecff81a19U, 0xd70e3bf1b4f3ee34U, 0xdef5f6d01cd630eaU,
  0xd5eefe071df9d918U, 0xe8f20c0d14daf5dcU, 0x19c54c1dcd9b1828U, 0x2febeed5000bed1aU,
  0xadf608e0f10d00d4U, 0xfe0afeebf12ddd14U, 0xeb0ac50a03cc33c3U, 0x1000d504f1f8298eU,
  0x1d1bda33171d1706U, 0x341218dc16390ffcU, 0x18131dfe1dc5e7d0U, 0xb80feb181902161fU,
  0xf0c07f7fbfb310fU, 0xf427241b34cb1650U, 0xfceacfe705203ce6U, 0xefe512eee5de1a16U,
  0x722dcfcd8f10b03U, 0x23d923ecf1ecf9daU, 0x3472f1aed4dfcd9U, 0x411629f5d6185431U,
  0xc3fce62a4625f4f9U, 0x2a08eaec3001260aU, 0xfb46ed07d2d6ffd7U, 0xccdd5ebdfed10c5U,
  0xf3ef27f50ade3714U, 0xeae4dd252fe720f5U, 0xe824fa0318e2eff8U, 0xe3fa01fd01310cdfU,
  0xad070831fdefdb37U, 0xf5eef805f8d75afcU, 0xc10412bbe7e31663U, 0x190905f30602fcf1U,
  0x390a27404a130328U, 0xf9ed27fe0ff3d8ceU, 0x20f1021909134022U, 0xefaf51bf21ee9d6U,
  0xa5c5c7ff2104fa29U, 0xec011fe24116fdfdU, 0x4f2f1edf7d8e805U, 0x1727101ae8361efbU,
  0xeef7f4ee104130dcU, 0x130afe0fb407ed38U, 0xedfdfef91d1d1e2bU, 0xe1215ede8e3cb1aU,
  0xde0edc0523200808U, 0x210313f3ffcee9e3U, 0xd21c24ff1b33311fU, 0xf9102a2ef826010aU,
  0x22e0ffdaf006eb16U, 0xfe28d21c11f0f7d5U, 0x702ea3822e709e2U, 0x2100dad0df230612U,
  0xe8f712f30bf9d7d1U, 0x371cf7280a291ad7U, 0x26f3fff4e90cedfaU, 0x1705febbf700f925U,
  0x1ef00f15102403dbU, 0xf0efa1ed1aafa04U, 0xfed72bc6e1df1bf7U, 0x21d90be912e6a61bU,
  0x19201523eefa1e08U, 0xfaf6e80a16241ff4U, 0x1d15c1bd07321ce9U, 0x1ce1ec00dc1d15e8U,
  0xede9ddfe2b120f0eU, 0xf2121d3601093506U, 0x1ff1f82301ed0d29U, 0x1ef726e12bd91805U,
  0xf0f00d04eddee83eU, 0xeaf6cdf5e90c1414U, 0xe7ee1833ce0005f3U, 0xef06eefd11e1310dU,
  0xf81eeef9ff1ac9e7U, 0xf91533d505e1de27U, 0xf70d2626f608faecU, 0x1e03607f4cf10fcU,
  0xe4d403f3fb33ef17U, 0x1febdd1507094510U, 0x221e1afccefb0a1aU, 0x2ddddce251304ecU,
  0x70330e809031708U, 0xe0ed091c060b1317U, 0xf8150af6ec0e0c0aU, 0x11d0ae1ffe6f716U,
  0xf910f3f9dcd22937U, 0xe82516e8e60be91eU, 0x2aeb1307f6ec1a05U, 0x29e813070106d91aU,
  0xc2e9f2f4f8ce280cU, 0xe40c1433eff5441dU, 0xae2ef22af808ffe8U, 0xd4ce14e4f3fad4ffU,
  0xee11071a1aecd0e9U, 0x341de138f71323f8U, 0xc122f0aee38eeecU, 0x17e5ee2c5f07e407U,
  0xefff0504ebfe4de9U, 0xf9f6ed07f7fc2b01U, 0xeff925dcc21901faU, 0xfff00b2cfbdb26cbU,
  0xdef1a3002e2f22bU, 0xa21f6070725e600U, 0x2124d8ea13f31df8U, 0x3ef3c82207ea0819U,
  0x481d4801fa30d00fU, 0xeef20f1ad0001c03U, 0x51111e0c022e09d5U, 0xf4eb2a1639f9ec36U,
  0xafeef0129261ce0U, 0xa220800e5e805f8U, 0xe0c2b0f0dee24eaU, 0x372220faebe0e2fcU,
  0xf4ef2b1125200101U, 0x110026f3d600fc60U, 0x151bced81ace3006U, 0xf13f8cf03e90e03U,
  0x4df00d2aef04fd37U, 0xfdfa5ed31ff111f4U, 0xef234b09fb2503faU, 0x12f31b0be71206feU,
  0x1ae90ed710e7e5f0U, 0x1aedffddf1ed16e4U, 0xb21f508d7f5f6daU, 0xf701d43ef632efcdU,
  0xfee1eee11f3fd08U, 0xf3eced0ae90dfddaU, 0xd81d1cfb36091003U, 0x120f0ee10c0824f6U,
  0xcaef00fe16f5f40cU, 0xf5ddc9def806201cU, 0x123bfeffd629faf6U, 0xf5fcd0e700101a22U,
  0x16ffeee7e7f9f7f9U, 0x10cafbfb0415ed0fU, 0xe9e6fef9d51311ffU, 0x181ed311ebda0d10U,
  0xf62dfeeff8e20409U, 0xfd0ce1e005db10ecU, 0xf03f115e1fd03e6U, 0xcf3db34e082cf4e1U,
  0xf712d429120205cdU, 0xfff020fb20e20ffeU, 0x1e1f1e0a02df01bcU, 0x614020bf7d402ebU,
  0x603ee24191af513U, 0xe7b91de029d5ee21U, 0x4150806072420dcU, 0x36e6ee1a03ffeee3U,
  0xf8f13a25dbec07U, 0x272ad30129ee0512U, 0xf53afcebc12dfd01U, 0x13ee06f412ee141cU,
  0xbe9032e31efd3e0U, 0xf0ae1edcdfbf7eeU, 0xf7f8b7261b200b1eU, 0xba17fcff0110e91bU,
  0xf23809fc1703d219U, 0x19de1100040b09f4U, 0x270128f5f0ecf729U, 0x805cb1205eff1d2U,
  0xe4e111df13f020f0U, 0xccfbde03fe2a0d00U, 0x3203e3f1d0d708edU, 0xf3210a1dff01e914U,
  0xffcdfe0b0ef4e724U, 0x26eef9df1402efdaU, 0x13060dfa02031537U, 0xff83c07fd04e1ffU,
  0x1ef2e7f8ebda0d05U, 0x13040f10ebdf1911U, 0xf513010bfef20630U, 0x13e3f8fc1202351cU,
  0xf104fe0a42160901U, 0xf1cecd32f7f80b28U, 0x10f0c1cbdbe3fcefU, 0x441ce7050724200cU,
  0xfd20e7f3ecf222d8U, 0x9f4162629cdff31U, 0x1b00ddefdb03faf2U, 0xf0eceee503e9150fU,
  0x26052dfb02140edbU, 0xe7e41acdf2e3ee09U, 0xad3f7160b03ec12U, 0xed15dd06cb0b27c7U,
  0xff0604230e0ef30eU, 0x270a06f801f7f1f0U, 0xdc090a09050400f1U, 0x1a13b4f221fefa16U,
  0xfd1409fc0bf840ecU, 0xe0cedf111736f407U, 0xf33d44f914ec00e8U, 0xe62611fe3004fbe4U,
  0xf1ff1615161d0605U, 0xf9191603fe0f004eU, 0xffefb9f6ce022a05U, 0x30e110fff30d151eU,
  0xe214081e04fee41cU, 0xf6dd1fece600e6f4U, 0x1710f4263bed17c6U, 0x10fbe22f170df5f1U,
  0xfdfa0bd51609f617U, 0xf102f92c031cfd08U, 0xde2bf8e5e7f02902U, 0x122516ebf505f833U,
  0xbee0e6fe26ea1011U, 0x14e413faf10fdc09U, 0x2201bd5f03cfb07U, 0xf91f01f8d2daea08U,
  0xebedf4ebe9fb4fd1U, 0xdf0d20e3d10a1e08U, 0x1111105f10ee711U, 0x38190dfa41f900e3U,
  0xf70bff0cecd0e711U, 0x1e0f0ff8321636f7U, 0x261aec01fff9eb04U, 0xe20e25eef627cd05U,
  0x1b24d52315f60225U, 0xea00ea2602eafbf8U, 0xf611f80306eef300U, 0xf4021d0a211505f6U,
  0xe19f1110b0de018U, 0xc205f001ecc00801U, 0xffb2b26ef00fc1dU, 0x11408f3e8d7f433U,
  0x37d93ff0032414efU, 0xdf3ef00031c1711U, 0x1e708f0ddec4e04U, 0xe81d0f4a020ff5f7U,
  0xde6a90cfce2ea42U, 0x5f31914060ddc35U, 0xfc1fd516f5e11808U, 0x44d23e018eb21d7U,
  0x1a08ddff08f9e711U, 0xfcf034f71cf2171eU, 0xf520e7e7cc1f131eU, 0xeeefed20dd0bec0bU,
  0x2cf3e0fb01f7ec2cU, 0xe0605e5120d2bfdU, 0xdf00b29f0fc1228U, 0x181cc9dcf5ec013dU,
  0x814f51a0bcd242cU, 0xf4d60d0de2250f21U, 0xf4f219fcc2ed2a2dU, 0x1f02400d01dd809U,
  0x2e4d20b212bb3ecU, 0x2ad9f7f201053813U, 0xf5021afd18fbff40U, 0x24fa0e11f8c529faU,
  0x151ae0fcf7fd3531U, 0x3013f5241dfc3e0dU, 0x18fafa301cd2e22dU, 0x30f520291313f602U,
  0x2bfde01e00ec0b16U, 0x1d0c1ef402ed1313U, 0x2fc0722d7d9fce3U, 0x320ea09da31f6ebU,
  0xfbdc080f34df01efU, 0x2f1d190ff8d6eedaU, 0x6fccdffd4043f14U, 0x161dfa02dff41601U,
  0x1af409f701dffb12U, 0xe1021f1c0e0307edU, 0xf6191c10db250efaU, 0x41a1cf8f80beddeU,
  0xf917d70516062bd7U, 0xd6f51cea27fc13f9U, 0xf0e6c8fa08ebf900U, 0xc210f6efe4ce2445U,
  0xe819fcec46051001U, 0xf8ccf31236222e1dU, 0x210e25fff11d1cc5U, 0xf93208ff001e1e02U,
  0x5816ffdd050d01e9U, 0xdaf2e3fe240e18ffU, 0x10e7f910e90bf81aU, 0xd028e6ee0ed1fe1dU,
  0xe412ede80d13dcf1U, 0xf819fbf318ec26f8U, 0xf92206d82ab60ad6U, 0xfa0700f7f60e0d0bU,
  0xdebfeedf90dffdaU, 0xf502d92df10218f5U, 0xdc190be6080e1406U, 0xeb2fe9d7f013f44bU,
  0x361d31f3fe02f0caU, 0x4f6260a1cf2f924U, 0x29c143f1e71304eeU, 0xd5faf1fdd9f735ceU,
  0xc7ec11431519d7dbU, 0xff0afa13fdfbf6f8U, 0x282805f8f7ec1d29U, 0xea1018fbc8fd2d3fU,
  0xe9f0fef61d0208d1U, 0xf51d48f9052cfb22U, 0xf7e1222a2102e2d0U, 0x3f5ee37e3f0fcf4U,
  0xebfaf301fa0f0d1dU, 0xecdef1f00cf52e19U, 0x600d1af71dec15faU, 0xea02f8e6e1e70bf6U,
  0x42fbf9e2040f1e06U, 0xde1d0a0932e51833U, 0xe4f3122311d72100U, 0xdce2ea01f0220cddU,
  0xee032ce7fbe21a13U, 0xf705130c100cf514U, 0x27ff18ea11fb1fffU, 0x350e48fb01f620U,
  0x20ae80b0cddefe8U, 0xbe5d633fdf8170fU, 0xd9d9e6fee6c2e7e1U, 0x1bf4ebf31b0018f1U,
  0xaf7ec2ad6e1093cU, 0x2615fa0f04020de5U, 0xf6fce3edfcec1b09U, 0x160ce82215f2d20eU,
  0x1a0b1708f409eac1U, 0x1cec2610d9ffd8f4U, 0xf7131eed091530dfU, 0xe624f227f5142ddaU,
  0xfa170fe9e804eef4U, 0x1e4f8d21a041701U, 0xe1918d5f90921ecU, 0xd3dffc10150efd0eU,
  0x10fbb82407121303U, 0x1234ef1d250642f2U, 0x3a14ffe3d5f1cc1cU, 0x46ff1a12f10ff712U,
  0x1eaf8afe32f11c7U, 0x25fe13e7bcfa1f0dU, 0xf161adad641daf0U, 0xfbefdfec15ec0e0fU,
  0xf3e0130bfee0231aU, 0xd2f012391238ffbeU, 0xe4eaec06d11fcf24U, 0xe3d829ecd6f2fd08U,
  0x3a1af6ef23ed1319U, 0xf803eb2aec1c1cfbU, 0xe1eace1293fff2dU, 0x3fddf4ddeac6ece0U,
  0xf6ef26162f0bed0bU, 0x4ffc70ddfeee9fcU, 0xe1ee0a1afff0e1eeU, 0xbd0b03f2e2100ef2U,
  0x60e08bae50ce7dfU, 0x210af20b150ceeceU, 0xfc03190311fbeb45U, 0x1232fdfb1ae2fd33U,
  0x1db405f027e809e7U, 0x1d10c041be107f2U, 0xf524bd1e0b0b3108U, 0xee07d9fd17e327e6U,
  0xcbe9c3f822bae6eeU, 0xe5c8d91dcaf5f5f1U, 0xf516e4200015f608U, 0xf5fa06f21118eaf6U,
  0x1d04f4e20fdde530U, 0x220effba01d50515U, 0xa02de0d14f9f2f1U, 0x70204eff712e0e5U,
  0xe0f8f4f21dfdef21U, 0xf001808fc33f206U, 0x1edff9d81a1801fbU, 0x220a0532e0c0eeefU,
  0xf6d6f1072afa04ecU, 0x12ed12efe904e208U, 0xd61e20fce7eb06fdU, 0x2e8040bfb0822f0U,
  0xfa00041f0a1b25e4U, 0x252338f223e11514U, 0xfd10e913f6ea1008U, 0xfbdd13d715f4f8cfU,
  0xe410ec19e42015d6U, 0x235e3d7ec19fe1dU, 0x4f6f90c14ee06e8U, 0xd50ec8fafaf7f3d8U,
  0x23fafc13c9f8e7f5U, 0xc23dcfb07030d2cU, 0xa71507ffeada232bU, 0xf6070ded24263618U,
  0xeb132ce5d0faef15U, 0x712e8fe1a29c6ecU, 0xfdc8f51f0b1cddcfU, 0x14e806e009e92f02U,
  0x1afae7f42704ecefU, 0x23060ee80833f7f1U, 0x1ae82409f83fe6e9U, 0x13210639c113e732U,
  0x370a06e215020010U, 0xde123337d2f0f514U, 0xd634ffecef00e615U, 0xf352eaff06d9e509U,
  0xd5fde7010d1617ebU, 0x3009ea24feb20628U, 0xdf1ef6072608f001U, 0xf0dd1bef3cdd1ee2U,
  0xa0809f21a0acf21U, 0xd00fcf210caf21fU, 0x1416f51018222513U, 0xdbe6e9080f300605U,
  0x1731f20ccdeb1664U, 0xf8fdd318f52f2f29U, 0xd7fcc3f5e1f0e219U, 0xb1be1d0f5082b1dU,
  0xf204e9e913fffa10U, 0xdceb1ff6fb10100eU, 0xe65629e5f7e4142aU, 0x20ffdff811f0d1e4U,
  0xb0bf1f6effaf809U, 0x271b2fe00810c5d0U, 0x21af3e2fde41106U, 0x9ff0f00e41721f4U,
  0x1119e5dbe7ef1db4U, 0xf132e9db2012f130U, 0xf001490ad20d010cU, 0x21f1ed32e0b0510U,
  0xdc8082bdc1d10ebU, 0xf0702fbdcd01aefU, 0xe624f443c6eeda07U, 0xfc1ae43306e0e722U,
  0x182dcc0e0dd705e5U, 0xfc02edf8e337ed19U, 0xbc3ea01f4141f04U, 0xd91401e71aeffe02U,
  0xd905ec0ae803f84aU, 0x3d2050415132fc9U, 0xc3ec251536d43134U, 0x242b120ff9f8db27U,
  0x274307f0e5f50cebU, 0x230528dcf10607e5U, 0xde2ec39c1fc3315U, 0xfc0d1c182627fce7U,
  0xff120adf0500e7dfU, 0x19f82efd24040101U, 0x13f4f3290a140df6U, 0xb1a04f900fd08f6U,
  0xf0fffb17eef4ee19U, 0xaf1f2ff1401bf0aU, 0x1f00ec0800150726U, 0xf40e051d0518f2faU,
  0x2711230908e1c7bfU, 0x4113014f2721f5eaU, 0xe3070d3e255acd04U, 0xf9fd1bc7f103fd3aU,
  0xfb11f2e802c40420U, 0xe6f4fe0edefb00edU, 0x1bf8fa12ff371911U, 0x63819ef27de1108U,
  0xecea012ef2fce9e0U, 0x3314162809fa2312U, 0xa0b26db2205ee1dU, 0x1b1f24f1eee5e0fcU,
  0x609feff0d3e1d10U, 0x250b00f31df8f5f7U, 0x28160be421092238U, 0x33042623f610ff30U,
  0xe5f2f2f5ffe7f30cU, 0xfc081d320540d7efU, 0x9f7fc36240010fdU, 0x5051409100204e6U,
  0xe5270303fed3fff4U, 0x1503f917ef0a19fdU, 0xdc18e508f0fc300cU, 0x2602e61afa0a28f5U,
  0xf5ea3723f51e1508U, 0x3d26ef181f04b8ecU, 0xd0ffe2b80cecfde8U, 0x22fffc33f81606f0U,
  0xe6a3100f1bf0eb05U, 0xb730160c3704f3eaU, 0x10160107120cfa10U, 0x1708041016170b1bU,
  0xe5234914ef0636dfU, 0x818ebefe50dbf18U, 0xf311f226dc02e8eaU, 0xdf11034cf435f5f2U,
  0xe8e0091cf4bb1526U, 0x15022c0b05ee0800U, 0xa28df1e13df0807U, 0x9f024180824f70cU,
  0x2407092edf0c1406U, 0xf20515e0e11b01edU, 0xd245e4290feaded3U, 0xf5fbfe16101822f1U,
  0xf0fae9fff1ef0518U, 0xe0ed09e9daecdd01U, 0x1702ed1df3050cfdU, 0x1129292e130a0df5U,
  0xef34e1f10af7e00cU, 0xe70c02fce8f8e637U, 0x2913fdd7fae01817U, 0xc2cf6f1ee01f82aU,
  0xcafc0cf303d7fdfdU, 0xf91f330517021c11U, 0xc14dd03e9030b35U, 0xffff1d170f0cef39U,
  0xffebf719211f0d14U, 0x1fcadcfbffe413edU, 0xf41037e400fcf0feU, 0x8061705f01c120dU,
  0xf6ffebe433db10e6U, 0x3ffe19451decfff1U, 0xbf51410ca24321cU, 0x12ec0be011e82ff3U,
  0xfcf20519be0f141bU, 0xe7e902e5fb2012e0U, 0xf110feeef70103eeU, 0x19d9f01c15f72303U,
  0xdedf51d15dbfbfcU, 0xa0aef0ae018d8d9U, 0xf8d5f609e702dcfdU, 0xf21d1be5240a251dU,
  0xbdd0b2e2fe1f5bfU, 0xef90f0207e50027U, 0xf927fde0f4e6fedeU, 0xead7ee020adee40aU,
  0xce8fe22f617fc34U, 0xf500fdfa0fdafc0cU, 0xf31100100714ffe2U, 0xd429d90c0f39263cU,
  0xea16eff80e0f2308U, 0x380b21120d392bfcU, 0xf6dfd831f70d1b04U, 0x5fa0ff4f628c8fdU,
  0xccff10eb45000f2dU, 0xe7f9b9fa112c471fU, 0x1406e709d80cf618U, 0xeee5140be2afe1e3U,
  0x216f117c3eb2f34U, 0xf8390c001a1b17U, 0xff29d61810fb2e10U, 0x317f7fb10fa0d08U,
  0xec19d11907fdfff0U, 0xf0c14fe1f24f3f0U, 0x2d28d3f404c915e0U, 0x1f0603c810faff35U,
  0x6f5310a28e0e4f9U, 0xe9f803fd06e5f915U, 0xfe04cfd20cf4ed21U, 0xcf31fb19cb2704e2U,
  0x14082aeaf703d9feU, 0xf9ef071b1bfa18e8U, 0xfee41117db271706U, 0x111a22fe0c2fe2e6U,
  0x1117d03bfde50afaU, 0x1f051f0dc3071df7U, 0xdc0ff5fe1237ce14U, 0x3206fbfa0c26f13eU,
  0xdcffd5e60adafa04U, 0x30e5f5cb1b09b810U, 0xf612f5d6ff290f22U, 0xeaf0fff800e41a1fU,
  0x1900232bfb1e232cU, 0x1412cfdfe51d16d8U, 0xfa050afcc5171e1bU, 0xdcf10bf820090ffbU,
  0xf7e3f21b0145fdf7U, 0x1ddaf6eafee11409U, 0xe7300afe0209110cU, 0xe2f5081b00fd07fcU,
  0x23f3201fe1fa2324U, 0xfdef200a13180debU, 0x1a1802dc0ba8fbe2U, 0xddf7ea00eb040fe3U,
  0xfdefd20002020212U, 0x37131ade03cd0c21U, 0xf61eed250109e40aU, 0xe715f619f1d20a34U,
  0x1ed7e0d0122411f1U, 0xfb0e3206ddc11d25U, 0x53b7f801f0f84310U, 0xf11e7fe410a09U,
  0xe9ec06f2f7031c16U, 0xf5e3e7f1e6132329U, 0x2fd0107663bf109U, 0xd91e3205ee1937e2U,
  0x3fcf2f31926fd08U, 0xf2180406fbf5f202U, 0x5eafc0602fdd01fU, 0xf62c1b0201dae8f8U,
  0xf0af1f717faf320U, 0x4f50fcde9e2090fU, 0x140a19304bfc3015U, 0x2035b4ffeff027eaU,
  0x21181500241af1ecU, 0xe8330eef0c2afd19U, 0x19dfe9f21e12050aU, 0xfa07ea130911ef28U,
  0x2f7f3c3fb0f020dU, 0xf905d4f9230afffaU, 0xf1e32d0af2b1fb1aU, 0x90112200f2d29d0U,
  0xe313f8f9c6e5f7e3U, 0xe2d4110c0707f0feU, 0xfd0b282ee8eaff08U, 0x2afcf6170edf14f3U,
  0x12e30fee2a11e8f4U, 0xb0f2e2c0b3f1402U, 0xcbf9f7c1e106f305U, 0xfd12edfd2f2302e6U,
  0x201efc00fff1e6ebU, 0xc050307bd03e2e9U, 0xef190bf4d70d1fdcU, 0x1ddddceafd06c1ddU,
  0x21e6e51c05dbda12U, 0x1bfaf10fdae3dfd5U, 0xf00deeb3de43028U, 0x1ad6f31bdbed16e5U,
  0x33b16dcfee5e0f3U, 0x63de0021dd8f117U, 0xfcd3ea050313fa11U, 0x20310e37192938e1U,
  0xe803e2d62ff7f5f1U, 0xf5e902131fe31ffcU, 0xecf215c6ef2338fcU, 0x1ed20c10e234cbf5U,
  0xf5f7161d2518eb0cU, 0xf9141f0d04f8031eU, 0x10d19e3fef9090dU, 0xe1ff1103d9fad329U,
  0x1efedd321ffdda18U, 0x271f1d02ef2d45f6U, 0xf6d50031040a31f4U, 0xf21c1c1cf715d901U,
  0x9d8f93ade10f0efU, 0xecd6f413e8e4e3c9U, 0xcb16f40a030b0e13U, 0x1211f20f1aee0fe3U,
  0x92405c000e6dc1fU, 0x329eeddf8ee0c04U, 0x1e0cc22cd816010eU, 0xe9cbe4f6310f002bU,
  0x1119d6311534c8deU, 0xccf9e0f0ef0fc1fcU, 0x1419351408f60a25U, 0xe724f0e3142d15f5U,
  0xdcd208f5d5deede1U, 0x11f20452faf5f2ddU, 0x11ff07f90309ff19U, 0x15ff2e0712e920efU,
  0xe63b10caf3fbfa07U, 0xf806be1c0bdfe21bU, 0x21ec1ff0e1032a05U, 0xf70dead5efdbd5U,
  0xf7d8e41c1d1214dbU, 0x28fc08160ffd4827U, 0x26060ef80f04fbf8U, 0xe2f6e60bf8070210U,
  0xec17cf01f408efd9U, 0x2d1120fd3d0e2801U, 0x42230445f503290cU, 0xcf2fa01131ee133U,
  0xe12ee0bdc212539U, 0xebeed220130aeb01U, 0xe72efd05093c1de9U, 0x1707d8ee4ef9ed05U,
  0xecf718f3f0e3fc00U, 0x10d307f4f124f40eU, 0x3eb0103d90039fdU, 0x7fdf9f91d3afaf8U,
  0xeb12e2e3fbe01efeU, 0xe507d2e8f4ecd629U, 0xef2fe24121b0f0aU, 0xaf3f4011cfeeef2U,
  0xe60e0d190513f2d5U, 0xd4f6ebdd3925ddfbU, 0x101034e8fb09dcd3U, 0xedf40cf2e91ff8f6U,
  0x2da2412d719ec0dU, 0xdb2aee1407e7ffd2U, 0xc8e9ed05d0fbff0cU, 0x2ebebf5e5ee041aU,
  0xaf31afb3227d6f5U, 0x3624e408caeffbe3U, 0xd0f42b09250b00e5U, 0x9e5dee319e2eb17U,
  0x20eef1121defd92dU, 0x1ede0ff620d43fe1U, 0xf9e72df314f500e6U, 0xe3ed3925ee0f0224U,
  0xd701fe1e2a12fe02U, 0xc8f7f702cbee0214U, 0x17fecf11240e1a3cU, 0xe107eefe0af90103U,
  0xf5f7fae0f6500cf5U, 0xee12fa30e75bfd33U, 0x231b3913fcf5f0dfU, 0x742ef2efe2bfd1cU,
  0xfce4e80400da2e27U, 0xf6f6f033f9f4e369U, 0x11eb0e0de6180820U, 0x1eef0d0bec270951U,
  0x1824dc160b1e28e7U, 0xeee7e8d2ebe11e1aU, 0xf70405f11348e802U, 0xa0524e6f1da2504U,
  0x26f5e53ffc20f8e6U, 0xfb00faf81e092bU, 0xf4eef70518f9d207U, 0xf8c52502eae7faf0U,
  0x250a1623deed13ddU, 0xec0c2ce939ddf8e6U, 0x3104cc06ccd82df7U, 0xe3fd0b21eeced7ecU,
  0xff0def082e16e6d8U, 0x301441421df13f6U, 0xfaeef1ce09eae313U, 0x182aff0bfe3ef1ffU,
  0xc5f6e41df510e6efU, 0xe7f2ddf12dda04f4U, 0x2307ff011d0529efU, 0x5290305bbfd2911U,
  0xf641fd031c122ef9U, 0x34eabd2118fb0adbU, 0x11efee2c03f9eff7U, 0x61922ee0504e015U,
  0x1409f51b1d06d9ceU, 0x2e06eb22f0041d0dU, 0xe42ef71416cde911U, 0x29cdcd2523f80a03U,
  0x2bce518f8191d30U, 0xeddc9ea3a02fe00U, 0xf22e27fed2ecfd0bU, 0xd11831101a0d100dU,
  0xe5fddbc70f20ee2fU, 0xeb3909ca08e60218U, 0xad20ff7080f1a08U, 0xb0fe18fcdfdc0a20U,
  0xdd7e82b2b151e00U, 0x2ffeaeffcf101f6U, 0xf0e6e5c6fb02fadfU, 0xce31514e415cb17U,
  0xf15f300152ef431U, 0x5060d38dc220f04U, 0x15fbff0c17d9f637U, 0x3317efeb2a180d18U,
  0x1108ebd717f1ebedU, 0x36dae91d1c0516e3U, 0x1ad64232ebf80cd8U, 0xfd0cda45e0f4f4d4U,
  0x1e15fffc29060e11U, 0x3eef90ff4e3f40cU, 0xf4e3f1fd1e0ce9f9U, 0x31080a30eb20ff21U,
  0x4bf5d91dff352327U, 0xfffc3cf0e40c0d04U, 0xe1ded38e31bef0eU, 0xec00dc2709194907U,
  0xb041804ccdc0cdaU, 0x1906da0e2bfb03f7U, 0x2011e61630fc1b14U, 0xb1ea1beeedfa0eedU,
  0xf0daf4f1e5dd1212U, 0x1c01f108301b2c16U, 0xfdf70019120e24ceU, 0xff3201dbf8d8fe08U,
  0x15300ce9f1e0d70cU, 0xd4f214e1f6422cd7U, 0x9000ad010222eU, 0x152314d91e4e0402U,
  0x3f10d5e80bf81c0dU, 0x14eb09f90e08ddf6U, 0x20f3e2db20f9032aU, 0xf316f0f31ae7f715U,
  0x1138e3ed1714d9eaU, 0x1d2f0aead1e118f6U, 0xf01bf5ec1fe31c1fU, 0x27e334f20f0916dbU,
  0xff3042030ff0f022U, 0xe1010c2805f6d407U, 0x30dbeb1b082d14edU, 0xdf13d11ee3e2ededU,
  0xf3140eef08090eeaU, 0x2ff239290dd1e1feU, 0xf10d12fd0003f1e5U, 0x1d121d10e7e606e6U,
  0x11f207070cd91e0cU, 0x111613e30817fb12U, 0xfef1fb0f032f0609U, 0xead72f1fe817dfdbU,
  0xe710edf0fe0406eaU, 0xb27f1dbecfe12cfU, 0x80af2f0e220120cU, 0xaf0f8182c130c07U,
  0x94307f8121cfd0bU, 0x50fcdfd1ec012720U, 0xea0c0917221e0b2dU, 0xa2520dd08dc04e1U,
  0x1e0b082020dd2bfbU, 0xf2e9140e13e522f9U, 0x1514e42321140cf1U, 0xf1fb27e40622f60aU,
  0x5ef081a0c050b1dU, 0xeff915400b190620U, 0xfde915043adfd702U, 0x9ebff3231080afeU,
  0xe0ffe210110fcb24U, 0xd3e9ebebfd101703U, 0x17e60420cbe8f91bU, 0x2cca00e41bf9eef8U,
  0x3219fd30e73ae0ceU, 0x37053503f0dde708U, 0xf0fd1f0232e5f90eU, 0xdc22f212f6191306U,
  0x1efbe5c7fa1afb2aU, 0x1c14ecfb070bfc01U, 0x114e0adbfbfcfb2bU, 0xe100ce3fcf92504U,
  0x1118fafe061b1af8U, 0xdfdfec2fe14aec34U, 0x15c420eb23eef409U, 0x14ed0701f10123efU,
  0xe2080dc8ff300df6U, 0x10e0f2fdf70cfadbU, 0xc1f2a05b90003dbU, 0xd0e4080e2806f22aU,
  0x44d5e1151de90243U, 0x1fe2030a10f5e3d7U, 0xbcee116fd0a1224U, 0x28f0e70cf2fb0f0cU,
  0xede20dee01223efdU, 0x600707000bf5eef6U, 0xf8cfec19e4f2d415U, 0xaee36e1081e3007U,
  0x2214d6ee0b23fcfcU, 0xf422fc18260be7e6U, 0xf327111c1af8fef8U, 0x11af804faf2da28U,
  0x17fb170e3a19014aU, 0x17f30d13e9ebe8d0U, 0x1bdb27f30df40b02U, 0xeae4fcf628ef33faU,
  0xc3e111cd022bf1f4U, 0x82be80de8fd040dU, 0xbf0300f11717eae6U, 0x11102a1b091e2308U,
  0x1e1a0afa0c021bfdU, 0xe41d11f8e5dd0eebU, 0xe80d03e5220efd25U, 0xfc1340ee10fc12f6U,
  0xe7d915f8dde0f7d2U, 0x104f51c33e709ffU, 0x81a0ef3eef4f80dU, 0xea02021400e90a15U,
  0xef20acf204f21217U, 0xea03f10efef7e63cU, 0x1a1a04152ff2eceaU, 0x121404ecec3c0cfbU,
  0x1d0051f2102c04eaU, 0x3cb14a1243d01e7U, 0x211e0609fdf6c7feU, 0xe7ccfa16e1dbU,
  0x1104f01af71312e1U, 0xf1f0fd17dcfefeeaU, 0xf6f91d15eff6d60bU, 0xfe01e5fff60c1dedU,
  0xefee15f8eb15e90eU, 0xf2fb040202ccdb21U, 0xf2eb24fcef08d017U, 0x60212fe14ef0e11U,
  0x5d3f0fb0afce5faU, 0xf7fc00e21502092cU, 0xbff2904eef1c9e1U, 0x2118022015d2e516U,
  0x170c23ffe10e202dU, 0xecd33041ed35dbe9U, 0xea0119ee070f0ef4U, 0x2e08e2f3ed0ef021U,
  0xf4f8193df716dbcfU, 0xf7081cf5ec2111d1U, 0xa03f4f014f11c0eU, 0x312f23afc0cf5ebU,
  0xec14ecdc1311ecd1U, 0x4ef2aee0cfdd4fcU, 0x10d3351f09e71904U, 0xe60ef3d3fc16fc04U,
  0xf100ede2fbebf70aU, 0xe8ce01dc25f1faeeU, 0xf0180b1eccf02310U, 0xe9eff1eb09ffec1dU,
  0xff0b20ebd1071d24U, 0xfb2505fcfe153d1aU, 0x2eda071f1b030b01U, 0xed0118ef142ac722U,
  0x5ebf52bf002ef0eU, 0xa220ff52925e229U, 0x8feecdbe6261b04U, 0xf903f2403ffee618U,
  0xe80104c45017f7f4U, 0xe00209f017f62316U, 0x28e10d2028c8dff8U, 0xdc02f8f81ef00818U,
  0xd500e8f3edf00ff6U, 0xfdbafce031f4e6e8U, 0xce8e7e70841e3e0U, 0xf40de4e7f40740d5U,
  0xe2f915ce23e20618U, 0x7f9fff840f1d0feU, 0xf6c10af13a101bccU, 0x24092bf70e1a290bU,
  0x310314e0ddfbf3e4U, 0xbff1a123fe1f215U, 0xbf2f1221a06daffU, 0xfcfbe0d6f2071cdcU,
  0x1d2f153d2a00131fU, 0x407c71eec071a1eU, 0x1c20e113fe1ffdd3U, 0x13f3f622211d33efU,
  0xf9e1f8ef23171d00U, 0x10faffef30050b25U, 0xc3c8dd07cde60dccU, 0xeff212f7ed341309U,
  0x110f1629c52c22e9U, 0xc30b34d5f0111007U, 0xfefa4309fe3efc2bU, 0x190d36f011022401U,
  0xf30bf82b2004e8e6U, 0xdc16ef331c1d22fbU, 0x281c0bf6f70418faU, 0xf0f9d5ee180c3024U,
  0x19dce803fde917cfU, 0xe7160d123005fe0bU, 0xfaec01fedde6141eU, 0x41ef723da14f722U,
  0xf6dd0d1d01e810edU, 0xa07e6efb0df13c0U, 0xef31d9ddea001303U, 0x6f4e40f27dc0de1U,
  0xf614fc1af4181ae8U, 0x1031fbf005e7f206U, 0xcbd1b08ef241becU, 0xbf711fef7051a2dU,
  0x1ef902daede83cfcU, 0xf5042cf5fcf40a26U, 0x6fef01813fd23d0U, 0xfbdf1215f4e9dfdbU,
  0x20f306c9ef15d2e0U, 0x1506f70bfdce0400U, 0xcffbf821fa0df4c7U, 0x2ff1f2eed37f1e6U,
  0xda2b1eea1dead7f0U, 0xf8fcec1efdfb2313U, 0x19f4eff403e41ae3U, 0x1a0ff60ce1f83e31U,
  0xff0f02f701e0f1U, 0xdb0c2ce0ee0af41aU, 0xf723161eec08e403U, 0xeffaf9dfe0e8f7fcU,
  0xef2d2eeae9d31310U, 0xcff62a290bcfbf31U, 0x7f5122510f0f01aU, 0xf1e3e01d1cccfd08U,
  0x13faf0000916f912U, 0x13fd06deec020016U, 0x3cf91d022bee1711U, 0xf3fa18f3f7d4f630U,
  0x1203e717e3fc0513U, 0xbed001bf8f0d6eeU, 0xea14ff0ae6e5e0f0U, 0xf61107f80c09f7dcU,
  0x11ce31c26fae0eeU, 0xfaebf700fcdef806U, 0xfe05fdfd19fe11f4U, 0xfdecfaf018370f00U,
  0x44ee1fe7f20df3dfU, 0x10e33df4f1f8f2fbU, 0x27162afa04e8b313U, 0x21e7dd0df81601d7U,
  0xea130402f3e2feeeU, 0xef061bf4ff050a11U, 0xfcd5ea0207e1cd00U, 0x20064d31ff22ea00U,
  0xddfaed23efd0ffd7U, 0xff113f200d116ffU, 0xf6efdd11050ade11U, 0x7d8fc01ff08eee7U,
  0xf5f3f818c8fcf209U, 0xdc505051705fbe3U, 0x2026ebe8ee031707U, 0xef291cd1f211ddfaU,
  0xf51705e0eb2f2cecU, 0xf80e12fdc217fecbU, 0xfcc70a20ff06f3e5U, 0xcdfbe126ff2532e7U,
  0xfaf702db3febfc12U, 0x2e1afc1cefe7f4e1U, 0x14f2e31d0421c2fdU, 0x1b05181142f00404U,
  0xfff3eefcc1021306U, 0xe14f6e900010a19U, 0x112bff28eef90ecbU, 0xedfc2de50afc17ebU,
  0xebe80cc820d4081dU, 0xe3e7fdf4ed0bfd0bU, 0xc7f207d7e50af207U, 0x301fcf33cf5c107U,
  0x1102171ce510ececU, 0xdbfb0505e3140adfU, 0x33f667ed09fe0fdcU, 0x412f40323eaf810U,
  0xfe16e9250f13f9f1U, 0xeb222bd8fd3c0ef6U, 0x18fd04f6f7f12c01U, 0x8ec0844f707f80bU,
  0x391be1f0030d0dfcU, 0xf5e5e3020c192afaU, 0xde0be6fdeb15ff11U, 0xefb9e3fddb1e08f5U,
  0x50e31c4f60b1d19U, 0xe30127ce14f1fc19U, 0xf8f0e0b4ef09f3d0U, 0xe7fa27f0f82ce308U,
  0x3ea0e0814e8011aU, 0xf5ed27fff30d2009U, 0x1fb0af93e5217e7U, 0x130af50f0fe92009U,
  0xcfdffb3ad52f08f9U, 0xff37d503f6041911U, 0xd814e8e90d1300cbU, 0xfb1415f3d5fd073dU,
  0xfe0820db00f0f022U, 0x220de3f310df2a03U, 0x18301ff306daf1ceU, 0x1eafd31f603e908U,
  0x8e2eefee705fddbU, 0x1f25fd411b0d2df0U, 0x28f9eb06ebf1f828U, 0xf3fcf71d091620eeU,
  0x29eb120108e2f9f1U, 0xeddd0e15eb052016U, 0x1fd5e91bedf618f6U, 0x2ffbe6da311f001dU,
  0x341e240ce202f00cU, 0x8efcc03fc02e822U, 0xb29f6f4f8ea0e28U, 0xda27fef037fbe6f8U,
  0x26f2c8f7dcf51eedU, 0xf19e622fcd904f0U, 0xda1f1b02250ff122U, 0xf09d6083e50212eU,
  0xe1ad2c8181bf401U, 0xe24fb01e3221af8U, 0xfee8370704e613eeU, 0xede0f221221af910U,
  0xfbf9e7040dcf1305U, 0x5204db2fef08f90bU, 0xf0b7200e2ee7f7f5U, 0xf51324d4ecf3d612U,
  0x2101f404ebfc02e1U, 0xeadfdae43916fef9U, 0x1afb1aed09fff9e2U, 0x1a11d93808e8ddf0U,
  0xfd425bf500efd101U, 0x1dfcbefaebdf0e12U, 0xd4fc251a19f937f0U, 0xf10bfe0a2ae7201fU,
  0xffff1116f1fffccdU, 0xf9f222dc0405051cU, 0xe5eb13183af33d46U, 0x114d1f93403eaeeU,
  0xe409130315e2f7f1U, 0x22f4d4eb0ff02be5U, 0xe621dec8144033f0U, 0x8f7370cf800321bU,
  0x2004de0de6d30c23U, 0x51a010d0803e3f6U, 0xded7e81b0a1bf411U, 0x171a39f5fd0904e0U,
  0xf5ecf5fc01f2e2ddU, 0xeee9cbcc0c0fefe7U, 0x3034d4160116fcU, 0xf0e8080ef701fef4U,
  0xd5e427f812272423U, 0x16f94bee09000723U, 0xf91d191d0d0f36ffU, 0x13000adf12fc0900U,
  0xd900100211ff0e22U, 0x1cf5270faf2a03caU, 0xd2dafbec320a3431U, 0x4f3f530040ae612U,
  0xdc0beeed0ae006e5U, 0xfbcc2825f113ebdeU, 0x1021e225fe0ffe2aU, 0x7f02444e9ff3f27U,
  0x10c11153f6fc0c14U, 0x10c20f719fbea11U, 0xeff72bf6130a20f3U, 0xd15e7e71419ea1fU,
  0xf3170d292316e8faU, 0xdfd4dad109e11df4U, 0x5070401080828e5U, 0x1bf7ecd00eed0ffeU,
  0x43003d022160be6U, 0xfa2511eee21aefdcU, 0x2929f7fae3ddfa03U, 0x703e4edfef20fecU,
  0xec31020c05f69031U, 0x1511d0d2e429101eU, 0xff0b0aefd3f950ffU, 0xe7e3dd0d35f3f8faU,
  0xbceb000202c9f711U, 0xedf20ff80bf1fcU, 0xede8f9f222d412e8U, 0x8160424d716f200U,
  0x162f02dc051d1413U, 0xdee914df10eae600U, 0xf6fc2b30352720f0U, 0xb0a071131dfdcafU,
  0xf2f4d904f6f417f4U, 0x1a2cf0d6000e2305U, 0x1f7151909ecede7U, 0xebfa08f4f1ea180dU,
  0xf2d7090cfae71e12U, 0xeb10f9ec1ff1f408U, 0x26072505f3cf05e0U, 0xefe8e3f8fd2303d7U,
  0xfe02f83014181c08U, 0x11ecae427130304U, 0x501430f2f29031fU, 0x9060a04f9dbf02cU,
  0xf01d022ad43017d3U, 0xf51e0a12f00edfeeU, 0x8f6dc09f21102d2U, 0x3e8ff0524210ee6U,
  0xeafd2748021cfc37U, 0xf80824f6160b1b01U, 0x41fefdfa3c10ff1dU, 0x1316e5f9fd133539U,
  0xdf614cce6f7dd14U, 0xef6f40200ebdef8U, 0xff0172107f3eddcU, 0x1af0f7fd0413df0dU,
  0x5f806d13024e622U, 0xcf15f70223ebfdecU, 0x20faede9c72af513U, 0xf804f9bf0bd6c0afU,
  0xf9edfb09f7e8f128U, 0xefecbeafa360633U, 0x3427fa0e23fd090bU, 0xfc01200f1a04e026U,
  0xfd06f1d90bfdfcf6U, 0xfe1031fe0c1908e4U, 0x160d0f09e71b15caU, 0xcf29c427ff13e6f3U,
  0x4f7ff0f0131e2ddU, 0xda17034409040b00U, 0x1d0a23f2fb1d18f2U, 0x21fc061bdbe43d1cU,
  0xf00beffc1bee1c0fU, 0xf602162400b02515U, 0x10c50615190bf418U, 0xf305360309130b08U,
  0xf6fbfb2307f91a21U, 0x12082eeb220a0540U, 0x2f2f52e01fa0feeU, 0x1207d8f913e3130cU,
  0xef07eeefe904f0edU, 0x2824f1151d061cedU, 0xf81308140bf3dee6U, 0xf6e111f9fb0dfaf0U,
  0x6ec4df11001e40fU, 0xfceb050ad73825U, 0x1313f83ffc0b2506U, 0x8e049f8f82efef3U,
  0x18f6442ce4c94df0U, 0xf1f2e92b130fd7fbU, 0xabe6e6fb00fbc3ecU, 0xf5fbeafbe02414f8U,
  0x8102af3204a0ef5U, 0xaffda03fa090008U, 0xeaf5df4cfcf909f3U, 0x1eaf30cceff0af4U,
  0x8060d09042d2817U, 0x29d2132cf6f42f08U, 0xfa0f0bfc31d93ff6U, 0xcc21f31308dd0e17U,
  0xece6f72c15d22f05U, 0xc9f410fae9fd1e00U, 0xff3e08e90500dc32U, 0xef1f1311eefa24f9U,
  0xf5e946ff2dfcdf0dU, 0xe40cfeaf061121faU, 0xf5e7d20bf5110ae3U, 0xfcdb16f80c071220U,
  0x12fffd0bfcf33241U, 0xd5f0f2fabf14f72dU, 0xff314181df7eb09U, 0xef14100618e0f1eeU,
  0x32a1622e80c0fdeU, 0x4f2324f711f81309U, 0x2a20ebf30e071a0fU, 0x542fb1cf90006f0U,
  0xd19cee604190511U, 0x8e32fee23e60e25U, 0x44f4180361e713feU, 0x50da02ed07eefb1bU,
  0xc4fef0fe0cf210e6U, 0xf3fd0efc1bf30b25U, 0xef15f20bf4f5f2caU, 0x11d4001ed1d5100cU,
  0x50431f8f3f90cf5U, 0xcfdcdffdc300fb2dU, 0xd6eefa0924022d28U, 0x32eae00620d51df7U,
  0xcddf33edeef0e80aU, 0x316e1df05fa1226U, 0x6e8fde6fafc0e1bU, 0x1a1a3907f3e31d04U,
  0x10e800d131cc1b18U, 0x39ea040cf6dce12dU, 0xebfc14eff42fe02dU, 0xfc501ed710351f2cU,
  0xf32f0bf111030716U, 0xe926f8feb607f2edU, 0xf01bdab1eacfea0cU, 0x1efd092ce32c1afaU,
  0xef202002f013102U, 0x5c6120f14faf4ffU, 0x8d7dc0000161413U, 0xe4fc0f02d5eeffe7U,
  0x16030c08fa0d14f6U, 0x121407e52cdde902U, 0xff6ee13ce1347ddU, 0x608e5e71b20ecdeU,
  0x90a1bfc10f0fa1dU, 0x2e08fbd705e9fa12U, 0x5fe0d25d4fc13f9U, 0x141af6ef07230022U,
  0xe417eef9341021ebU, 0xd16eddbed12f214U, 0x1b482d04f510fbf4U, 0xf6eef3e816e3f32cU,
  0x2b2f14f0fc09d109U, 0xf4e203051efdf0fcU, 0xdf1a10ee0f044021U, 0x3f916d320e015dbU,
  0xd10fee032b1bf704U, 0x351cfdff09e905ebU, 0xf6f509f12707f3e0U, 0x1fd2f20f0f531412U,
  0x7c1e5faf2093137U, 0xe8ff0423fae1041aU, 0x32e40911dff504f1U, 0x2b06e61721120816U,
  0xe10c0b33f8fd05fcU, 0xbf402f8fbf929dcU, 0x220624ce02242e0fU, 0x1afff3f300df041eU,
  0xe106050d220ae82aU, 0xeb1c1f11f9031c01U, 0xf218fb0dd7dde8eeU, 0x1bf80810c6f9f2d0U,
  0xe5f1fc0a0c25f600U, 0xeecec531dd0803feU, 0xf6ecfc37f9df10faU, 0x400e7fa01f3f8edU,
  0xa3318d5050b13f4U, 0xc4d5e6df01e32b44U, 0x5ee231b0105f528U, 0xe7f42deb12e6001dU,
  0xea3bf018f40eefU, 0xfef6eed41f1aebf1U, 0x2814130006e81ff2U, 0x8e2deebf6fc1313U,
  0xcfdfb01d50b1a0eU, 0xb14f40e0cf9ce45U, 0x535eb2d092903fdU, 0xa1a2e1602f7eadbU,
  0x231af8b2ef261a11U, 0x29fc1de6fc02d3d8U, 0xe904fce7ebecdd23U, 0xe1e803140201f936U,
  0xe700f50321f5141aU, 0x2fe004e8fa03e106U, 0xff0307d809eff9f3U, 0xffdc0ddc2fef060aU,
  0x1c123f2d2ae4f1feU, 0xe516edf2100aeaffU, 0xf3ff6f0d9d2d920U, 0xfa120702e1ee2110U,
  0xa0c1c04e0070805U, 0xfcdce9f4253d0e31U, 0xe0f02329f3090208U, 0xadef707e9e4fa25U,
  0xf8f4e301ea29e91cU, 0x5e8cf08e808eb1cU, 0x23eeee25e3df2506U, 0x111208fbc832fde5U,
  0xf9fc353ae5141df8U, 0x1fec1a0d101ddaf8U, 0xedf70b1dec111a26U, 0xbe022412ebb4fa12U,
  0x19f30ff9fc111b10U, 0x15f3233dd3dcfbf7U, 0xce7023a03271be6U, 0xdf9f1d1101b2fefU,
  0xb0701fb0bd4010bU, 0x16e2163101f2e604U, 0xfcfc281dff0df6f0U, 0x200ef6fb0cfa03ebU,
  0x1605f7f003fe10daU, 0xf215341ff606ff02U, 0xbf3fae51001d6eaU, 0xe9222b0f2b274400U,
  0x271124f813000fe3U, 0x271a09e81f3fd3faU, 0x909fd030fed09f1U, 0x401ebf3e62c1200U,
  0xcedc08e1e80f3249U, 0x2004e10f05040ea4U, 0xd5eeec3630f9f620U, 0xd506fe15e313e7bdU,
  0xc6ffddf637e6b815U, 0x1add02fd31102314U, 0xe20408ed37ec10fbU, 0x24d43fcffc0710U,
  0xf3e5ec032805dbf5U, 0x33f1131bfa200f37U, 0xfc0107e508cb0a24U, 0xecfbda254f04f6eaU,
  0x171bfaec35fee3e9U, 0xe8f2d22ce02aed2fU, 0x121e1f3119120ff4U, 0x1020dea04ef0b02U,
  0xd9d91819d3f1f10cU, 0x1f8131617fa2813U, 0xcd2808cc12ed0dd2U, 0x51b2cf3f2f9d60aU,
  0xb16eb1bc4fce6efU, 0x170bea0207e629f4U, 0xbef162f290ef812U, 0x280ce20201f6d4feU,
  0x2825f3080cecdc18U, 0xed10fe07de260605U, 0xdbe948e61bcf000dU, 0xf8df1b301feffc09U,
  0x23e51609ff01dc23U, 0x218f806ff2804e7U, 0x2f0e23eb0e0d021bU, 0xfa15f8fbfefe2725U,
  0x102fd152e000c17U, 0xd31016f3e9e6cffbU, 0xe8e5d4f209cae1f5U, 0x311410f7e8140cd1U,
  0x1aeafce506080919U, 0xdbf60f241de51306U, 0xf2fe00e5fa0318d6U, 0x21131de9e913e128U,
  0x40f21409021c070eU, 0xfa1cea12220b02cbU, 0x24c2ef120ae90323U, 0xc114bf4040a3a37U,
  0x80a14f1fd1c1801U, 0x151b33fe0ae42f21U, 0x231507f51c08e60bU, 0xf4dcfdbdeadcee30U,
  0xfcf7fe0efa0eecd0U, 0xed37000ae3feecf3U, 0xe91b0bf201d7e6f7U, 0x429f2fe0118f62bU,
  0x1e1d06b019fec30cU, 0xea0b1242e7d10019U, 0xe916ec171908f402U, 0x94ebcea4b16e0deU,
  0x13faf5e11341f6ffU, 0xf40900021f0dfeceU, 0xdcfb1edf8eeafa1bU, 0xceff0ff18131d10U,
  0xf2e81e1ae012202dU, 0xe508281fca07f222U, 0xfcec2605d7eaccfcU, 0x2fb210b1a0cead6U,
  0xf0071406011a0aefU, 0x1e15d70b1612170aU, 0x208f91ce416dbbaU, 0xe12c091b07f7db31U,
  0xd244020b13100e1dU, 0xfeffaf127ccfff5U, 0xa34d914fdef300fU, 0xc2fce61ed100fafbU,
  0xbe7e621e7e2f644U, 0x12e7f0f80b16030bU, 0xf82af910c9c22801U, 0xf613bf32ffc32cf6U,
  0xeeeffcffe12fd428U, 0xeeee411ef2f20ee8U, 0x24d6f311f5fad5faU, 0x2ddf1afc0d1136edU,
  0x17ff231c260c2bf7U, 0xfaf6ece5cd232d06U, 0x1ae8392c0406080eU, 0xed5821f82238ff07U,
  0xeaf5050ef10cf043U, 0x8fcfdee0112f518U, 0xfe1215e3f61249f9U, 0xf21ee909e20d09c2U,
  0xfc08b217f0eff6f3U, 0x2030d0412fce722U, 0x3409edfc052bdb22U, 0xf61bf826ecfdeacbU,
  0x515d9120806e400U, 0x306f8da0bf61bf4U, 0xfeee11f509e60743U, 0xc10a02ef28191d12U,
  0xf4160d0a01fe19e7U, 0x3c242e051219dcbfU, 0xf926090c14cabef1U, 0xed08da001afde9ebU,
  0x26e037ebe4f633f7U, 0x51b0ae2fd07221aU, 0xf11f7fd16fe3113U, 0x301c3c2d32ecdbf0U,
  0xecf0230948ff09fdU, 0x21fefbeedfdefdfdU, 0xd808e8f8f10521e8U, 0xd44f0fdbdf8e532U,
  0x9e312f255e4021eU, 0x17f10f150919feffU, 0x51a26e708252817U, 0xe5c508e7fcee13fbU,
  0xf0fade0bfdf2f30dU, 0xe430034cf1e3df27U, 0x6fbf7f61304fa48U, 0xdde3fac9d2eefaU,
  0xe7fdd8021af8f0f4U, 0x2302200adaf001feU, 0xd9ece2e1f9080dd7U, 0x1de2f50703fa1df2U,
  0xecb9dc0d071ff52fU, 0xfb1ce52d34fd3bf5U, 0x2408fce8000002ecU, 0x1e8e80ff4e201e7U,
  0xffe60a2504d62e01U, 0xdc22e20819fe0b13U, 0x8edf313fdf3ffefU, 0x28cffc04efe30f13U,
  0xe6140e1507f41405U, 0xeff31ded231fef02U, 0x1b090034fe2e1c33U, 0xf0dee12100db3608U,
  0xf022311f9e6f808U, 0xd601042414eeef19U, 0xf7edf5fd3a011325U, 0xe5fcede9ea1653eaU,
  0x1a19e047e8112521U, 0xbd3fef9e2f71bf0U, 0xfb07f41f14f4f220U, 0x222cb12101ef1ce8U,
  0x21d20ed72823160eU, 0x1ce0f23e3d90816U, 0xde12fbdc1b1af92bU, 0xfd0212de0f101e09U,
  0x300819d30c0a1c06U, 0xbdecfadc1921f1efU, 0xd5f9de07e4fc09eaU, 0x2429eacdf7e4ecf4U,
  0xeb09ebf33cfe1e0aU, 0x15320cf6f10dfef4U, 0x180422f9f032ebe9U, 0xfcf4122328e3fc03U,
  0x10f0e1e01fecd1bU, 0x5ed2adeddedd5e9U, 0x8f3fdd637f2e322U, 0x29f6cef5f7200e24U,
  0x30f51620edf409e9U, 0x31f66c1beb180704U, 0xe03622fdb802262eU, 0x25010428eec702f8U,
  0x91e2bf301f91bfeU, 0xebfc01e9d602fd1fU, 0x829fa18f5ed0adbU, 0xf703010a36f0f6U,
  0xf31225f119061805U, 0xe10ce41d1e16200cU, 0x1c190cd809042cU, 0xf7e70a020d2de60eU,
  0xf2f715000530d20dU, 0x6ee130ff9f4f218U, 0x1ad209230cebffdfU, 0xcbf312d2ece0fcfbU,
  0x22ded220f0a191dU, 0xbf16f5f8eb0908eaU, 0x11eed224e3e610eeU, 0x2a06dc000af9e804U,
  0xe30fe4e9ede522fbU, 0xf8e2061d11f11724U, 0xf309d1f3eb10fadeU, 0xf6f325fd073908d8U,
  0x1512fdeeed260ff9U, 0xeef8140d15010319U, 0x8da28f1e5ed38ddU, 0x1023fc22d8191dfdU,
  0xe401fe0e02ce0b0aU, 0xa230fe4d7120e09U, 0xad08fdfa12fbebfdU, 0xdfd90dcdf2ed0fd6U,
  0x11ef06c61be4fe01U, 0x913ed310beee115U, 0x5fce5140cfd3524U, 0xb1a071d0f0311f5U,
  0x16fb00ee00ea06eeU, 0xb103d20ce41d0b0aU, 0xcefd1016f919e92dU, 0x826cb27adf7f004U,
  0xe90fed1229feff0bU, 0x131070b231fe4f8U, 0xe5d7da2021f83a17U, 0xbf627fc120b1818U,
  0x15091026dc071341U, 0xe2d72be807231a06U, 0x19dde3f1e70b2402U, 0xe01f18e45917ed00U,
  0xfc34240317d3ce09U, 0xe7d2d2c4e8eff704U, 0xfff8f81fd9ed13eaU, 0x3cf2f417131e08c8U,
  0xf618f6f6215aeee8U, 0xfedb3531fc05d432U, 0x140c22e9f0f9fce1U, 0x3f706cc06f3eaf3U,
  0xd2325fe16f9e014U, 0xf123fe11c7fdee1bU, 0xfb0f36db2eec0dfbU, 0xef12d1f4d7f2eefdU,
  0x1e11ee23d81719e2U, 0xd607150d1c0dfdf5U, 0xda240ae7fe0c1407U, 0xf43856f01803ed14U,
  0xf1deebf0310a30e9U, 0xefeec7def62a2131U, 0x80826120b0ae6f9U, 0xd06e6fbc302edd9U,
  0x1105ed0b11f21ee3U, 0xfde5fe00f433f4eeU, 0x2ff1811c7b2f340U, 0xc01f1f20d2653d2U,
  0xeb2a0be40212d014U, 0xe3d7e8c00e17ee1aU, 0x609dc0c08e0ecf4U, 0xf402ecfaec03d7e7U,
  0xeee80d0beed6ff0eU, 0x2be415033c093d1cU, 0x300c01000d1cdcfcU, 0x3fa17f6dcdef025U,
  0xdcf601111b29e023U, 0xd370a1ae5ee0c0dU, 0xd15dbe9eeef19U, 0xf41d1f4af7ec0fe4U,
  0x13fbc6f90a35fe03U, 0xf3fc03f0e4fd052aU, 0x2109ff151bd9fbefU, 0x29f3f70721211b02U,
  0xcf1e0cd901e3faeeU, 0xf5f90cd8cdf0350aU, 0x2cee1e1605141cddU, 0xeecc050eef0ef904U,
  0xf6f8052bfffdeffcU, 0x14d3de21fcfaf504U, 0x2adb0c22f3e11efdU, 0x50fed2f1a204528U,
  0xf4eb12072ee1fb28U, 0x905f7b61732e2f4U, 0x20ec120df7fb15f7U, 0xf5000109edf21ed2U,
  0x5fd1921230ed017U, 0x160ee032221204f9U, 0xf7fe27deb7012b16U, 0xddbce534e407d40dU,
  0x13f10fbeebdfe8d8U, 0x21092e10ef0a0df0U, 0x13e84c1d1eec0203U, 0xe10fc3200906daf5U,
  0x130c29f84a2729cdU, 0xf733fbe21fedfbe3U, 0xdff3ded7ed0cfed9U, 0xf5223b0e11d6d1d6U,
  0xde2f29f62d3af1dbU, 0xfa320a28b40cece9U, 0x1fcbf7fee713ee44U, 0xee39020c35ee14fcU,
  0x1ff7f90f03e80a24U, 0x26281ce3fc3be72bU, 0x22ec140c160b0513U, 0xf0df303173a0eeaU,
  0xd22d04071f03f90eU, 0xe5d60618f833100cU, 0xef8e51609cf04e5U, 0xd29f6f439e5f713U,
  0x6151e09f7062113U, 0x2ddbffe5f1ece7f7U, 0xf51e0deee32320f8U, 0x20cbefdffe3a2003U,
  0xff4f01af409e504U, 0xe7f211fc0f0b2cdbU, 0xf6e82d0df3260decU, 0x6ffe2131805fae7U,
  0xd03eb03e7010500U, 0xae70fe627d5f9d3U, 0x1bf20143fa1025eeU, 0xea170605e609dcf6U,
  0xcb16ed160cf504f3U, 0xe9fed6d1fb10120cU, 0x26ee0f2aebfaffecU, 0x1003d220de130bdcU,
  0xe05ebcf0c0e5fffU, 0x60d16dbd8d705ebU, 0xcee12707e9112423U, 0x9190c03f9eeeefaU,
  0x282dcafddb184bfbU, 0xf826e60e0aee2217U, 0x320d0d24f91fdb22U, 0xf9f90a00f0150aeaU,
  0x1a2e1814f904050bU, 0x1ef21de81b07e8e8U, 0xd7eb081d04ec12feU, 0xdc7e6cf0fd4f4f4U,
  0xeb21363504f3e4e2U, 0xfbe024e700f103e9U, 0xfff5080bf225130eU, 0xf1c9e4f12cf4210dU,
  0xadefa01def900b9U, 0x2c17de0aee1306d9U, 0x223270203e8fa03U, 0x2bf2daf0e3e2defcU,
  0x1403eb0cf80f4506U, 0x1f09e719f805eefaU, 0x2ae7d72236eb1e06U, 0xf0323702e0d5e319U,
  0xf80401ca0fec14ecU, 0xf610eb22bee147U, 0xd19e0e2e4162425U, 0x26f8101905fa1ce0U,
  0x2644000b09e9e100U, 0x22be43c46031bf1U, 0xe6f223fd14e4faedU, 0x3df925031fd8f00fU,
  0x2414f71b020f08fbU, 0x71e3ef0f1ff2e0cU, 0x5013f7150fdd1202U, 0x3ae7e7280a23ef07U,
  0x101f12fa09fc0715U, 0xde16dfd718f523ffU, 0xd6ef2a0b10f9f104U, 0xfef1f1fb1502fc13U,
  0x10803fdd8f50601U, 0xede00efaf8b8130aU, 0xea1df3e126faed18U, 0xee0fb1300c9f618U,
  0x1523f2ecf00beaf7U, 0xf7f0ecef1508fde5U, 0xf62cf7e307db08faU, 0xf011a131110e6deU,
  0xdbf902f0f013fa0cU, 0xc2ae8f605f82b04U, 0xeee6fef91a2506feU, 0x4f302eff0e1071bU,
  0x140f080c0be41720U, 0x301280c25fe1e0bU, 0xf32500fcf0350a11U, 0xf70eeb0ef11cea0cU,
  0xff1eee041b1bfef3U, 0xef2fc1929d218dfU, 0xe0f040c3cfb14faU, 0xd91df920ee1012ffU,
  0x1415f3220a1450fbU, 0xede605e2dafb02f7U, 0xfdf3efeaf5103c0dU, 0xfa11d0dafafa2004U,
  0xf7f4f30a06211301U, 0x15aefa3406fee0ecU, 0xfbf71ee9fcf8faf4U, 0xa8df181d0b21faedU,
  0xe91711df3003ef00U, 0x1d15fed5f64c2703U, 0x1210fe04fafafe0fU, 0xf3b7e918040cdae8U,
  0xfef6f4ed190de91aU, 0x21d0ef17fe0f462aU, 0x2debe61a0d1f3f16U, 0x8edfa0be01a11ffU,
  0x1807e3fc350320e4U, 0xea162bfefde3dbfaU, 0xf0daf13be716f830U, 0x4bee100e043fbfc3U,
  0x3f0b73aebded8beU, 0xfaed11d818f1f615U, 0xfffafcfc2de430U, 0x19e905050ae8ee32U,
  0xfc02d31522fadf11U, 0xe816f8eaf51ff5ffU, 0xdffffde0bec28ecU, 0xfaf6ffdfffe0e200U,
  0xd33f80df5f726f7U, 0xf8e81215cefad5e5U, 0x2f0049fe3d0fe313U, 0xeefb0af207000417U,
  0x22f80b06f11f143aU, 0x15d00d060bd04806U, 0xadf03242fe01205U, 0x11fde1ee23e5f4ebU,
  0xfdc7390a08042700U, 0xd60c071bd9f1d9f8U, 0x90b311bfe44c5d2U, 0x3d05da1ff01e3122U,
  0xa1de7f3230a04deU, 0xb0e270a0732b5ddU, 0x161326f4e3f4e4f3U, 0xfcd518f605fa0315U,
  0xdf4ad0e0be2c3b1bU, 0x514f7170512060fU, 0xf6e024cb2dd5c1f8U, 0x12f0fc04f809ef13U,
  0x14e521fc12dbed02U, 0xf7f50d171c1e2cf0U, 0xf91dbc25f7170325U, 0xdeee1aeceb2d1b30U,
  0x10fff5e90010e5eaU, 0xe00118032b08280cU, 0xf0120029eff6f606U, 0xf0e83fef090d1626U,
  0xfe07f619290bee10U, 0xebecf20bf3133bfbU, 0x2922ea310b1f03faU, 0x2803cff12c3c0226U,
  0xcc080ff20902f005U, 0xe430f1fae034f2f6U, 0x1ef5ec13e80ce50aU, 0x6fe07122be70401U,
  0xcdf2d61729fcdde6U, 0xe1afef6fd09d809U, 0x1df93d20e7e4faf7U, 0x70935fdfdff13daU,
  0xfb0fde05df02f3ffU, 0xfc10f935370707fbU, 0xded18d1f21414e7U, 0x6ffeefdf2d7182fU,
  0x1c07f01cf81c070bU, 0xe91507d40e0de5ceU, 0x1df5ec0a3cfeda0bU, 0x16f707f10ffd152aU,
  0x1a1c19280ee33f0aU, 0xe0eaedfff201f7f7U, 0xca0dd10404e50c2aU, 0x2e0b0818f4242ddbU,
  0xf122f8d0efe8fbcbU, 0x2fe85132fe05ee2aU, 0x7120b03e1f816eaU, 0xee60b1bffee0607U,
  0xfffbffebeae306edU, 0xd82cdc03f5051023U, 0x230900d3e036ebe3U, 0xdc2eaff62925e0feU,
  0x8ddeb1123fc0600U, 0xb18faeceef5ecf9U, 0xe81bf4dbf107ff3fU, 0x21193f123a16fa42U,
  0xbade0509ddcb0231U, 0xfdd30d01ed09f1ceU, 0x8fd01e4ff19ec08U, 0xff300626e2fa1121U,
  0xe9f3f849f316f927U, 0xe4002808f810fddfU, 0xe9ece530d3c83508U, 0xe4122bfcfb0f0708U,
  0xf527382bd1171001U, 0xc3e61ff4f31b02d8U, 0xfa02f2ec1cf5fcdcU, 0x11eef2241ddbf00fU,
  0x16d4ff2df502e30fU, 0xeccf06d7db16d7dfU, 0x1af83eee1603f7d0U, 0x3fb0bef371b11fbU,
  0x16dc2d2c141b2003U, 0xefe60e0b2d3f14f6U, 0x1ce1fb1cbadf0fU, 0xfed1f0c1b0e1817U,
  0xfbdee6f512d6fcdfU, 0xe7f304eeed073f08U, 0x3f110fcf31de4f9U, 0xef230dfc09050d1eU,
  0xf014e31eef11db1eU, 0x61a0112bffcfbcbU, 0xf7fdefff1ad6fd2cU, 0xd5fd4ceb14d31017U,
  0xf5f6c80bf72220feU, 0xff1e122027091e13U, 0xa2502ce0bf7fa02U, 0xef1d0b2bdd0f1cdbU,
  0xe820efee04e80d18U, 0x24b910fbec1a0125U, 0xf9f2f40103ea060eU, 0xf30306e715df0c07U,
  0x2a042cebf818240cU, 0xecd932231d0bdc1bU, 0xf615f8e9f61a2c04U, 0xe9e816260317dd0fU,
  0x22a1ae5f927f1c7U, 0x15f21026edd8d70aU, 0x3f30afe0a1a0512U, 0xcc2f41b18fdfffcU,
  0xf20be92be10f0b43U, 0xf612fb12e5e02d0cU, 0x35231005f20d1222U, 0x16ff2009fed701U,
  0xf11e0fdd06ec0cf4U, 0x1e19e83dfe0d1615U, 0xf60bf323c6c9200eU, 0xd205504022af90cU,
  0x1de1ee0d05edfb04U, 0xb0171105fa15c0deU, 0xe12d3507e710fcfeU, 0xeefc08091949d6e9U,
  0xd9e6fd0c1a1fce08U, 0x38111e072aceed0bU, 0x1a002fe5ebdd1b18U, 0xe9f2eb03f5ee1e19U,
  0x160005ffe6ec4b04U, 0xf8efff011ff90fe4U, 0x2e7090c28d7f21bU, 0x6eff3f0e7b8d80bU,
  0xe0090cf800faf911U, 0xf71c12ece148d211U, 0xe91a3a0a04d3de01U, 0x2ef219e5faddfae8U,
  0x4ee811fc2a0ef7fdU, 0xd519e6e3f1e4f60fU, 0xf2f20b2cee08090eU, 0x260ae12d070f02e8U,
  0x1907070c120afd11U, 0x1421e9eafc19d8ecU, 0x1bd505e60de71104U, 0x84c15e745e720fbU,
  0xf3f7ed1def17cce8U, 0xbe9efd4f40de30aU, 0x23e02c12f2e71d17U, 0xe1c9fcfd26ecf716U,
  0xf7cc05ed02f4e72fU, 0xf3061cfa35093819U, 0xd31beffd030f00f7U, 0x2d3f4ef21d082fd8U,
  0x1809eafbf69efe2eU, 0xd27f9122f3d1aeaU, 0xd60e1ef00bf832edU, 0xe1ecdfff002aee11U,
  0xe9ca090ce9212dd4U, 0x1ff810c0f7fa04e6U, 0x1309e733e0e2fe42U, 0x1804102706fb0f0aU,
  0x4c13d4fc0d2ef0f8U, 0xe0e0d111e61524f5U, 0x10121ae6f52af952U, 0x270e09fa251b21d9U,
  0xd90df909f62e162cU, 0xe8ef0d0f0c290925U, 0xaf3f8fafae1fed7U, 0x1dfd16f4faff06d5U,
  0xe4ed0f0ee91f1b0dU, 0xd1e3020fd731d6f8U, 0x250815f3d30e29f6U, 0x3b4a14f7f0f8131dU,
  0xfeded5fe26f71dc9U, 0x1ef4e4290ff5fd08U, 0x2c011ced030be8f1U, 0xb21f4effb00010fU,
  0xe1ec0bf4ddf31117U, 0x151c2507c4fbce10U, 0xe40d1f21070f0b01U, 0x3cc4d10bf81e47ebU,
  0x251429fe0306f418U, 0x7ffee0523fb03fbU, 0xcf8eafaeb1bfcfcU, 0x1d2ce617f906fd02U,
  0x1c0a3cd8f4edebcdU, 0xed032b0301f2101fU, 0x33191e21f6e91c29U, 0xe5f0020e01f8f200U,
  0xfa04f0e6f7f8db0bU, 0x2413d5100e000ae8U, 0xf0d0f6f3f4f918d2U, 0x82026f9252d141aU,
  0xc9dcd8e8efe724f8U, 0x10fe04ff2313e0f9U, 0xd0100c14d9262602U, 0xecd920f7fc0e30faU,
  0x17182813fff8fc08U, 0x931f62505d5d104U, 0x40b002f119ea05f5U, 0xf300efd72ce9e018U,
  0x17edf918f6e9e322U, 0x16e5fae81f05ee1bU, 0x24e4c60107ecf5d8U, 0xd40def1df626ff1aU,
  0xc01ffcedffff6edU, 0x7052d1503fed229U, 0xf4e2f03d15fdfbf3U, 0xf1e7d235fdf50020U,
  0xff0adaf229ef2336U, 0xffecfe33fb070b28U, 0x9e924e9edf3dee2U, 0x32eddcf811f6f00eU,
  0x1cea2feb24220df3U, 0x101f3ea0fdfedf3U, 0xf6081915f7ecf6f9U, 0xde3c01240cfa041eU,
  0x81bc8fc23fcf804U, 0xc23d071110fc04U, 0x23f9d4fdd6f8fa1bU, 0x70901ecf5d20ff8U,
  0xf3e30818050e00edU, 0xff5211cf50efafdU, 0x3e4afee5f4dcacf8U, 0x705fef91be704eaU,
  0xffafff7c6de111fU, 0xe00e2c0f0cf11002U, 0xb0e0e0b0c35f103U, 0xf355fd0a050a021eU,
  0x71733f5f43008d3U, 0x726d30f1007e5e3U, 0x183b24f2bafbe201U, 0xf9ffc8ef0dec1003U,
  0x13161f09eeffe103U, 0xb1f6e921f41b1f31U, 0x24f1de12ebfee8fbU, 0x7fbe71a25100714U,
  0xec1be4081bd3ffe3U, 0xcff2031d9f8ff12U, 0xf011fd1517f30f0fU, 0xf01d26020afe1903U,
  0x1613fee1d70208f9U, 0x170136f2f640f008U, 0xd1ff28f705150bf1U, 0xd9f2d207f6fdefe7U,
  0xe3db0312d5e0f2eeU, 0xdc1bea4a091c1bfaU, 0xfa1800e8e0e0e82aU, 0xfd010ed20110f7e3U,
  0xfcffea11e106fd11U, 0xf14bf329ed1108e1U, 0xeb2b01e9090af3eaU, 0x32070dd0192b2c08U,
  0xf021fb2c0b0a0d03U, 0x10e0c0cd4f51302U, 0xdc0d13dde9f0c348U, 0x503d7f1f81bde02U,
  0xdd052312341df40dU, 0xcffefde290425b6U, 0x230ed612221b16ceU, 0x1ce8d5eed7e40e12U,
  0xf431e52618f41de0U, 0xf3013453f5291414U, 0xf3021321180c090cU, 0xe728050b24ee241eU,
  0xf90c1ffcf7f8011fU, 0xfb030ae610050be1U, 0x13e73103de25d8dcU, 0x18fdd2fd07ff3723U,
  0xc1beb1329020aefU, 0x21bb223fc06f6d2U, 0xeecdbb13c0011d2U, 0xef1b09cce0d81bd3U,
  0xd4ebeb031720e5e0U, 0x2613f127fde21904U, 0xee1b1c41e6e048fbU, 0x3cd40318f2f8dd0dU,
  0x7efdf11fcdaf60bU, 0xf7fae5ef06c6d717U, 0xd01d0beffed80af5U, 0xeecbf544fb071ff3U,
  0xd1d1e0613e30a15U, 0x192dfd201c0526eeU, 0x11e303fade24d81bU, 0x2a023701ed000221U,
  0x291bfa470b14ff03U, 0x6f60df9d813cce7U, 0xa0343fef901023fU, 0xd9f2cb0fe1ecfbf5U,
  0xd9ea09fbc32ae504U, 0x28fc2bf92a03fb21U, 0xf4f6fa0d0e071a17U, 0x5e6d3f0131aed06U,
  0xbebe3faef09fc08U, 0xdb09e6f0e71be7d7U, 0x5300af51ce81bffU, 0x221e1c0e33d7e4f7U,
  0x14222505ebf1fceeU, 0xc3261f23feeceff3U, 0x34f80607c6082224U, 0xe020182f03222d0eU,
  0x15d708e31054dad1U, 0x210c551e0f16140fU, 0x18e6fe191df34d1dU, 0xf2040bb002e3f4d5U,
  0xe427fd02dec9120cU, 0xed23f90a190e0507U, 0xbd82006173d0cfbU, 0x1627efe6f7eadd1dU,
  0xfcc0f8f80c0e02b9U, 0xa2a01efc726fdbbU, 0x2ef00290dd52bfbU, 0x14f8072e19df01daU,
  0xffec15f5200e17f9U, 0xfc01ecef09370658U, 0xe21eedf93c0afe1dU, 0x4e22ef5f7be0407U,
  0xeeeb1e193211f306U, 0xf4ee120add0b3709U, 0x1fee1cd1eb0f4005U, 0x30ee5fb00132539U,
  0x522d510d809360dU, 0xddf916ec0c1de70eU, 0x170f11f61903fde6U, 0x122515130feb3817U,
  0xe8361d0103f7f2f0U, 0xffecf4e9f4e32de2U, 0xd300f4180c1cdbf9U, 0xe20eebf4d3e623dcU,
  0x5f60f16f002dfe1U, 0xf8fdfc15d2e2fad0U, 0xe2fe0efc0e301c3aU, 0xf4f50237091614d6U,
  0xd04080e08e813U, 0x7ff12230bf31706U, 0x390236131afc15f6U, 0xf8f8fd0dffffefe6U,
  0x2c023c1401ff28f2U, 0xe3fbffe8fc1def02U, 0xf5eaeb17e624f5f0U, 0x2b0bfdfc0d0d052dU,
  0x1e000e391d09e827U, 0xdf11f1050afcfefbU, 0x2a12c2132eebc10aU, 0xdbf4f605f7f61314U,
  0xf601f0e410f70d03U, 0x58e90d2a15ebf1ffU, 0x1408022e1605eed2U, 0xeadd0b27c4cf1903U,
  0x3a0af6001aec2dfbU, 0xd1fef30ff8070c1dU, 0xdf1523f6e3cce6e5U, 0x19f0e414fc1cc8e8U,
  0xfeffeddbec0e0f1cU, 0xed27edecd10b06dcU, 0xdeec60b510bfbfdU, 0xff2eec13f9060242U,
  0x18ce010e14f2fa1aU, 0xa083d03fe0cf7f7U, 0x2270f34f71c0039U, 0x27250531f7162613U,
  0xddf6fefa230817e4U, 0x18f7fceae9ff230eU, 0xf9d4e01529f621ceU, 0xf3f3e3f70bf6fb1eU,
  0xfcf5c711e20f1c06U, 0xd8f4ed0800173207U, 0xfffe030032f81701U, 0x17180eeaebf5fb21U,
  0x3be0ecc6f7f912d9U, 0x240afdfe072ff73dU, 0x2935fb0a16f8e5ebU, 0x9fb1b0808dd3912U,
  0xf908e542cff224cbU, 0xe80f1503c60314f7U, 0xd9192dfc0d060912U, 0x1a3127d7c9221f05U,
  0xd6ede3f303dbf9d4U, 0x1a22e1160d061afcU, 0xc427110614011809U, 0xf108d40413e41b15U,
  0x101b3221f9dfe30aU, 0xef50e30fa13e8f8U, 0xbe7f21be9f318f3U, 0xc002be6260a2309U,
  0x10f904f131e8da02U, 0x1132c5f245de1232U, 0xeceeddece70bf924U, 0xc6f20fc1e6fa06eeU,
  0xff2de4da3b18f7e7U, 0x718e51d12e4ecffU, 0x920f2f0d1fa0806U, 0x3fed2a0300ecf0f6U,
  0xfb0cf008e00e4407U, 0x53a07f00ee8fe13U, 0xf607dd1ce2132821U, 0xf4fdf427e1f4fdfbU,
  0xe5050b0c14e9f613U, 0x11021845201cf1U, 0xc82ae7341728f100U, 0xb1a09140cde0f10U,
  0x13d2cfa0a0d2c1eU, 0x1a1aef1ddf2f3906U, 0xdeaefede919f3dfU, 0x32e8e6101de0ebefU,
  0x240fedfaecf12019U, 0x1d3413150a1af8ffU, 0x6db0bd80c040006U, 0xcdebe4e60110050eU,
  0xebe2f706effa021aU, 0xf608f6e6c8f1e1f3U, 0x162112bc12000014U, 0x200ce21de9ea0cdfU,
  0xf3ef02313ef2fd2bU, 0x30e0ee1b4eb0ce8U, 0x6ea0e1d0514020dU, 0xb1925edfbff08fbU,
  0xea16fd0b010f08fdU, 0x11bfb04f61a241fU, 0xe3f9ed0dd31f04f7U, 0x820151cfcdf18e5U,
  0xfa1cf1fff6f41603U, 0xea1cfb0bf03d1c0cU, 0xe004dd38142513e2U, 0x1701f5e21303f00fU,
  0xff316da23110bddU, 0x1c21faf80702062cU, 0xe6feefff4c03ebfeU, 0xd6ff05e9e808fbf1U,
  0x1534362edb0d11c8U, 0x134afcf9bdf8ccebU, 0x212bd16e6e90600U, 0x14d4f323ec18e9dcU,
  0xe64d0af210f00930U, 0xeeece3fc22e5f4e3U, 0x92a22210d1cf41cU, 0x1d0c191d25e5d0d2U,
  0x1c02f4e9361d283cU, 0x102cdeca0d0fcaffU, 0xf204e1f0bde7f800U, 0xead927e1dd0d07U,
  0xeae8c7f8e7faf31fU, 0xd0f05db073c05feU, 0xf837fd1925ef1102U, 0xca151aecce0af4U,
  0xe05fef3e70fe0ecU, 0x12f1ee122ade3a15U, 0xf319d60ff3ffef13U, 0x33070bcedc105e27U,
  0x35efef24f4c015f5U, 0xebfaf30610fde5e8U, 0xff1cfecf36110720U, 0x2491af6ecf92620U,
  0x7051e2127f4fc33U, 0x4611061015ebf909U, 0x16260f1a06def526U, 0x1c27e8fbf9c91704U,
  0xf3e70efde83016ebU, 0x30ff325f9e8f1f8U, 0xede7fd2f21f4d13cU, 0xf8f1131b12560022U,
  0x1102dadc0a12c70dU, 0xf4dd301ef1efe832U, 0x2409fb1d19f6ffe9U, 0xefe7051fcc3134e5U,
  0xf52ccb11d3ff20f2U, 0xdcfd030e1be104ffU, 0x2618e5dbf5042a0eU, 0xeeeeedfefa110c48U,
  0x34b36eef1e6f9e4U, 0x41a1320ee02110cU, 0xf0df13e111ea03f8U, 0xf5fc02071303f213U,
  0xf5000afbed0dfbf4U, 0xf000f51d06210ce1U, 0xfadaef00f2fd200fU, 0xee2e11e60eeb10caU,
  0x32e1e00c332429f8U, 0xde43050ef700080bU, 0xfb27122f21d82103U, 0xe201020a04ee150dU,
  0x1503e6fb13032706U, 0xa3e12e115e730e5U, 0xe90f10c20112e404U, 0xf40101b401d90ef8U,
  0xf5102300ee0a1ce2U, 0xde7090bdee80d04U, 0xf804f2faddc9dd1dU, 0xef21e61a1af7f731U,
  0xc30052022e9080eU, 0x1ff526dbdcf8e70fU, 0xec03f7e8cfe1efdfU, 0xf8e8f52feb00e21cU,
  0x21909e3c40a0802U, 0xf3021d1f1c13e7f3U, 0x53e15f90d0a20d7U, 0xe1140ce91717421aU,
  0xfd382fdaf1e10a07U, 0x152919e412eccddcU, 0x100119c3f9c1e2dbU, 0xffa2140e70afbf2U,
  0x2d053711f829fcffU, 0x2a15e1fdfe090cd8U, 0xf7ece1e1edea3702U, 0x25ede60cfae2d701U,
  0xf80ef20740dc1feeU, 0xfbf119f7fd0b2007U, 0xce8c7efe5eb03f5U, 0xef25fa0d2dfd21fbU,
  0xebfb0935e416d5e7U, 0xe92b1603f7210af9U, 0xe6f1f400069bbd1bU, 0x6fcfad2df111afbU,
  0x1f21072306e7e7caU, 0x2a322000fd0b0addU, 0x5b20f0ede4e0e2e8U, 0xff080bea07e13109U,
  0xa02eadaf40304faU, 0xfb1f0afdfdeef70fU, 0x11f7f0fef9f50ceaU, 0x40c111305fce6edU,
  0xe3e9ebfd1ee1020eU, 0x4f0f71306060ad8U, 0xa0ff9101af0ca15U, 0x1bf5c9bbe6060ff6U,
  0xed1b2df014eb0a06U, 0xfd1f04fc1ff1d817U, 0xfc111f043410d8efU, 0xec0ee0131714ec0cU,
  0xf909dcfaf0270e07U, 0xf207e12d040930e2U, 0xce1cc4dae6d31731U, 0xe0e1cde1a031efaU,
  0x2edac205dd310f00U, 0x4104eff3e3d503f5U, 0x15f6ed1826204902U, 0xc7dc09de00e011e1U,
  0x42e0213e03fb24d7U, 0xf3f8e652c0f30cfbU, 0x2e150c111fc6ecf9U, 0xf6eaeaeb2b02fadeU,
  0x34cf80ee1ee09f6U, 0x2601f2ed0f16e4e2U, 0xf8f9e41903a9c7f7U, 0xeeebf5fffd220712U,
  0xc24e21d03050e11U, 0x49f4fc05f51dfb21U, 0xff22032e001b1ce8U, 0xfcf706e4fbf2e60fU,
  0x1c0e280814d2fe24U, 0xed06fa0729db162fU, 0xe6200b1814e02f25U, 0xf1fd0310d21a0fc9U,
  0xfa33e706e12610feU, 0x190ff5faf6f3d1e8U, 0xcfef923cf070be2U, 0xbf3d72ade1c2313U,
  0xe2f061228faee1fU, 0x315efffe7f4d718U, 0xf9c7e4fae6c70cf0U, 0xe81323e5f9fbf427U,
  0xd70901f0ec1521d8U, 0x1018f3f415ef1e2dU, 0xf9eafff4113303f9U, 0xfaed22e72a00092dU,
  0xdb2213e82de7191cU, 0x4dc1112151205f9U, 0x51ce8d61dfd0a22U, 0xe7d8cd05e5f3f7fdU,
  0x1dfe162617ef2a00U, 0xe3090b2814f8f504U, 0xfc0d07203605ca00U, 0xf403f8fef7f126ebU,
  0xcf2b172a2f13e9e6U, 0x3ad70110e50d271cU, 0xdf18caf1e20afce7U, 0x2acd0432fff61009U,
  0xcf9f52a3a02e712U, 0xffe90611d8021123U, 0xc3e1e09da1c1ef1U, 0x2231ce00fde14ebU,
  0xf2f9fbe8f22712e8U, 0xf308fd0cca0308f0U, 0xae0207501d26fad9U, 0xe121cf004ed1018U,
  0xe006ddceddf91af1U, 0xc6f707eefd19e5e6U, 0x646191df9051df0U, 0xa18e015032817d8U,
  0xce306a9e6ec0ce0U, 0x190ee20d0f1a0c0fU, 0x18f9e7151e18eb05U, 0xd9ffffc42a1901fcU,
  0x1e48fbf930fae239U, 0x9c3dcff3c174bf1U, 0xd1e06f3f71f0b15U, 0xef46e6faed07baebU,
  0xdf022bf5e40cdf08U, 0xefe40837132f08bbU, 0xf4f70b06200df92fU, 0xf1fed61204f61003U,
  0xb2ddbe226c81f14U, 0x1b251ef1bef107f7U, 0xe4e7031700ff13faU, 0x23f51e26ebfadd09U,
  0x361b0f072dd131e2U, 0x1dfd25cf13f6f110U, 0xd2037e9fa0be7efU, 0xf9f7f1f80afa19ffU,
  0xfd0816050b0eeef6U, 0xe4cb07ea0c07eaf5U, 0xf9090b13eb0b28f9U, 0xf52810ee21e6ffedU,
  0x9c9fce443f122cfU, 0xa30be8e70212f224U, 0xe3f222fff00ff1f2U, 0xee3ef100af11007U,
  0xeff8e306c214332fU, 0x13e2dbf62bea01e3U, 0x5207fb12050a02fbU, 0xb10fffafff1fbe4U,
  0x29af22ca26f4dd12U, 0x2fa1df046d8fff6U, 0xf209f2df04c9e0deU, 0x10040bf4fef43d04U,
  0x19e8edfd08f1f3e0U, 0xfc01c508e801e2f2U, 0xebf7d80ecf4be9ffU, 0x1a00da0bf3f3091dU,
  0xfc0f111c03dc2450U, 0xf61de107c4f3eef4U, 0x26fee825f6fa0a21U, 0xf92217330307172dU,
  0xf9f80f0f0f0d1411U, 0x2c34020fe8e716f3U, 0xfd15f61613f30f21U, 0xeb2ae637150b1b0bU,
  0xa1f33530040e1d0bU, 0x6e8e7f52631f9fbU, 0xb9eafbeb1305010cU, 0x11ebebfc3202f9eeU,
  0x1900072d0ad310dfU, 0xee6dc240c0ee0daU, 0xf8fb0df7edce2400U, 0xf4ec0f0ff91e27efU,
  0xf9dcf2e0d6061900U, 0xdd1df101161cf103U, 0xf04f8ebf0e22b05U, 0x15f82d0cf8f016e1U,
  0xedadd18d3e9fee1U, 0xa0efafe230422c8U, 0x12dbead21ed7e014U, 0xd70ff20bf0f11933U,
  0xea17382902fd07efU, 0xfe09defe0de419dcU, 0x1fe23af70f251f04U, 0xfefdfd09e42d18f9U,
  0xd2f0ece5141bfe18U, 0xe8023308323af0d1U, 0x1deb0ee910c322e6U, 0x60ff722022c1cf3U,
  0x1002df71b12df1fU, 0xef1be51df61b3cf4U, 0xebefe40f332e282cU, 0xf1131300e830ff22U,
  0x713ccfef10d04f2U, 0xe61e0dd00c1011fcU, 0xe9f60608ec3afdc7U, 0xd8f5fdefe3f5ceeeU,
  0x6fcf7000510f30eU, 0x2512ebee0dcc0f04U, 0x1e32f8ed103002dcU, 0xf8fe140a1efcff10U,
  0xf1fb34defc1a122eU, 0x140f37f9f22def10U, 0xd354142ce5f3d2f9U, 0xeb05fafd07c91c0cU,
  0x2607e8ebedc04822U, 0xe3e80100fef7fcc8U, 0x4ed0a5ef11bf91fU, 0xe2f110cb04050111U,
  0xaf02d4f61c1f0c11U, 0xe60df411ebfcd7c9U, 0x1e092112f0f20839U, 0xda0a0aee16d724f7U,
  0x60af6f50af70ef8U, 0x2e0cf10236f8ffebU, 0x1d11ebdfeef4ebf9U, 0x380def1e05cde51fU,
  0x18f3f30adae00efdU, 0xc121f42f52a0e08U, 0xf7f20a2418382924U, 0xf531dfe726e5ffdbU,
  0xb150f2ad00c2926U, 0xe41410f4ffede6f7U, 0xfcebe7ec4eef300bU, 0xecffffea04d40b03U,
  0xc7d2fa1303090922U, 0x208f6eaddeffc10U, 0x1ee7f2e01e03fcddU, 0x23fbe700fc1c2f13U,
  0xf5ccdc0213fbfa02U, 0x39e6212001fc131dU, 0xf3e0100ef20cf41eU, 0xfe20f3ffee3106efU,
  0xfcf406edebd2dd4dU, 0xdd8fdebeb130e06U, 0x91f051e1b2c1501U, 0x2601bdff1cf61afcU,
  0x260c2023ec320dffU, 0x100a0c0001f8cf0bU, 0x3decdd0511ee0e09U, 0x1afe3aeed020d5ceU,
  0x25e00028f341efdeU, 0xe32170c46ebb2fdU, 0x5ea012b19faf81dU, 0x140227fb091c1bfbU,
  0xfafe210bfcf020fcU, 0x10d3250504e94005U, 0xe0e0f0708ef1a13U, 0x3050cf409f21ce2U,
  0xf612da15f1080c01U, 0xec050cf4ff3e33e0U, 0x9f611212ef5d3f9U, 0xf5dcf3feb8320214U,
  0x16fddadefff803ebU, 0xf1350b002efe11b8U, 0xefddfc011302ef0fU, 0xe00fe5fe0a2d29feU,
  0xe0bd921e613dde5U, 0x171be4e81df7fbU, 0xe1f6fe30e0e3e2dbU, 0xe351e90c0cfafabeU,
  0x10f60d12f0eb0309U, 0x260603fdde00e60fU, 0xf001182d2f00ee1aU, 0x3f7c4f9e9fb22f8U,
  0x1f21c21f6f20adbU, 0x6dc09fee7180022U, 0xc7ee19fa3714f607U, 0x210714f116f2390cU,
  0x1b06fce5e7041d08U, 0xf9e70811cfdefbbcU, 0xf70016cb0eff041eU, 0xfe0ee001da3014fcU,
  0xc00dc7f01421f3dfU, 0xd8cd1628d814c921U, 0xf20ffeeff60c0a30U, 0x111aee28f11dfd2aU,
  0xddd0806ec100525U, 0x22f5c6f70723fd42U, 0x113108d6dd0ee302U, 0x1b0df1d452190bdfU,
  0xdff0beafe10fe2aU, 0x25d7eb041aeeea0aU, 0x1c0e03fbf5f8003bU, 0xe0ef184334e90c02U,
  0xc63ae510e5d60c0fU, 0x341d0018e3e414U, 0x2fd0bfbf8110ed4U, 0xf805f83c1b1527ddU,
  0xed1bf1e8f9ea30e8U, 0x2f26fbf8ee2136e5U, 0x1c05f519ed12dcdfU, 0xd2ef1dddffe8e620U,
  0x1aeb050af4311d09U, 0x3d00f3dcfd10f40fU, 0x181805f01af21902U, 0xef0bde1b2b040d1bU,
  0xe3160f3215f40323U, 0x41a034816c81f1eU, 0x15f2ff190346ee27U, 0x40d1f3215ff0ce7U,
  0x16c5252afa430a15U, 0xe610f227feccf611U, 0xe11f60eec2d20ffU, 0xf4f7ff0408c507eeU,
  0xff0cfb0cef200df7U, 0xfa11f01b11240d0cU, 0x6f421eb2ad8faecU, 0x2eef1600180bed0fU,
  0x210cda05ffc6d3f3U, 0x12221e0f00e33004U, 0xdf2f00801e6033cU, 0xe5ffdb1bf31206ffU,
  0xf60dfc07f90f1e13U, 0xfbf10bea2719e900U, 0xfbf634fd13e815d5U, 0xd005f131fdf0dd0aU,
  0xea0a190a0dfa08ebU, 0xfa04200ffeec0e22U, 0xf7f1ebf22516ddfcU, 0xef15ef0d0a073ceeU,
  0x13c413d90a260e0dU, 0xdf24c9edf513c8eeU, 0xefeae9eefdb7f5efU, 0x5f521c61811fbe1U,
  0xf71314092515f10bU, 0x925260b27f3ec1cU, 0x1703061cef0be028U, 0xfada0209f5dd0ddbU,
  0xf6fe30ed060311dcU, 0xf7e2ecd7f4de050aU, 0xf3fc1e1c18fdf9ffU, 0xf4080a19fae9f518U,
  0x3e3dc0102d4f3ebU, 0xf6c70215f71aeacdU, 0x8bc031d0912fadcU, 0xe816e3f0d5dbe81cU,
  0x24f4083221f7e602U, 0x9fcdef205120104U, 0x1f110a1308fd24e7U, 0x140f09f6e004dfdeU,
  0xf12b08030a59f8e6U, 0xfedbe6d2dee022d0U, 0x1fdfe2e4fc1b25f9U, 0x13210def0731021aU,
  0x16cc1dd9f605fd06U, 0xfe07ecf721e6e93aU, 0xf241c81518060109U, 0xed1904dafdfb2f3dU,
  0xcd17113a180917d9U, 0xdf4f71df5013c1eU, 0xfe120f2df413db2aU, 0xec06100ff5210bd7U,
  0x1fcd3e5251d00f3U, 0xf82ee2f3e50410d3U, 0xe8f80215fb2706f4U, 0x24eff0efef0e1312U,
  0x5b090e251cf73706U, 0x1ffbe90f29fe03fbU, 0xe01ed16d119e917U, 0x10edd2dbc15c724U,
  0x3fd2f04c3e3fef1U, 0xdd0003011ddf0af4U, 0xdcd2180100efedd9U, 0x3004e3eae80ce92bU,
  0xe90ce608fcffd812U, 0xfa26e1fdf00f2531U, 0xd0f03b0cd60ce6fcU, 0x1a170ceefb0619eaU,
  0xf5e0c90f0319fbfcU, 0xa1ff9c9f64afedeU, 0xf90ef4eff025031dU, 0xf3f52f2917d71effU,
  0x2cd815c8120cf5ecU, 0xfa17ede72200f318U, 0x34f4ccfc01ce20fcU, 0x320f1022d911f01aU,
  0x20ce1e613f30bfdU, 0xf4081ced0dde00f4U, 0xdf1bebdf03f0fad3U, 0x845e410130d3a01U,
  0x29c707f30203f0f7U, 0xe70f041a0922fbfeU, 0xe836191f00fb01fbU, 0xf1830ea020f02edU,
  0x4901fbfedce5d546U, 0xcb02250215140befU, 0xf6ffef0210eff710U, 0xc31acd13232d1618U,
  0xe20dcd04eb17eacaU, 0xeef1deffceff06dcU, 0xd1eaeadaf035ebe1U, 0x18e302f637ececc8U,
  0x12fb07d62a24e809U, 0xf21ffeeb2a08fbe3U, 0x1e05f100e60a1a31U, 0xc13413f5220032eaU,
  0xe09fdf30ee70828U, 0x1f406f90dff18e7U, 0xfbff092923071617U, 0xe525ea25ecc21a05U,
  0x1e191312dd0a14f7U, 0xfd2bf4fd1408f734U, 0x45f546ff1a16edecU, 0x3716f71619fadae0U,
  0xf0f70008f9c5021eU, 0x11fee6eaee0fdeecU, 0x16f2161b0f310727U, 0xeaf1091b09feb802U,
  0xff21c7ff310f0014U, 0xfbe705d2e5f7fc0fU, 0x57ea1a0de4e3e1f6U, 0x122a20de232d0106U,
  0x15dbebec02f910ceU, 0xe6e8010012112ac9U, 0xcf6f8250ef30ad1U, 0xd308080c33cf02ffU,
  0xfce4f9000fef2923U, 0x12ad5f1e6350c1cU, 0xfd1d06fd0dfc1cf6U, 0x630021b05c0cae8U,
  0x7f6e6f50131eb07U, 0x5090f26e7ececf4U, 0x16f412c4ebd24932U, 0x17d9fa2cea0fdf23U,
  0x17360614ffddef00U, 0xe0f9f703fbf22f31U, 0xce290dedf6f8ec0fU, 0x226e3f04601ffeaU,
  0x1dfc06f7b3c5d514U, 0xdd512fa11cd19d7U, 0x3c2504fef3fe1124U, 0xeaf7f4e6def7f0efU,
  0x905fe120d1f040aU, 0x1f362113100446U, 0xfaf6de0dfbeeed27U, 0xe341d7d5e6022f2aU,
  0xed00f500dcebf2f2U, 0xe61810e108f21e41U, 0xecccacf005fe280bU, 0x3315d708f2ffe5f9U,
  0xea12200a140ca6f7U, 0x41e312d8f2d51b2aU, 0x1c0efc2ee11505c5U, 0x1e1b1805fd09f3d4U,
  0xfeede5ff17d224e6U, 0x231f01ea040c2fe6U, 0xc81f2eee06f3431fU, 0xfdf21bfced000b2aU,
  0xe6ccf0c6e3f80717U, 0xe514160be40ff300U, 0xfe4301e8c5fc14efU, 0xfafc04151fe0131bU,
  0xf9030f0100f80c01U, 0xf1ca15fcecf8e7e5U, 0x1603e6e63cd822f1U, 0x52fff0fbd204fb17U,
  0x71a10eb18010600U, 0x190bfb1c3a030ccbU, 0xfe0e06042404ff0fU, 0x3f614e4fbd6eafbU,
  0xde3e011a260fffedU, 0xd8d5f70ad2fdf9e1U, 0xfa41f7d435ea1a01U, 0x210ce93d0beb1fffU,
  0x181bda0800fc20ffU, 0xfedf41cf9071aeeU, 0x1117e0d2240430d9U, 0xcee0726f4e1fed2U,
  0xe31c1217f806f9fdU, 0x1e818f3d7352c30U, 0x3706fdfc0b39f806U, 0x47f919e7013c35efU,
  0x21704030c0a0f00U, 0xff30fbf83001fcf1U, 0x5ff0bf8ddf633ddU, 0xfd2600161411ef04U,
  0x1030f71515e4e5ffU, 0xded5f703310dfd00U, 0x10dbfd0ffc2bd60eU, 0x5e21e00153ff9deU,
  0xb223181326271a1cU, 0x1b15053f2320f1f0U, 0xfe140808e9c522U, 0xfbf427edeedf0e29U,
  0x14ed161538f930e6U, 0x22f8e51afd38e107U, 0xeef5132efb18c7f3U, 0xde203f318fed319U,
  0x170c020b0bcd2603U, 0x33200180217d9f9U, 0x120d120709f6d1f1U, 0xf041cf6072eeef2U,
  0xbe607ebeada0f35U, 0xf5f00f221afe1df7U, 0xecf117faf61cf0e3U, 0xe3d5060e0a264013U,
  0xf6bd32f21b0c0908U, 0x15ff04efdf2cfcfbU, 0x253c170930ed1a1eU, 0x1ee3fa04d70afe09U,
  0x1623ed0c1a0f2609U, 0x8eb050315ede2f2U, 0xd302f5fc1fcf342eU, 0xfc160b2af31f3404U,
  0xe7f7ddfc0c010428U, 0xfc9efeb13e7c8feU, 0xd6d81943e706102aU, 0xfe22f633082a14f8U,
  0xf9f2da2303eff202U, 0x16e9f91d0a0fe41aU, 0xe3ee1b27d70bffe6U, 0xe631d524ff2a360bU,
  0x241df515ce2c0911U, 0xf00a25ef27f6140cU, 0xe10d0bf527f11707U, 0xe00de70b1a011122U,
  0xff34edf7ef181805U, 0x10da36d5dc21e605U, 0x19f4f7060be01a21U, 0x1b281c14eee623e8U,
  0xf546111d2620e0f6U, 0xe0f127f746ffecb2U, 0x32f7f6f60cf616e7U, 0x49dad2ec101217e6U,
  0x1e4a3b3807ebf5daU, 0x1ffc0807e12919f2U, 0xe22ef0320ff608ddU, 0x230ef710f10708d1U,
  0x15ed1af41c07ff08U, 0xe008090ff1c70ff2U, 0xef221e1bfafbe73dU, 0x9ef1227e408ec0dU,
  0xf704f7000430cf16U, 0x3b0d1bd4fe052fdaU, 0xf71807c2050f1f0aU, 0xd20c0306fe0f18efU,
  0xc6fa001a1c1dc801U, 0xd460c24260df226U, 0xf40c0ed1201ffed4U, 0x41f3b15fbddd5d1U,
  0xede61fee041107f1U, 0xe2e9141f0af60bdeU, 0x203f912efe524efU, 0x4e2050cfb1d01e7U,
  0xf2151fff1323f51eU, 0x5e5f720050ed3ecU, 0xff0fefeaf3271b19U, 0x19b5c51525dbec1dU,
  0x221811fc0afe00f9U, 0xa191620f5f2e712U, 0x17031a07ff47dadeU, 0xe1e6fe14fae7dc02U,
  0x1e0ef74cf4e4f90bU, 0x25f519eac4da2d1cU, 0xfd1026fa0210edU, 0x100b2d08e5feff1fU,
  0xdf5e8f61116f7ccU, 0xe61c0efce3e2ffefU, 0x4d5090f130517e8U, 0x142d1af6012e151dU,
  0x1704ff1d0de717f1U, 0x38fdde03f6f5f41dU, 0x2f12e513fff1d70aU, 0x12052107fa00f225U,
  0xdfdfeeed1df1817U, 0x13060efafefc38deU, 0xf82ee0e51de80102U, 0xd8ef2ad61908defdU,
  0xf6002c190ae512bfU, 0x1d4e0cef8f00ae2U, 0x182211f409100c3bU, 0xfde51c0b03d8ecU,
  0x3e2ff0711ec03e9U, 0x3da0624171501U, 0xff320a13f4f21120U, 0x8032314f203e6bbU,
  0xfdd7fce02d0700d6U, 0x1b2e01e1d4f90705U, 0x1525042b251601fcU, 0xc0e1615fce4e6bdU,
  0x101c091e270719faU, 0xfb26f0231a14f322U, 0xdf2807dfe6bb09e2U, 0x27150ae5ffe3df0dU,
  0xf009e30be3e501c8U, 0x14061421ee03c5e4U, 0x3c0413e9edf70710U, 0x12eee1d1032cdefeU,
  0x500d01a0be2d414U, 0x10404071d2b1c33U, 0x10e2e3f0ffe20d11U, 0xdd00f20a17eff804U,
  0x1d49df182105fe20U, 0xf71edd091a2ffe02U, 0xed041e2a02ef1efeU, 0x2814ef27fbf7ec0eU,
  0x1e917f9fdea00f5U, 0x121e1effdacd101cU, 0xae221ff2713e5U, 0xfa0203130d2fe7f3U,
  0xccd608223ed9db2aU, 0xde1fdc15540cd8f9U, 0xc10fcdaf7f0e024U, 0x2203121c0329271dU,
  0x340b0be8f30508dfU, 0x211b1617dc19e5daU, 0xf8d40ffa1ce8fdffU, 0xec0ef6260d021123U,
  0xdd0307dde61804daU, 0x601131be3ea080aU, 0x15082737f2d8f8dcU, 0xdf1505fafff411d5U,
  0xf40711eb23dbc7eeU, 0xfb032df3da06f607U, 0xdd29fee3e111dc04U, 0xf801f72d01f30fd2U,
  0xfaded9152716fd27U, 0x1beefedc140de2eaU, 0xf91c08eb00f410e2U, 0xe4cae9f816f1b3d3U,
  0x51d1bfafcec2800U, 0x3f200e4e5eedb10U, 0x7d4f0342d18fb07U, 0x3fbfaefeffceecbU,
  0xfcf1d9f127fa29f3U, 0xe0121ff00103faf1U, 0xd8dde10bdb1cf72eU, 0x1a1002e311de19e6U,
  0xcd1aea14b52f14ffU, 0x3041e3ce6f901faU, 0xa04210632fa2218U, 0x273e13ecf31fdeceU,
  0x321e23a290af104U, 0xf72f06f9eacd080cU, 0xf4fa0101f3090320U, 0x420d060d12f604f0U,
  0x12241806ff020431U, 0xe0f6d9e50a0adc09U, 0xff1ede2addfe0133U, 0x1206ee13ec12f0e6U,
  0xb914102d0011f2f7U, 0x14e40227f2e0d3ffU, 0x4e61ae9ee220210U, 0xd51812de1424d8f7U,
  0x31f2120619e0f21eU, 0x1e031d12d913c2efU, 0x14fd143214d4040fU, 0x3ff8fc19f6ebfde2U,
  0x212dd0e6e411e6e4U, 0x141ae3ed280d0ff4U, 0x120cf702e8e0f832U, 0xf0def710042e22f7U,
  0x191a1e11e009071bU, 0x23db03fbb4f4f00dU, 0xad8ed1304bc34ddU, 0xd3f91dfb19e545e2U,
  0x18323d0c2e0b1427U, 0x1620dfef1fdae1f0U, 0xe710112f1de21223U, 0xe80a0114dbef18d5U,
  0xe3f102fdeef7fd13U, 0xf5ff27ee0b01ef2eU, 0x27d8f4f00518d331U, 0xaf0e807090519faU,
  0xf30100f315f71815U, 0xe6f3f33eebcafbfaU, 0xebe30b17d5ea082fU, 0xd10f152801185014U,
  0xe9f456e9fbfd3d17U, 0x15ebeae4f5da09f0U, 0xf1b707051bd5f0ecU, 0x26f7ec3a110d071bU,
  0xf6041dfd2511091cU, 0xbcfa04fef7102620U, 0x9fc0ee70a21f108U, 0x15e70f3d02e21ec7U,
  0xfb08dff4eb11e4f7U, 0x35e411352b18dbe1U, 0xffdc0832d2051621U, 0x2f3ce7dde0d80af9U,
  0x1716f6e6fae308eaU, 0x3e6fe31e4270cf6U, 0x270d040ef0f70b10U, 0x32dd301fefebe609U,
  0xfbd30c07e9f11902U, 0xfeecf73bf8290f21U, 0xcbe3bb15f3dece0fU, 0x1401161ad50dc6eeU,
  0xec27ed29ff030cf1U, 0xfae2f0221ce403fcU, 0xc21c1123e3da2b32U, 0xe709e9ecbcde1208U,
  0xee00e8f5ecf0e32dU, 0xba1b04e5f4fc0e20U, 0xdbf5f100260bf3e2U, 0xe1ce213fcfe00e0U,
  0x2ce116f0faf6dd05U, 0xd1125ecf0383a02U, 0xea2a20edff26fcb0U, 0xb7021c34010afce8U,
  0x8f510e5010c0ddeU, 0xde37f7c90afe2f08U, 0x41ce8fd0fec2fecU, 0xdfce7f2110208f7U,
  0x34f013e8e6e6230fU, 0x1c0f36eef4f9f8f6U, 0xe0d9f8f513e50fe0U, 0x3e934070908dffdU,
  0xf039f1f7e1d824f2U, 0xca0df21b00fb27f0U, 0x5e4f6f6e7f91cc9U, 0xf308ebe7d3f5130aU,
  0x100927f4dee1e10dU, 0x51720070e03e830U, 0xd5fc122d19cc140dU, 0xf80118f32e0215f7U,
  0x202500feecf2f537U, 0x200101f0f515f633U, 0x12230a0006f41a05U, 0x11cfddf709cd0afdU,
  0x14ffec130bd2f70dU, 0x29d922132de415f0U, 0xa1602e8c209fdfbU, 0x705fbdc05dcedf4U,
  0xeb05040a0ee21ac9U, 0x2ce717d02e061d13U, 0x42ed07f5fb16f2f7U, 0xf9eb01fae71ae5dfU,
  0x193b0f1106eed80fU, 0x1e0de9fcda15ce03U, 0xf920241fe30ce40bU, 0x1ed23173fcd0a04U,
  0x11ef090cdaeaf817U, 0x90eede2f6f9eb2aU, 0xdd011d05ede004dcU, 0x13060cf30a08ee1eU,
  0xbfff50afb21e5feU, 0xfcec14133bf6de0eU, 0x4e81912e708f5c5U, 0xd5134ff0e3f1fef8U,
  0xfbfadbdcfffd20ebU, 0xf5d7f6faf724f9efU, 0xe12430fde1cc0707U, 0x90ce213d8041f37U,
  0xf6f52a40e50b0fc1U, 0x29100d00e70e14ecU, 0xfbfa0bfa11ecf1f4U, 0x9130ffbe7f40bf3U,
  0xfb19f3f7cc0f00f9U, 0xfb024c1a14071a30U, 0xd600f1f8f527e2faU, 0x292600f6ea19e7f3U,
  0xf2ff16e9bcf3fd0cU, 0x3406f10d0d120b2cU, 0xfdf6a7010e331916U, 0x141126010e04eee4U,
  0x1aee371ef6fcfbf2U, 0xf5fbf70711f5341eU, 0xf415d8cde1e80a22U, 0xf735e5fa04f1ff2bU,
  0x1209ff0408fc13e3U, 0x1a032404352f35e5U, 0x230810ed02f3f10bU, 0xc5340813213ef0f3U,
  0xe41115eb24e7ecedU, 0xe8cb04e4fef20809U, 0xc1beb0ad71406e2U, 0xec8fd12cfebdc20U,
  0x211a1112fd3103c9U, 0x250606f74ecb0b08U, 0x2e01ebe11f0ee5cbU, 0x330109d2f1fc3dccU,
  0xe0101811150f1902U, 0x501f32bebe0e212U, 0x30320c2d0712fc0aU, 0xc3e01dddedd51c40U,
  0x1d260a02321be5e2U, 0xe45e01c0c08fa0eU, 0xf311cf05ec0ee00bU, 0x2a1b1c1d04ebf0c1U,
  0xfde4dfeed41a1cc4U, 0xfbd9a80dd22a140cU, 0xddb20010f7cf3d0bU, 0xcf2210b0e0b0913U,
  0x614faf5ff1604feU, 0xd15def1fb00f3f8U, 0xf2c4d4fe08dd01d4U, 0xe4f5ff2702f1d40eU,
  0xf2f2f5ff10fe0319U, 0xea25ec2310fb1b00U, 0xf1ccf50cfb0625fbU, 0xfb1a0c220815f20aU,
  0x2001f518e3e5e347U, 0xf5e416e123fc210aU, 0x10fbec152ae510ebU, 0x33fbe70410e8f907U,
  0x171512fddc08fcf2U, 0xff1afe03f9fdb20fU, 0x3716e3e90d00eadbU, 0xe822ec14020efa3dU,
  0x1a0bb5060e04d9b2U, 0x10f7f9e4f627fcc5U, 0xdd1f0af00ee7eef1U, 0xb051c0f42ff081fU,
  0xf8f8f613050b51f4U, 0xdd19d4fa0605d2f8U, 0x7ed40e2cc19f03cU, 0xfd06e9e0e515e024U,
  0xdac9f5e81a050d13U, 0xfc09f0f2f504eb33U, 0xbffce4fb0506fc1aU, 0xd1fea32f4f0fd06U,
  0xef1c001df124e00aU, 0xf219153ad70905f1U, 0xfcfe0ffefbfb1514U, 0x180dec151bda12fcU,
  0x303122d1917f8eaU, 0x1be9ffe70a340708U, 0xfb0917d7e205ee06U, 0xc8ef4af91b2200f8U,
  0xedf3033007e9f5d5U, 0x23142a23153f2013U, 0x16fef503fdff20f6U, 0x222bf20cdf0cf809U,
  0x1cf8d90f2ae8c1fbU, 0x19e8f1f8f4ec0addU, 0xd2df12e4f8e72202U, 0xeac734fe4303f4f7U,
  0x142ce22e151205ffU, 0xc612fbecf8f3ec0aU, 0x17041bfdef0bf403U, 0x1be3120235e1e114U,
  0xdf201ded0b1af4f5U, 0x1c25c81612U, 0xff17da0ff9041324U, 0xd41b1a0f1d02f3e7U,
  0xfbda18cbdc4408f6U, 0xf2e39ddfe23e5feU, 0x133b1ce607000b05U, 0xe721f803f418e9feU,
  0x42f50bcef2f8050dU, 0x1324fa0b34f3e904U, 0xf1032de330faf9ecU, 0xe3b011602160311U,
  0xf001d00226fbf2f0U, 0xd6081602cedc2222U, 0xfb11f41603e80b0bU, 0xdcc7eaf2e6f3ec0aU,
  0x1a0005d0e5d6df00U, 0x1f0121ebdf09eb17U, 0x1020a041a19de01U, 0xeefcf8f2d4cd0aebU,
  0x547f70b382a1eefU, 0x3ded8f1f8e341feU, 0xfd18fd2e010c1af1U, 0xdccf12cc2b06ee1bU,
  0xf2fb181d1b04ece5U, 0x80c01f61527d2c8U, 0x28f52df3ffe80017U, 0xfd24f1edef04fbf3U,
  0xf4d9e421fc08e8f6U, 0xf00317fa2dc6090fU, 0x238e31a33f60213U, 0x2a2a04e5cb161f0dU,
  0x301934150df12ffcU, 0x2edbf1dd340704ebU, 0xd2f732f411f90403U, 0x80825eff6191419U,
  0x17f5faee213602e0U, 0x280f19fced1003cbU, 0x27ff09f428dcf10fU, 0x8f631fc0a1707f3U,
  0xe9f5f1dc1ae10302U, 0x640b4cbebe81bf0U, 0xd50b29d6d7f6073cU, 0x1f90f0c0fe50d02U,
  0x2814fc33e8f11ce3U, 0x2d6d0f4d516ee10U, 0xfd24011a0df11f1eU, 0xf9fcf82ff801e327U,
  0x3f061720f1f61cecU, 0xf9e409f0e4dede3cU, 0x1ce1ea0d3110f8f6U, 0xd282308dae4f2ddU,
  0x170718ea39c00b18U, 0xa101ec617e6dcffU, 0xde21f705251314feU, 0xe2df05c7f5e80609U,
  0xf8324303060ce7f0U, 0x14f912e1e6f3d8cdU, 0x102f7e21b1ee002U, 0xd8cd16e0fc2100fcU,
  0x3000e0ecf6f30dfaU, 0xc2430f4ebcf1debU, 0xeefdfeece9bd1e32U, 0x20d912100bf21de6U,
  0xf91014fd0cf3f9e9U, 0x213fe0e01f9ed03U, 0xe1f7d0d0ee191bbeU, 0x211100f808d0fe1dU,
  0xf7ff0c0dd5df3116U, 0x7efddffeb03db0eU, 0xef1efae2d2d9e9f1U, 0xeacbc5d924ffed16U,
  0xfdf1e9e329033328U, 0xd80b1ee7f4e420efU, 0xf411dc2f0309fef9U, 0xfc0b0dd801f955e2U,
  0xe700c4e727071813U, 0x19daf231020bf5ecU, 0xf0d0d9d607fc0febU, 0x110ceedafde427faU,
  0xe0d21412f3000cf9U, 0x1c050d01e0040ae7U, 0x2409fce917f32c04U, 0xefa0bf72513e608U,
  0xedf022022afcdc09U, 0xe901090730f80401U, 0x1b2f2625fd070002U, 0xf8f205d404ede3f8U,
  0xf7f028f71ef8280dU, 0xef2cedf207e9d6efU, 0x2f18fc102a22cdfeU, 0x16cac4f20a190815U,
  0x9fdee0df3ee2902U, 0x2015f510f1eddc16U, 0xf20fe7ee152d1327U, 0xfedd281f1201f2fbU,
  0xfb19f0e9d607ec11U, 0xdd1ff911f51e30ffU, 0x1aecfee7182a030fU, 0x32fcd7f30b09de11U,
  0xfff1ebda2bffece1U, 0xe913f9d4f1ca2705U, 0xf7210106e320ec14U, 0xf2450efeddf20cf8U,
  0x14012441fb1d0d17U, 0x1ee60517daff1cf5U, 0x3909171737e424d1U, 0xf903e3fa1fdd151cU,
  0xe000142a1612260aU, 0x3332825e2180df0U, 0xef0cfb1d2b36fb01U, 0xf518e0f400dc1c05U,
  0x15d3121822f7b017U, 0xcb0ae725f3d504f3U, 0x351d11c6ffedfbfcU, 0x215153bdb100f01U,
  0xfc13c7f4ebff3beeU, 0x612102a0efae924U, 0xda1a1fd8f20a050dU, 0xefea2db2e0140d30U,
  0x28f8f83e1fe6f1ceU, 0x16f4fed4dd04f4f2U, 0xe9cac42efa1d0afdU, 0xf60402f923010ce7U,
  0xe7ae0c0ac7ecfa0aU, 0xf8faed37ec02e5f3U, 0xe6fa060308e8060aU, 0x221f9fd014314ceU,
  0x1406f1e5231804e2U, 0xcdf13c180d450cfbU, 0x21f0191de7e6e429U, 0x2aecf1d61d1102e7U,
  0xe327ce0e0207d8eeU, 0xf7f4f1fc04f1e331U, 0xee3306050a06f3ffU, 0x2112f1e80908e823U,
  0x25f41621fa1ef60cU, 0xe60a1e13fb09efc1U, 0xede38010eeaf9eeU, 0xd6faebf1f5bbU,
  0xe8c940221af9c3e3U, 0xf4cbf6d8f6c5e1e3U, 0xf3fe1be0eef920eeU, 0x2cfdf63aea1a19fcU,
  0x218d40dea55d9d5U, 0xf010d040ee309f7U, 0x1ef7ff0f19e900dfU, 0xa01f413170fecfaU,
  0x2621fd13ded80d00U, 0x15070b24fd03e93aU, 0xfc012f0e531feU, 0xf2f7081ce1cefadfU,
  0xc1e20710f6d9e90bU, 0xd2ec0c1319f40006U, 0xc2170319be2d1917U, 0x1718e3e72a0038ffU,
  0x2e22236201dfaf6U, 0x5dbfcdff90df415U, 0x91d0b1d2af9e62dU, 0x10ffdd221d0a0103U,
  0xf520150de7e8d8f5U, 0xe4f2efe4ec0b2b17U, 0xff3ed0203caf926U, 0xe6ef0ff2fffcdf0fU,
  0xdff2fb2002d8140cU, 0x1513f2f7ec0003edU, 0xd0905eefffa0aecU, 0xe3e80510fecb0408U,
  0x1bf5eede1be8ed28U, 0x11da1de007ede9d2U, 0xf8f3d7160fd402f2U, 0x1a151a0ef033d9c4U,
  0xe61ac02107dd091fU, 0xf0e841f1f414f009U, 0xd5e40ae20ae4c50fU, 0xf4000aeff4f40d0eU,
  0xa0d0302ceefe0f7U, 0xeef81aec1a11f7fbU, 0xe7deea3ad0f4e3f6U, 0xfb061c0d0806e10bU,
  0x5fafc13ff08051bU, 0xf6f43221e3241434U, 0x190012dd0d16d2ddU, 0xb06fdf6cf18f8bdU,
  0x1a2c130708de0a10U, 0xf1210d1bf80ad9dfU, 0x105282609100650U, 0x2120fdf2301f2eaU,
  0x3812fc4bfd170f17U, 0xe8ffd8fb1a371cf7U, 0xf82cfb1c04d7e606U, 0x192c021ef1f20517U,
  0x2f0bf1f73af41be7U, 0x400fd111f2703e7U, 0x4ead2f2fa08e6fcU, 0xe10c0212f80a01f8U,
  0xf0265f25da14d700U, 0xe80ff430292feaU, 0xfe0bf50a0fcb25edU, 0x1d0315e82cf5e7U,
  0x2a3af2fefaecf7faU, 0x2104131109c7d11dU, 0xf6eac80a2e15d919U, 0xf5efe31404050f1dU,
  0x80fd500f115f909U, 0x19024412dc150607U, 0xf217e1dee8d917ffU, 0xdb5209edfce1193bU,
  0x24d5f118d6fcf7f0U, 0xed00e203ebff15f1U, 0x1518e913110c04d4U, 0x35080e0b04f5d5f2U,
  0xe70def00fe03f1U, 0x1ce721f71eec0cc9U, 0xee1b4c02091602U, 0xdb15df02e8e311ffU,
  0xd300f3e4e2cbfcdfU, 0x13d80ffbecfefdffU, 0x3f90df345fe0451U, 0xf02a39d720fa1bf3U,
  0xf80fdff2fd46fc18U, 0xfb0e06bf28dd14ebU, 0xf6f22301ebf6dbfbU, 0x31feefe601f20522U,
  0x7f41818e6eaeee5U, 0x2200facf1106fe2eU, 0x10d23db06e11803U, 0x1a09eae512f8cc01U,
  0xee0f0c27e838f002U, 0xdf82cecdddee418U, 0x1a24130314010ae4U, 0x24ddf9f9f5d5eefaU,
  0x30e2e7050d1ff415U, 0xdf0adc1a0f0bfffaU, 0xc71324f6070c14fcU, 0x161827eff0110cf9U,
  0xde11f6d12d1dd7fdU, 0xd0b27e2e63e110fU, 0x122102110f212416U, 0xe1e8031f14140f0aU,
  0x3aee0706e8000ae6U, 0x4fce626f3071cefU, 0x60aeb310000ed12U, 0xfcf9013b1a460efcU,
  0xff18310520f7e408U, 0x21e40133fc082e0cU, 0x806f9fe07f62dc0U, 0xfa2423ebe5f8fc0cU,
  0x1419290524f6eef1U, 0xcbeb1d07f5fa0710U, 0x6f012c60bebeaf6U, 0x11f1321c180b09f8U,
  0x101116081710271aU, 0xe00f6f7260efad8U, 0xff262b321f1c250dU, 0xf5f90af2e9fd040aU,
  0x1e61b0d3ce8d70eU, 0xd60b030306fa1115U, 0xd905f529f40bfff1U, 0xd09e1fadff219e0U,
  0xecfdfa0d06f8e208U, 0xf0c23ded09eed335U, 0x1efce2313eebffe9U, 0xffedf717e218cc1bU,
  0xfb0d09fd220806e4U, 0xec1a291808f51d0bU, 0xad8ea0ac8163ceeU, 0x1509d829f2e6d01aU,
  0xfae70b3eebf40be2U, 0x1f16e11f12f229f6U, 0xd30716151b0df7f3U, 0xf91de50a0cfcf4fbU,
  0x13fff20ce70811d9U, 0x15e91b13dccd2301U, 0xe1000601e9fbe72cU, 0xf2d93fe9c7cefee2U,
  0xf0ea132a242d2305U, 0xf6dceefa0626fd02U, 0x29ed3219ddd30a17U, 0x3d9e4170c0cdbf7U,
  0xbf9e60acb3f02ecU, 0xf41a24f5ddf60d15U, 0xfd2b4800eef9f0f7U, 0xe7160ff8bc0dea1cU,
  0xe9f829f8ed19e32cU, 0xfff2f4070ebdf900U, 0x163eb7e00403e711U, 0xf60a09dc1e211eeaU,
  0x8070008281819e5U, 0x27f7e5e5fae606d7U, 0xcf08f6f50f380ae3U, 0x131d02feeecbd0fdU,
  0xf50a0bf6f202e212U, 0xebf7ef19dee4fbecU, 0xe3e9fc1d3ff1f212U, 0xa19021df60fdb0eU,
  0xd0e73b15f80c05deU, 0xf4081315eaf9deeaU, 0x1f0004c40afe05e4U, 0xfb131a0e18faf900U,
  0xc9d9ef0717f912efU, 0xf1f7f6fb1ef1e2ebU, 0xc807dd2af039d710U, 0xe801082314e31bfaU,
  0xedfb06050e07eaefU, 0x7eafaf9e4de1308U, 0xf0e6f73026390c0aU, 0xf430e81fe0f004f4U,
  0x18120903daeafef3U, 0xf40d1cf9ed133deaU, 0x133043d6d9ac280eU, 0x1703cd250bf4e5d6U,
  0xdf31e4b000f2af2U, 0xf419e4e1fd0551efU, 0xde07f43df80715fcU, 0xe0e918f1fa151f30U,
  0x1405f31efbf9f80aU, 0xe0ff7081a08dcfeU, 0xf030eed01ffb00f5U, 0xefee090d0d38f713U,
  0x1002fad7f9e7f5f9U, 0xed28f3e11ff60d15U, 0x22e637fdfd08c3ecU, 0x6e4e3d10b13ebe0U,
  0xf1fbeef4101804efU, 0xfa23c7ff1d1ce2f0U, 0xf1f3ff0a0ef406f4U, 0x1f71603c0e0fdf3U,
  0x1c26f532152f1bfcU, 0xfafc0df6c42d3118U, 0xf61fe1d0042e4807U, 0x2e82dde1bfd0f04U,
  0xe917ee2cfad31d3eU, 0xf305fb0f19f70ed2U, 0x430905e7e8e9f02aU, 0x5e9e5180205ed11U,
  0x10e6defee416dcfbU, 0xef7ea0d0b1af606U, 0x510f10eea1c2019U, 0x2403071b23fb1b17U,
  0x5d7e912fff1f604U, 0x1600eef9cbf900f0U, 0xe8fc03000b1cf4eeU, 0xf43ac11556071f26U,
  0x2f34e6cd12fb04f5U, 0x33140933f8f1f324U, 0x160f05fad9fe130eU, 0xe4c110ef722fde4U,
  0xfc0e0b382721eefaU, 0x23f0fe330ae3dee9U, 0x17001be3d9e2103cU, 0x9cee6ed00eb1702U,
  0xe1cffcd109f0fcf2U, 0xf6f3dbf829d02ae9U, 0xe50dfc2713020206U, 0xebda1cd806e43d02U,
  0x41c0bebff05f3eeU, 0xd1e1e7f5d23abf32U, 0x8f6e2f7fafd0c0eU, 0x11f00a02ddee04faU,
  0xd9ed001d331d2f17U, 0xfedcf2f5081bd403U, 0x4f718dd0f161400U, 0xf0060dd019d7dd0aU,
  0x1c13f6ccfacfe706U, 0x280a1bfaeaf3f705U, 0x62a4c110e1b11c1U, 0x160bf1190b0e2a16U,
  0xec0f1cbee6f4e402U, 0xe623191f2e11131eU, 0xeef4e62af3f7050eU, 0x490f02f90507e7efU,
  0x14200908023115feU, 0x14e40af73f1b011fU, 0x13f4e0fc15fd26ffU, 0x24d71cfc0b1e171fU,
  0x2fd1118d922000dU, 0xf2fc0beaf7332045U, 0xde0c14c6f7dc1cfdU, 0x27d10408fde1f2f6U,
  0xeb0be70bf6020215U, 0x60506d32f0ec014U, 0xe2f7f71ad8fa0d0fU, 0xf6fd28e6fafce3f8U,
  0x101406f1e13d0f23U, 0xfc0b3ee42bff0527U, 0x1100f0f9321018ecU, 0xf7f9ed141726ee0aU,
  0xfb2d0cde16f8f5fbU, 0xa111a0805003505U, 0xe918ea213eeae73dU, 0xd02e3f1e011222eU,
  0xbf537f6e10bf8daU, 0xe5f5f8f946162401U, 0xee05e7c3f1e636efU, 0x319f8261dfafc0fU,
  0x15311515072cfcfdU, 0xa2de20f120a1931U, 0x7e7f00cdf1fdfceU, 0xa03fa03090f1ceaU,
  0x14f5eef119d4e301U, 0xfbfd11ea0108171cU, 0xf8f1f44814d2fe0fU, 0xfeddb0b07c32422U,
  0xf1fff70f2204f99fU, 0xf90505d10de3e7edU, 0x11c92304d50aff06U, 0xe7fa2dea23f2e504U,
  0xfa1b0adbff1eaa06U, 0xed570a12d6e0cce1U, 0x2e1ae61ff41f032aU, 0xf80504f11f2928d9U,
  0x3934e9ede2f3e1e1U, 0x200eaf6fc17f227U, 0x12dd11e7fa08f905U, 0x7084cf3052625e7U,
  0xe705011c000df208U, 0xcfffbf50c27074eU, 0xff08f5ea0fdd1e2cU, 0x903e81213ffedf5U,
  0xdf0004b1ceaeae6U, 0x64fe207f8e30313U, 0xefe9e8190904cbeeU, 0xd0f1e0e4e6140eebU,
  0x201024e0fef0cdd6U, 0x5d2e80dfee5fc3aU, 0xe0e9e0e0fdfd0307U, 0x4d40800be11e100U,
  0xe4f7f611eeeb083fU, 0x21f80e42e61813ccU, 0xf3030709ee1bebefU, 0xd7fb0800242df1feU,
  0xbc060cfe2a0a0d0dU, 0x111dea0de9f1f1ddU, 0xe5fee5f4f0bf0d34U, 0x818cff91110def0U,
  0xcefa0435e5f5e2fbU, 0xe721070bfacd03f7U, 0x3df20ecf1dafacfU, 0xf3d5ff1ff022e71dU,
  0xf419e920e6e3dcf2U, 0x22fce8e8fc44ff13U, 0x7f50febeef54739U, 0xf9410fe7f0fd0704U,
  0x2147010b15fe01f7U, 0x11011edc23d5ed00U, 0x32defbfeedff08eaU, 0xbdf0613ed0bef0dU,
  0xc040bfcf3e4f0fcU, 0xce20020d21f0fc17U, 0xebf9ccebd7eb1701U, 0x15cadadf1526f0f2U,
  0x15d1fd08fb170bdbU, 0xe0f4d9e1302f0309U, 0xfafcd2e7fdc6f5feU, 0x2614e70001e7eeefU,
  0xf70503041c34f309U, 0xf8f8f0d8fdfa13f5U, 0x22f31b1408fefff0U, 0xeee0d409c91f0406U,
  0x22500d9e8220f38U, 0x1fdadefbeb1ff42aU, 0xe723ff023b1237d6U, 0xf01206fddf15fddeU,
  0x1207b7e000ec1de9U, 0xf825032b0c16ff33U, 0xf9dc0f0ae1150a15U, 0x121fd7f8f202e91fU,
  0x11ff0d1e03e802dcU, 0xfb0aee30f501e8f0U, 0xa0df9f869e20418U, 0x25f6dd34330601ffU,
  0xeac1f8e3c93631f1U, 0xc10d0113040c13e5U, 0x6051201ea3c20dcU, 0x17c61219dc08e1d3U,
  0xd3e80e08f210d4f0U, 0xe8ddf906f503f711U, 0x2e1723f6eaf42519U, 0xe6fbe90de11bfe3bU,
  0x1c1be937f12008e5U, 0xf3071321e01bf4eaU, 0xa02fefd17e6110eU, 0x1309f0d51c04f12eU,
  0xf5fdf207f9eee81fU, 0xe52014e6f323fcffU, 0xe6ced4d9e6fe0113U, 0xe6022c290ae80ef1U,
  0xdf20c05f90206feU, 0xe20b0e19fbf91702U, 0xd814e8f2dc153b1cU, 0x71122072df0f6dcU,
  0x9f919fcfb11e8daU, 0x60704f5f4160ffaU, 0xe6e1031de3121104U, 0x1313e2fb02fef7f7U,
  0xfef7edf4db02df0fU, 0x17da0b222c0ee2faU, 0xd82d2eeeea4e1506U, 0xf80a1cfe242be908U,
  0xbe41afff3ab3f07U, 0xf024240cd1eed219U, 0x1502f9c51b100800U, 0xf705f80707e449f5U,
  0x111135fd03323b0bU, 0xe0cf90308053302U, 0xf01303feebf432dfU, 0x14700fc150020e4U,
  0xf2211714012f331bU, 0xeebe11f28f616f1U, 0x27e71a13e4100e1aU, 0xf90a25cd27f61303U,
  0x2afe20f2e21d0423U, 0x28ffe80e1a0eef03U, 0x261ff12bfe0ef10cU, 0x26032af623c2d7faU,
  0x122d1318e9dc1d18U, 0x2ee324e64ce908f6U, 0xd32b07ec171818U, 0xf2031a0015e505e1U,
  0x2a14fcd11d1df514U, 0xffe8fff230cefc04U, 0xf0102eff4f90204U, 0xf7fbc8fff5280c1cU,
  0x1c1503ecdee70c08U, 0xcf08fdec1711e2feU, 0xdeff92614c6f4deU, 0x200215e013edf9fcU,
  0xe72005021434ebf4U, 0xe5ed0243ebf0240fU, 0xe7fdc5e501023212U, 0x1e0d2e9e7e4ecefU,
  0xd1ebfbd82ee71220U, 0xfb02eeedeae7ffc3U, 0x2e60e2d223212c5U, 0xdc2611ff2107fde4U,
  0x2f1b2722eeddc803U, 0xe329fbd5d6f41213U, 0xedde03fe06d519f2U, 0x506f421f1ee28d8U,
  0xd6f2f40deef51d03U, 0x1721c20b24f30912U, 0xfcf5fcfefef5ff5aU, 0xeb0af40c28e60e0eU,
  0xf426f71afa0df921U, 0x18f0e708f725f4e2U, 0xc930212f1f3820ecU, 0x3bf22a270a3e1ae0U,
  0x32010e152a041ee6U, 0xf5d931f0fb0cf9edU, 0xf5ef1efe20020ff7U, 0xfae9060847fbfe2cU,
  0x19ffda0e0a14fd01U, 0x2905ea090503ebe1U, 0xe0b270b10031002U, 0xdcc10e1d130904ecU,
  0x100df42e1cfedcedU, 0xe618c9101318dcebU, 0xffc92af334e10705U, 0x8d00d292618eaf8U,
  0x140018022c1bf308U, 0x1c24fe1ecfe11708U, 0xf7fa0d0b0ee9081dU, 0xe6efe409e22723e9U,
  0xb015e9ebdfe8e23dU, 0xdc4e613fc26fd13U, 0x3ff1e748fb1bf40aU, 0xfafb1d37f2d324e7U,
  0x312d17020c0b23ffU, 0xff160212f8fbfa0cU, 0x1bdc03f204ef050aU, 0xf209ff0100f71108U,
  0xc051303f6fdec1eU, 0xd0f51be3e7f9f6daU, 0xfbef12d8ee0beef0U, 0xf3ffe3e2021fc6f7U,
